#include "magic_wand_model_data.h"


// We need to keep the data array aligned on some architectures.

#ifdef __has_attribute

#define HAVE_ATTRIBUTE(x) __has_attribute(x)

#else

#define HAVE_ATTRIBUTE(x) 0

#endif

#if HAVE_ATTRIBUTE(aligned) || (defined(__GNUC__) && !defined(__clang__))

#define DATA_ALIGN_ATTRIBUTE __attribute__((aligned(4)))

#else

#define DATA_ALIGN_ATTRIBUTE

#endif


const unsigned char g_magic_wand_model_data[] DATA_ALIGN_ATTRIBUTE = {

  // Paste the data of the char array in `src/model.cc` here
  
  0x1c, 0x00, 0x00, 0x00, 0x54, 0x46, 0x4c, 0x33, 0x14, 0x00, 0x20, 0x00,
  0x04, 0x00, 0x08, 0x00, 0x0c, 0x00, 0x10, 0x00, 0x14, 0x00, 0x00, 0x00,
  0x18, 0x00, 0x1c, 0x00, 0x14, 0x00, 0x00, 0x00, 0x03, 0x00, 0x00, 0x00,
  0x18, 0x00, 0x00, 0x00, 0x2c, 0x00, 0x00, 0x00, 0xd8, 0x00, 0x00, 0x00,
  0x2c, 0x00, 0x00, 0x00, 0x80, 0x00, 0x00, 0x00, 0x78, 0x00, 0x00, 0x00,
  0x05, 0x00, 0x00, 0x00, 0x28, 0x07, 0x00, 0x00, 0x44, 0x06, 0x00, 0x00,
  0xbc, 0x03, 0x00, 0x00, 0xf8, 0x02, 0x00, 0x00, 0xac, 0x01, 0x00, 0x00,
  0x01, 0x00, 0x00, 0x00, 0xd0, 0x00, 0x00, 0x00, 0x14, 0x00, 0x00, 0x00,
  0xdc, 0x32, 0x00, 0x00, 0xd8, 0x32, 0x00, 0x00, 0xd0, 0x31, 0x00, 0x00,
  0x1c, 0x31, 0x00, 0x00, 0x74, 0x30, 0x00, 0x00, 0xfc, 0x2f, 0x00, 0x00,
  0x90, 0x2f, 0x00, 0x00, 0x40, 0x13, 0x00, 0x00, 0xec, 0x11, 0x00, 0x00,
  0x10, 0x10, 0x00, 0x00, 0xb4, 0x07, 0x00, 0x00, 0xb0, 0x32, 0x00, 0x00,
  0xac, 0x32, 0x00, 0x00, 0xa8, 0x32, 0x00, 0x00, 0xa4, 0x32, 0x00, 0x00,
  0xa0, 0x32, 0x00, 0x00, 0x9c, 0x32, 0x00, 0x00, 0x98, 0x32, 0x00, 0x00,
  0x94, 0x32, 0x00, 0x00, 0x3c, 0x00, 0x00, 0x00, 0x00, 0x00, 0x00, 0x00,
  0x01, 0x00, 0x00, 0x00, 0x0c, 0x00, 0x00, 0x00, 0x08, 0x00, 0x0c, 0x00,
  0x04, 0x00, 0x08, 0x00, 0x08, 0x00, 0x00, 0x00, 0x08, 0x00, 0x00, 0x00,
  0x13, 0x00, 0x00, 0x00, 0x13, 0x00, 0x00, 0x00, 0x6d, 0x69, 0x6e, 0x5f,
  0x72, 0x75, 0x6e, 0x74, 0x69, 0x6d, 0x65, 0x5f, 0x76, 0x65, 0x72, 0x73,
  0x69, 0x6f, 0x6e, 0x00, 0xb6, 0xce, 0xff, 0xff, 0x04, 0x00, 0x00, 0x00,
  0x10, 0x00, 0x00, 0x00, 0x31, 0x2e, 0x35, 0x2e, 0x30, 0x00, 0x00, 0x00,
  0x00, 0x00, 0x00, 0x00, 0x00, 0x00, 0x00, 0x00, 0x0f, 0x00, 0x00, 0x00,
  0x4d, 0x4c, 0x49, 0x52, 0x20, 0x43, 0x6f, 0x6e, 0x76, 0x65, 0x72, 0x74,
  0x65, 0x64, 0x2e, 0x00, 0x00, 0x00, 0x0e, 0x00, 0x18, 0x00, 0x04, 0x00,
  0x08, 0x00, 0x0c, 0x00, 0x10, 0x00, 0x14, 0x00, 0x0e, 0x00, 0x00, 0x00,
  0x14, 0x00, 0x00, 0x00, 0x5c, 0x00, 0x00, 0x00, 0x60, 0x00, 0x00, 0x00,
  0x64, 0x00, 0x00, 0x00, 0x84, 0x00, 0x00, 0x00, 0x12, 0x00, 0x00, 0x00,
  0x9c, 0x31, 0x00, 0x00, 0x2c, 0x31, 0x00, 0x00, 0x88, 0x30, 0x00, 0x00,
  0xe0, 0x2f, 0x00, 0x00, 0x38, 0x2f, 0x00, 0x00, 0xd4, 0x2e, 0x00, 0x00,
  0x6c, 0x2e, 0x00, 0x00, 0x18, 0x12, 0x00, 0x00, 0xbc, 0x10, 0x00, 0x00,
  0xe0, 0x0e, 0x00, 0x00, 0x0c, 0x06, 0x00, 0x00, 0x28, 0x05, 0x00, 0x00,
  0xe8, 0x03, 0x00, 0x00, 0x3c, 0x03, 0x00, 0x00, 0x98, 0x02, 0x00, 0x00,
  0xd4, 0x01, 0x00, 0x00, 0x10, 0x01, 0x00, 0x00, 0x84, 0x00, 0x00, 0x00,
  0x01, 0x00, 0x00, 0x00, 0x00, 0x00, 0x00, 0x00, 0x01, 0x00, 0x00, 0x00,
  0x11, 0x00, 0x00, 0x00, 0x08, 0x00, 0x00, 0x00, 0x74, 0x05, 0x00, 0x00,
  0x94, 0x04, 0x00, 0x00, 0x78, 0x03, 0x00, 0x00, 0xbc, 0x02, 0x00, 0x00,
  0x30, 0x02, 0x00, 0x00, 0x50, 0x01, 0x00, 0x00, 0xa8, 0x00, 0x00, 0x00,
  0x10, 0x00, 0x00, 0x00, 0x04, 0x00, 0x00, 0x00, 0x6d, 0x61, 0x69, 0x6e,
  0x00, 0x00, 0x00, 0x00, 0x7a, 0xff, 0xff, 0xff, 0x00, 0x00, 0x00, 0x09,
  0x04, 0x00, 0x00, 0x00, 0x1c, 0x00, 0x00, 0x00, 0x10, 0x00, 0x00, 0x00,
  0x04, 0x00, 0x00, 0x00, 0xb2, 0xcf, 0xff, 0xff, 0x00, 0x00, 0x80, 0x3f,
  0x01, 0x00, 0x00, 0x00, 0x11, 0x00, 0x00, 0x00, 0x01, 0x00, 0x00, 0x00,
  0x10, 0x00, 0x00, 0x00, 0xa0, 0xfa, 0xff, 0xff, 0x19, 0x00, 0x00, 0x00,
  0x00, 0x00, 0x00, 0x19, 0x01, 0x00, 0x00, 0x00, 0x40, 0xcf, 0xff, 0xff,
  0x14, 0x00, 0x00, 0x00, 0x12, 0x00, 0x00, 0x00, 0x18, 0x00, 0x00, 0x00,
  0x30, 0x00, 0x00, 0x00, 0x20, 0x00, 0x00, 0x00, 0x02, 0x00, 0x00, 0x00,
  0x01, 0x00, 0x00, 0x00, 0x04, 0x00, 0x00, 0x00, 0x08, 0x00, 0x00, 0x00,
  0x49, 0x64, 0x65, 0x6e, 0x74, 0x69, 0x74, 0x79, 0x00, 0x00, 0x00, 0x00,
  0x02, 0x00, 0x00, 0x00, 0xff, 0xff, 0xff, 0xff, 0x04, 0x00, 0x00, 0x00,
  0x24, 0xd0, 0xff, 0xff, 0x00, 0x00, 0x0e, 0x00, 0x18, 0x00, 0x08, 0x00,
  0x0c, 0x00, 0x10, 0x00, 0x07, 0x00, 0x14, 0x00, 0x0e, 0x00, 0x00, 0x00,
  0x00, 0x00, 0x00, 0x08, 0x03, 0x00, 0x00, 0x00, 0x18, 0x00, 0x00, 0x00,
  0x0c, 0x00, 0x00, 0x00, 0x04, 0x00, 0x00, 0x00, 0x40, 0xcf, 0xff, 0xff,
  0x01, 0x00, 0x00, 0x00, 0x10, 0x00, 0x00, 0x00, 0x03, 0x00, 0x00, 0x00,
  0x0f, 0x00, 0x00, 0x00, 0x07, 0x00, 0x00, 0x00, 0x04, 0x00, 0x00, 0x00,
  0xc8, 0xcf, 0xff, 0xff, 0x14, 0x00, 0x00, 0x00, 0x11, 0x00, 0x00, 0x00,
  0x18, 0x00, 0x00, 0x00, 0x5c, 0x00, 0x00, 0x00, 0x4c, 0x00, 0x00, 0x00,
  0x02, 0x00, 0x00, 0x00, 0x01, 0x00, 0x00, 0x00, 0x04, 0x00, 0x00, 0x00,
  0x34, 0x00, 0x00, 0x00, 0x73, 0x65, 0x71, 0x75, 0x65, 0x6e, 0x74, 0x69,
  0x61, 0x6c, 0x2f, 0x64, 0x65, 0x6e, 0x73, 0x65, 0x5f, 0x31, 0x2f, 0x4d,
  0x61, 0x74, 0x4d, 0x75, 0x6c, 0x3b, 0x73, 0x65, 0x71, 0x75, 0x65, 0x6e,
  0x74, 0x69, 0x61, 0x6c, 0x2f, 0x64, 0x65, 0x6e, 0x73, 0x65, 0x5f, 0x31,
  0x2f, 0x42, 0x69, 0x61, 0x73, 0x41, 0x64, 0x64, 0x00, 0x00, 0x00, 0x00,
  0x02, 0x00, 0x00, 0x00, 0xff, 0xff, 0xff, 0xff, 0x04, 0x00, 0x00, 0x00,
  0xc8, 0xcf, 0xff, 0xff, 0xda, 0xfc, 0xff, 0xff, 0x00, 0x00, 0x00, 0x08,
  0x03, 0x00, 0x00, 0x00, 0x24, 0x00, 0x00, 0x00, 0x18, 0x00, 0x00, 0x00,
  0x0c, 0x00, 0x00, 0x00, 0x00, 0x00, 0x06, 0x00, 0x08, 0x00, 0x07, 0x00,
  0x06, 0x00, 0x00, 0x00, 0x00, 0x00, 0x00, 0x01, 0x01, 0x00, 0x00, 0x00,
  0x0f, 0x00, 0x00, 0x00, 0x03, 0x00, 0x00, 0x00, 0x0e, 0x00, 0x00, 0x00,
  0x06, 0x00, 0x00, 0x00, 0x03, 0x00, 0x00, 0x00, 0xe8, 0xfb, 0xff, 0xff,
  0x09, 0x00, 0x00, 0x00, 0x00, 0x00, 0x00, 0x09, 0x01, 0x00, 0x00, 0x00,
  0x88, 0xd0, 0xff, 0xff, 0x14, 0x00, 0x00, 0x00, 0x10, 0x00, 0x00, 0x00,
  0x18, 0x00, 0x00, 0x00, 0x6c, 0x00, 0x00, 0x00, 0x5c, 0x00, 0x00, 0x00,
  0x02, 0x00, 0x00, 0x00, 0x01, 0x00, 0x00, 0x00, 0x10, 0x00, 0x00, 0x00,
  0x46, 0x00, 0x00, 0x00, 0x73, 0x65, 0x71, 0x75, 0x65, 0x6e, 0x74, 0x69,
  0x61, 0x6c, 0x2f, 0x64, 0x65, 0x6e, 0x73, 0x65, 0x2f, 0x4d, 0x61, 0x74,
  0x4d, 0x75, 0x6c, 0x3b, 0x73, 0x65, 0x71, 0x75, 0x65, 0x6e, 0x74, 0x69,
  0x61, 0x6c, 0x2f, 0x64, 0x65, 0x6e, 0x73, 0x65, 0x2f, 0x52, 0x65, 0x6c,
  0x75, 0x3b, 0x73, 0x65, 0x71, 0x75, 0x65, 0x6e, 0x74, 0x69, 0x61, 0x6c,
  0x2f, 0x64, 0x65, 0x6e, 0x73, 0x65, 0x2f, 0x42, 0x69, 0x61, 0x73, 0x41,
  0x64, 0x64, 0x00, 0x00, 0x02, 0x00, 0x00, 0x00, 0xff, 0xff, 0xff, 0xff,
  0x10, 0x00, 0x00, 0x00, 0xa8, 0xd1, 0xff, 0xff, 0x00, 0x00, 0x0a, 0x00,
  0x10, 0x00, 0x04, 0x00, 0x08, 0x00, 0x0c, 0x00, 0x0a, 0x00, 0x00, 0x00,
  0x02, 0x00, 0x00, 0x00, 0x10, 0x00, 0x00, 0x00, 0x04, 0x00, 0x00, 0x00,
  0x01, 0x00, 0x00, 0x00, 0x0e, 0x00, 0x00, 0x00, 0x02, 0x00, 0x00, 0x00,
  0x0d, 0x00, 0x00, 0x00, 0x05, 0x00, 0x00, 0x00, 0xa8, 0xfc, 0xff, 0xff,
  0x16, 0x00, 0x00, 0x00, 0x00, 0x00, 0x00, 0x16, 0x01, 0x00, 0x00, 0x00,
  0x48, 0xd1, 0xff, 0xff, 0x14, 0x00, 0x00, 0x00, 0x0f, 0x00, 0x00, 0x00,
  0x18, 0x00, 0x00, 0x00, 0x40, 0x00, 0x00, 0x00, 0x30, 0x00, 0x00, 0x00,
  0x02, 0x00, 0x00, 0x00, 0x01, 0x00, 0x00, 0x00, 0x70, 0x00, 0x00, 0x00,
  0x1a, 0x00, 0x00, 0x00, 0x73, 0x65, 0x71, 0x75, 0x65, 0x6e, 0x74, 0x69,
  0x61, 0x6c, 0x2f, 0x66, 0x6c, 0x61, 0x74, 0x74, 0x65, 0x6e, 0x2f, 0x52,
  0x65, 0x73, 0x68, 0x61, 0x70, 0x65, 0x00, 0x00, 0x02, 0x00, 0x00, 0x00,
  0xff, 0xff, 0xff, 0xff, 0x70, 0x00, 0x00, 0x00, 0x2c, 0xd1, 0xff, 0xff,
  0x3e, 0xfe, 0xff, 0xff, 0x00, 0x00, 0x00, 0x05, 0x01, 0x00, 0x00, 0x00,
  0x38, 0x00, 0x00, 0x00, 0x2c, 0x00, 0x00, 0x00, 0x14, 0x00, 0x00, 0x00,
  0x00, 0x00, 0x0e, 0x00, 0x14, 0x00, 0x00, 0x00, 0x10, 0x00, 0x0c, 0x00,
  0x08, 0x00, 0x04, 0x00, 0x0e, 0x00, 0x00, 0x00, 0x03, 0x00, 0x00, 0x00,
  0x01, 0x00, 0x00, 0x00, 0x03, 0x00, 0x00, 0x00, 0x01, 0x00, 0x00, 0x00,
  0x01, 0x00, 0x00, 0x00, 0x0d, 0x00, 0x00, 0x00, 0x01, 0x00, 0x00, 0x00,
  0x0c, 0x00, 0x00, 0x00, 0xe8, 0xd1, 0xff, 0xff, 0x14, 0x00, 0x00, 0x00,
  0x0e, 0x00, 0x00, 0x00, 0x20, 0x00, 0x00, 0x00, 0x58, 0x00, 0x00, 0x00,
  0x40, 0x00, 0x00, 0x00, 0x04, 0x00, 0x00, 0x00, 0x01, 0x00, 0x00, 0x00,
  0x07, 0x00, 0x00, 0x00, 0x01, 0x00, 0x00, 0x00, 0x10, 0x00, 0x00, 0x00,
  0x22, 0x00, 0x00, 0x00, 0x73, 0x65, 0x71, 0x75, 0x65, 0x6e, 0x74, 0x69,
  0x61, 0x6c, 0x2f, 0x6d, 0x61, 0x78, 0x5f, 0x70, 0x6f, 0x6f, 0x6c, 0x69,
  0x6e, 0x67, 0x32, 0x64, 0x5f, 0x31, 0x2f, 0x4d, 0x61, 0x78, 0x50, 0x6f,
  0x6f, 0x6c, 0x00, 0x00, 0x04, 0x00, 0x00, 0x00, 0xff, 0xff, 0xff, 0xff,
  0x07, 0x00, 0x00, 0x00, 0x01, 0x00, 0x00, 0x00, 0x10, 0x00, 0x00, 0x00,
  0xe4, 0xd1, 0xff, 0xff, 0x1a, 0xfe, 0xff, 0xff, 0x00, 0x00, 0x00, 0x01,
  0x24, 0x00, 0x00, 0x00, 0x18, 0x00, 0x00, 0x00, 0x04, 0x00, 0x00, 0x00,
  0x0c, 0xfe, 0xff, 0xff, 0x01, 0x00, 0x00, 0x00, 0x01, 0x00, 0x00, 0x00,
  0x00, 0x00, 0x00, 0x01, 0x01, 0x00, 0x00, 0x00, 0x0c, 0x00, 0x00, 0x00,
  0x03, 0x00, 0x00, 0x00, 0x0b, 0x00, 0x00, 0x00, 0x09, 0x00, 0x00, 0x00,
  0x02, 0x00, 0x00, 0x00, 0x90, 0xd2, 0xff, 0xff, 0x14, 0x00, 0x00, 0x00,
  0x0d, 0x00, 0x00, 0x00, 0x20, 0x00, 0x00, 0x00, 0xb8, 0x00, 0x00, 0x00,
  0xa0, 0x00, 0x00, 0x00, 0x04, 0x00, 0x00, 0x00, 0x01, 0x00, 0x00, 0x00,
  0x15, 0x00, 0x00, 0x00, 0x01, 0x00, 0x00, 0x00, 0x10, 0x00, 0x00, 0x00,
  0x83, 0x00, 0x00, 0x00, 0x73, 0x65, 0x71, 0x75, 0x65, 0x6e, 0x74, 0x69,
  0x61, 0x6c, 0x2f, 0x63, 0x6f, 0x6e, 0x76, 0x32, 0x64, 0x5f, 0x31, 0x2f,
  0x52, 0x65, 0x6c, 0x75, 0x3b, 0x73, 0x65, 0x71, 0x75, 0x65, 0x6e, 0x74,
  0x69, 0x61, 0x6c, 0x2f, 0x63, 0x6f, 0x6e, 0x76, 0x32, 0x64, 0x5f, 0x31,
  0x2f, 0x42, 0x69, 0x61, 0x73, 0x41, 0x64, 0x64, 0x3b, 0x73, 0x65, 0x71,
  0x75, 0x65, 0x6e, 0x74, 0x69, 0x61, 0x6c, 0x2f, 0x63, 0x6f, 0x6e, 0x76,
  0x32, 0x64, 0x5f, 0x31, 0x2f, 0x43, 0x6f, 0x6e, 0x76, 0x32, 0x44, 0x3b,
  0x73, 0x65, 0x71, 0x75, 0x65, 0x6e, 0x74, 0x69, 0x61, 0x6c, 0x2f, 0x63,
  0x6f, 0x6e, 0x76, 0x32, 0x64, 0x5f, 0x31, 0x2f, 0x42, 0x69, 0x61, 0x73,
  0x41, 0x64, 0x64, 0x2f, 0x52, 0x65, 0x61, 0x64, 0x56, 0x61, 0x72, 0x69,
  0x61, 0x62, 0x6c, 0x65, 0x4f, 0x70, 0x2f, 0x72, 0x65, 0x73, 0x6f, 0x75,
  0x72, 0x63, 0x65, 0x00, 0x04, 0x00, 0x00, 0x00, 0xff, 0xff, 0xff, 0xff,
  0x15, 0x00, 0x00, 0x00, 0x01, 0x00, 0x00, 0x00, 0x10, 0x00, 0x00, 0x00,
  0xfc, 0xd3, 0xff, 0xff, 0x00, 0x00, 0x0e, 0x00, 0x1a, 0x00, 0x08, 0x00,
  0x0c, 0x00, 0x10, 0x00, 0x07, 0x00, 0x14, 0x00, 0x0e, 0x00, 0x00, 0x00,
  0x00, 0x00, 0x00, 0x05, 0x01, 0x00, 0x00, 0x00, 0x3c, 0x00, 0x00, 0x00,
  0x30, 0x00, 0x00, 0x00, 0x14, 0x00, 0x00, 0x00, 0x00, 0x00, 0x0e, 0x00,
  0x18, 0x00, 0x17, 0x00, 0x10, 0x00, 0x0c, 0x00, 0x08, 0x00, 0x04, 0x00,
  0x0e, 0x00, 0x00, 0x00, 0x03, 0x00, 0x00, 0x00, 0x03, 0x00, 0x00, 0x00,
  0x03, 0x00, 0x00, 0x00, 0x03, 0x00, 0x00, 0x00, 0x00, 0x00, 0x00, 0x01,
  0x01, 0x00, 0x00, 0x00, 0x0b, 0x00, 0x00, 0x00, 0x01, 0x00, 0x00, 0x00,
  0x0a, 0x00, 0x00, 0x00, 0x2c, 0xff, 0xff, 0xff, 0x11, 0x00, 0x00, 0x00,
  0x00, 0x00, 0x00, 0x11, 0x01, 0x00, 0x00, 0x00, 0xcc, 0xd3, 0xff, 0xff,
  0x14, 0x00, 0x00, 0x00, 0x0c, 0x00, 0x00, 0x00, 0x20, 0x00, 0x00, 0x00,
  0x58, 0x00, 0x00, 0x00, 0x40, 0x00, 0x00, 0x00, 0x04, 0x00, 0x00, 0x00,
  0x01, 0x00, 0x00, 0x00, 0x15, 0x00, 0x00, 0x00, 0x01, 0x00, 0x00, 0x00,
  0x08, 0x00, 0x00, 0x00, 0x20, 0x00, 0x00, 0x00, 0x73, 0x65, 0x71, 0x75,
  0x65, 0x6e, 0x74, 0x69, 0x61, 0x6c, 0x2f, 0x6d, 0x61, 0x78, 0x5f, 0x70,
  0x6f, 0x6f, 0x6c, 0x69, 0x6e, 0x67, 0x32, 0x64, 0x2f, 0x4d, 0x61, 0x78,
  0x50, 0x6f, 0x6f, 0x6c, 0x00, 0x00, 0x00, 0x00, 0x04, 0x00, 0x00, 0x00,
  0xff, 0xff, 0xff, 0xff, 0x15, 0x00, 0x00, 0x00, 0x01, 0x00, 0x00, 0x00,
  0x08, 0x00, 0x00, 0x00, 0xd8, 0xd4, 0xff, 0xff, 0x00, 0x00, 0x0e, 0x00,
  0x14, 0x00, 0x00, 0x00, 0x08, 0x00, 0x0c, 0x00, 0x07, 0x00, 0x10, 0x00,
  0x0e, 0x00, 0x00, 0x00, 0x00, 0x00, 0x00, 0x01, 0x30, 0x00, 0x00, 0x00,
  0x24, 0x00, 0x00, 0x00, 0x10, 0x00, 0x00, 0x00, 0x0c, 0x00, 0x10, 0x00,
  0x00, 0x00, 0x04, 0x00, 0x08, 0x00, 0x0f, 0x00, 0x0c, 0x00, 0x00, 0x00,
  0x01, 0x00, 0x00, 0x00, 0x01, 0x00, 0x00, 0x00, 0x00, 0x00, 0x00, 0x01,
  0x01, 0x00, 0x00, 0x00, 0x0a, 0x00, 0x00, 0x00, 0x03, 0x00, 0x00, 0x00,
  0x00, 0x00, 0x00, 0x00, 0x08, 0x00, 0x00, 0x00, 0x01, 0x00, 0x00, 0x00,
  0x0c, 0x00, 0x10, 0x00, 0x0b, 0x00, 0x00, 0x00, 0x0c, 0x00, 0x04, 0x00,
  0x0c, 0x00, 0x00, 0x00, 0x03, 0x00, 0x00, 0x00, 0x00, 0x00, 0x00, 0x03,
  0x01, 0x00, 0x00, 0x00, 0xac, 0xd4, 0xff, 0xff, 0x14, 0x00, 0x00, 0x00,
  0x0b, 0x00, 0x00, 0x00, 0x20, 0x00, 0x00, 0x00, 0xb0, 0x00, 0x00, 0x00,
  0x98, 0x00, 0x00, 0x00, 0x04, 0x00, 0x00, 0x00, 0x01, 0x00, 0x00, 0x00,
  0x40, 0x00, 0x00, 0x00, 0x03, 0x00, 0x00, 0x00, 0x08, 0x00, 0x00, 0x00,
  0x7b, 0x00, 0x00, 0x00, 0x73, 0x65, 0x71, 0x75, 0x65, 0x6e, 0x74, 0x69,
  0x61, 0x6c, 0x2f, 0x63, 0x6f, 0x6e, 0x76, 0x32, 0x64, 0x2f, 0x52, 0x65,
  0x6c, 0x75, 0x3b, 0x73, 0x65, 0x71, 0x75, 0x65, 0x6e, 0x74, 0x69, 0x61,
  0x6c, 0x2f, 0x63, 0x6f, 0x6e, 0x76, 0x32, 0x64, 0x2f, 0x42, 0x69, 0x61,
  0x73, 0x41, 0x64, 0x64, 0x3b, 0x73, 0x65, 0x71, 0x75, 0x65, 0x6e, 0x74,
  0x69, 0x61, 0x6c, 0x2f, 0x63, 0x6f, 0x6e, 0x76, 0x32, 0x64, 0x2f, 0x43,
  0x6f, 0x6e, 0x76, 0x32, 0x44, 0x3b, 0x73, 0x65, 0x71, 0x75, 0x65, 0x6e,
  0x74, 0x69, 0x61, 0x6c, 0x2f, 0x63, 0x6f, 0x6e, 0x76, 0x32, 0x64, 0x2f,
  0x42, 0x69, 0x61, 0x73, 0x41, 0x64, 0x64, 0x2f, 0x52, 0x65, 0x61, 0x64,
  0x56, 0x61, 0x72, 0x69, 0x61, 0x62, 0x6c, 0x65, 0x4f, 0x70, 0x2f, 0x72,
  0x65, 0x73, 0x6f, 0x75, 0x72, 0x63, 0x65, 0x00, 0x04, 0x00, 0x00, 0x00,
  0xff, 0xff, 0xff, 0xff, 0x40, 0x00, 0x00, 0x00, 0x03, 0x00, 0x00, 0x00,
  0x08, 0x00, 0x00, 0x00, 0x00, 0xd5, 0xff, 0xff, 0x0a, 0xd6, 0xff, 0xff,
  0x04, 0x00, 0x00, 0x00, 0x00, 0x08, 0x00, 0x00, 0x03, 0xba, 0x4e, 0x3c,
  0x24, 0xe2, 0x96, 0x3e, 0xd4, 0xe6, 0x6c, 0xbe, 0xd6, 0xc8, 0x57, 0xbd,
  0x6e, 0x86, 0x9a, 0x3d, 0xd0, 0x43, 0xdf, 0xbe, 0x55, 0x10, 0xfe, 0xbe,
  0x1c, 0x52, 0x41, 0xbe, 0xf9, 0x86, 0x85, 0xbd, 0xa6, 0x82, 0x77, 0xbd,
  0x3a, 0x30, 0x82, 0x3e, 0x98, 0x8a, 0x4b, 0xbe, 0x31, 0xcb, 0xe2, 0xbe,
  0x0b, 0x04, 0x5c, 0xbf, 0x71, 0x72, 0xc3, 0xbe, 0x64, 0xd1, 0xf6, 0x3b,
  0xd1, 0x30, 0x08, 0x3e, 0xe8, 0x45, 0x08, 0xbc, 0x15, 0xac, 0x4c, 0x3e,
  0xf6, 0xa1, 0x40, 0xbf, 0x2b, 0xd8, 0xec, 0xbd, 0x47, 0x3e, 0x62, 0x3e,
  0x1c, 0x55, 0x0f, 0xbe, 0x84, 0x1a, 0x90, 0x3e, 0x11, 0xb6, 0xe9, 0x3d,
  0x81, 0x85, 0xe5, 0x3c, 0x76, 0x62, 0x08, 0x3e, 0xbd, 0xe0, 0x25, 0xbd,
  0x9b, 0x36, 0x9a, 0x3e, 0x5f, 0x1b, 0xc1, 0xbb, 0x3c, 0x88, 0x3a, 0xbe,
  0x97, 0x5a, 0x55, 0xbe, 0x43, 0xb1, 0x59, 0xbd, 0x5a, 0xfa, 0xc0, 0xbd,
  0x14, 0x9e, 0x17, 0xbf, 0x80, 0x83, 0x38, 0xbd, 0x75, 0xd8, 0x9c, 0xbe,
  0xd7, 0x7f, 0x51, 0xbe, 0x13, 0xfa, 0xac, 0xbc, 0x33, 0xa6, 0x3b, 0xbd,
  0x39, 0xb5, 0x44, 0xbd, 0x79, 0xac, 0x88, 0xbd, 0xdd, 0x8b, 0xa1, 0xbd,
  0xde, 0x09, 0x2b, 0xbd, 0x4c, 0xa3, 0x3b, 0xbd, 0xa2, 0xa9, 0x33, 0xbe,
  0xc4, 0x31, 0xe3, 0xbd, 0xcb, 0x52, 0x36, 0xbd, 0xc7, 0x3c, 0x22, 0xbd,
  0x1c, 0x6b, 0x45, 0xbd, 0x9c, 0x63, 0xa5, 0x3e, 0x13, 0xfe, 0x92, 0xbb,
  0xf2, 0x19, 0x92, 0x3d, 0xe5, 0x9e, 0xb5, 0xbc, 0x5a, 0x5b, 0x3d, 0xbd,
  0x13, 0x0d, 0xb3, 0x3c, 0xdc, 0x5c, 0x40, 0xbc, 0x93, 0x70, 0x04, 0x3e,
  0x16, 0xfa, 0x89, 0x3e, 0x78, 0x66, 0x45, 0x3c, 0x8f, 0x1c, 0x9b, 0x3e,
  0xab, 0xa6, 0xe8, 0x3e, 0xf0, 0xb7, 0xdd, 0xbc, 0xdc, 0xc6, 0x62, 0x3d,
  0x86, 0x7a, 0x0c, 0xbe, 0x29, 0xe1, 0xd8, 0x3e, 0xc3, 0xe1, 0x09, 0x3e,
  0x1b, 0xb5, 0x3d, 0x3d, 0x0e, 0x46, 0x86, 0xbd, 0x3f, 0x4d, 0xe2, 0x3b,
  0x58, 0x64, 0x83, 0x3e, 0x74, 0xfc, 0x04, 0x3e, 0x01, 0x96, 0x0b, 0xbf,
  0x00, 0x16, 0xdf, 0xbe, 0x8a, 0xf0, 0x2c, 0x3e, 0x9e, 0x98, 0x92, 0xbc,
  0xc3, 0xcd, 0x23, 0xbf, 0xc9, 0x12, 0x73, 0xbf, 0xf6, 0xd9, 0x2f, 0xbe,
  0x98, 0x71, 0x24, 0x3e, 0xf8, 0x62, 0x8f, 0xbd, 0x38, 0xb0, 0xb4, 0xbe,
  0x0e, 0x71, 0x30, 0xbe, 0x8f, 0x96, 0x1a, 0xbd, 0x68, 0xbf, 0x1e, 0xbe,
  0x8b, 0xad, 0x93, 0xbd, 0xd5, 0xe0, 0xc0, 0xbd, 0x58, 0xd7, 0xbf, 0x3e,
  0x34, 0x2e, 0xbb, 0x3d, 0x91, 0x36, 0x09, 0xbe, 0xc0, 0x67, 0x74, 0xbe,
  0x46, 0x39, 0xae, 0xbd, 0x03, 0xf6, 0x39, 0x3e, 0xbd, 0xc2, 0x04, 0x3d,
  0x12, 0x3d, 0x45, 0xbe, 0x39, 0x35, 0x4d, 0x3e, 0xbe, 0xdf, 0x59, 0x3d,
  0x9b, 0xd2, 0x9b, 0x3d, 0x01, 0x07, 0x15, 0xbe, 0xd4, 0x44, 0x7f, 0x3b,
  0x1e, 0xf2, 0x9a, 0xbe, 0x4f, 0x35, 0x39, 0xbe, 0xde, 0x85, 0x34, 0xbe,
  0x4f, 0x12, 0x3d, 0xbe, 0xf6, 0x5c, 0x8c, 0xbc, 0x53, 0xae, 0x12, 0xbd,
  0xe9, 0x56, 0x2a, 0x3e, 0xe8, 0xb4, 0x88, 0xbe, 0x73, 0x65, 0x11, 0xbf,
  0x15, 0xe4, 0x8b, 0x3d, 0x1d, 0xbd, 0x76, 0x3d, 0xc2, 0xc7, 0xef, 0x3e,
  0x08, 0x28, 0xfd, 0xbd, 0x77, 0xf2, 0x79, 0xbe, 0xaa, 0x38, 0x11, 0xbf,
  0xb8, 0x1a, 0xfc, 0xbe, 0x26, 0xdb, 0xeb, 0xbe, 0xd9, 0x73, 0xce, 0xbb,
  0x7e, 0x46, 0x8e, 0x3d, 0xce, 0x3a, 0xb6, 0xbe, 0x92, 0x1f, 0xec, 0x3d,
  0xe1, 0x0f, 0x6f, 0xbe, 0x3a, 0xe8, 0xbc, 0xbd, 0xf5, 0x73, 0x88, 0xbe,
  0x6d, 0x4d, 0x5f, 0xbe, 0xb1, 0x33, 0xb7, 0xbd, 0x44, 0x67, 0x04, 0x3d,
  0x38, 0xf7, 0x3f, 0x3d, 0x5a, 0xef, 0x93, 0xbd, 0x5c, 0xa4, 0x15, 0xbe,
  0x39, 0x0f, 0xb7, 0x3e, 0x28, 0x9d, 0x14, 0xbf, 0x86, 0xae, 0xe6, 0xbe,
  0x62, 0xec, 0x1a, 0xbe, 0x9c, 0x31, 0xd9, 0xbd, 0x00, 0xa6, 0x23, 0x3d,
  0x16, 0x0e, 0x8f, 0x3e, 0xe1, 0x39, 0xa6, 0xbc, 0x97, 0x44, 0xa7, 0xbd,
  0xe4, 0x91, 0x8c, 0xbe, 0x70, 0xb8, 0xaf, 0x3e, 0xd7, 0x4f, 0xbe, 0x3b,
  0x8a, 0x39, 0xe1, 0x3c, 0xf1, 0x1c, 0x0d, 0x3e, 0x81, 0xe2, 0xac, 0xbd,
  0x37, 0xcc, 0xc0, 0xbd, 0x72, 0xe5, 0xb6, 0x3d, 0x90, 0xb9, 0x1a, 0xbe,
  0xc0, 0xd0, 0x30, 0xbe, 0x58, 0x2d, 0xf6, 0x3e, 0x2b, 0xe5, 0x2a, 0xbb,
  0x7e, 0x82, 0xee, 0xbd, 0x72, 0x0a, 0x2e, 0xbd, 0x5a, 0x0f, 0x14, 0xbe,
  0xfd, 0xf7, 0x64, 0x3d, 0x20, 0x62, 0xd6, 0xbd, 0x3f, 0x81, 0x28, 0x3e,
  0x45, 0xee, 0xe7, 0x3c, 0xd5, 0x20, 0x8a, 0xbd, 0xb9, 0x26, 0x01, 0xbe,
  0xfb, 0x76, 0xa0, 0xbd, 0xf5, 0xca, 0x3c, 0xbd, 0x67, 0x77, 0xf9, 0x3d,
  0x6b, 0xad, 0x3e, 0xbe, 0xb0, 0xb7, 0x8f, 0x3d, 0x57, 0x7a, 0x09, 0xbc,
  0xa0, 0x6a, 0x68, 0xbe, 0x62, 0x2d, 0x6c, 0x3e, 0xb5, 0x85, 0x03, 0x3d,
  0x5f, 0x76, 0xad, 0xbd, 0x98, 0x9c, 0xf0, 0x3e, 0xb8, 0x5e, 0xa0, 0xbe,
  0xbf, 0x5f, 0xf9, 0x3d, 0x50, 0xfc, 0xe3, 0xbd, 0x30, 0xc5, 0x88, 0xbe,
  0xf1, 0xd9, 0x87, 0x3e, 0x48, 0x01, 0x49, 0xbe, 0x73, 0xb2, 0x69, 0xbd,
  0xc4, 0x0e, 0xba, 0x3c, 0x48, 0xe0, 0xbc, 0xbe, 0xcc, 0x75, 0x4b, 0x3e,
  0x4e, 0x86, 0x46, 0xbd, 0xb0, 0x31, 0x9f, 0xbe, 0x30, 0x15, 0xd9, 0xbd,
  0x89, 0xb7, 0x18, 0xbd, 0x51, 0x4c, 0x0c, 0xbd, 0x03, 0x7d, 0x66, 0x3d,
  0x0f, 0xf5, 0xa1, 0xbe, 0x87, 0x7d, 0x79, 0x3e, 0xd7, 0x75, 0x09, 0x3c,
  0x57, 0x1e, 0xa6, 0xbe, 0x13, 0x70, 0xb7, 0x3e, 0xfa, 0xfc, 0x88, 0xbb,
  0xbf, 0x96, 0x32, 0xbe, 0x4a, 0xe6, 0x5c, 0x3e, 0xc0, 0x1e, 0xc7, 0xbe,
  0x94, 0x8d, 0x80, 0xbe, 0x97, 0xbb, 0xf7, 0xbe, 0x8d, 0x3d, 0xea, 0xbe,
  0xd4, 0xdf, 0x93, 0xbd, 0x4b, 0xc2, 0x0e, 0x3d, 0x7d, 0xef, 0x8b, 0xbb,
  0x48, 0x0d, 0xdf, 0xbc, 0xae, 0x9a, 0x1c, 0xbf, 0xe6, 0x2e, 0x38, 0xbe,
  0xc5, 0xd3, 0x74, 0x3d, 0xdb, 0xfc, 0x5f, 0xbe, 0xb6, 0x01, 0x34, 0xbd,
  0x3d, 0x47, 0xbd, 0xbd, 0xa9, 0x18, 0xf0, 0xbd, 0x1e, 0x25, 0x7d, 0xbd,
  0xea, 0xba, 0x12, 0xbe, 0xfe, 0x35, 0xa0, 0x3d, 0x72, 0x8f, 0xe0, 0x3e,
  0x43, 0xe3, 0x02, 0xbe, 0x91, 0xb1, 0x9d, 0xbd, 0x0f, 0xc5, 0x00, 0x3d,
  0x52, 0xd1, 0x0f, 0xbd, 0xd0, 0x4c, 0xbe, 0xbd, 0x0c, 0x5d, 0x3d, 0x3c,
  0xc7, 0xee, 0x58, 0x3d, 0xa6, 0xe3, 0xa8, 0xbd, 0x31, 0x42, 0x2c, 0xbd,
  0xaa, 0x54, 0x93, 0xbe, 0x69, 0x0d, 0x46, 0x3e, 0x87, 0xb6, 0x69, 0x3d,
  0x86, 0x61, 0x37, 0x3e, 0x28, 0xc7, 0x12, 0xbc, 0x70, 0x0a, 0x2b, 0xbe,
  0x5f, 0x4e, 0x71, 0x3d, 0x1c, 0x3c, 0xfa, 0x3c, 0x7c, 0x0b, 0xaa, 0xbd,
  0x2e, 0xa6, 0x55, 0xbd, 0xc0, 0x6d, 0x82, 0x3d, 0x6f, 0x07, 0x46, 0xbc,
  0xe9, 0x8c, 0xa8, 0x3c, 0x73, 0x46, 0x01, 0xbe, 0xbc, 0x33, 0x34, 0x3d,
  0x81, 0x97, 0x54, 0x3d, 0xdd, 0x8c, 0x80, 0x3d, 0x33, 0x72, 0x52, 0x3e,
  0x59, 0x38, 0x2d, 0x3e, 0x2b, 0x37, 0x2e, 0x3c, 0x2e, 0x42, 0x42, 0xbd,
  0x18, 0x31, 0x0c, 0xbd, 0x5a, 0x24, 0x96, 0x3b, 0xdb, 0x5c, 0x94, 0x3c,
  0x73, 0x84, 0x62, 0x3c, 0x0d, 0xc1, 0x95, 0xbd, 0x9c, 0x99, 0xe1, 0x3c,
  0x86, 0xb0, 0x84, 0xbd, 0xd1, 0xef, 0x77, 0x3e, 0x58, 0x20, 0x4e, 0x3e,
  0x9e, 0xe3, 0xdf, 0xbd, 0xc8, 0xe2, 0x12, 0xbe, 0xa9, 0x06, 0x79, 0x3a,
  0x45, 0xac, 0x74, 0xbd, 0x5d, 0x42, 0xf5, 0xbd, 0xd7, 0x61, 0xdd, 0x3d,
  0x51, 0xf7, 0xec, 0xbc, 0x3f, 0x21, 0x2d, 0xbe, 0x94, 0xda, 0xdc, 0x3d,
  0x83, 0x65, 0x93, 0xbd, 0xf3, 0x37, 0x97, 0x3d, 0xd8, 0xae, 0x13, 0x3f,
  0x56, 0xff, 0x25, 0xbe, 0x2f, 0x89, 0x23, 0xbd, 0x8b, 0x16, 0xd7, 0x3c,
  0xb1, 0xc8, 0x2a, 0xbe, 0x65, 0xda, 0x15, 0xbd, 0x5c, 0x8a, 0xab, 0xbd,
  0x85, 0x36, 0x20, 0xbe, 0xaa, 0xaf, 0x68, 0xbe, 0xc9, 0xf9, 0x0e, 0xbe,
  0x5c, 0x73, 0x88, 0xbd, 0x44, 0x28, 0x5a, 0x3e, 0x95, 0xb1, 0xab, 0x3e,
  0xa9, 0xd6, 0x91, 0x3c, 0xaa, 0x76, 0xc3, 0x3d, 0xb0, 0x10, 0x89, 0xbe,
  0x6c, 0x7f, 0x95, 0xbe, 0x99, 0x75, 0x96, 0xbe, 0xec, 0x48, 0x0e, 0x3c,
  0xfa, 0xdc, 0x94, 0xbc, 0x00, 0x95, 0x7d, 0xbd, 0x89, 0x9c, 0x38, 0xbe,
  0x3f, 0xf3, 0x00, 0xbe, 0x4a, 0x2a, 0xa6, 0xbd, 0x14, 0x24, 0xf9, 0xbd,
  0xca, 0x84, 0xe8, 0xbd, 0x66, 0x67, 0x92, 0xbe, 0x99, 0x6e, 0x06, 0xbe,
  0x20, 0xd1, 0xaf, 0xbe, 0x88, 0x4f, 0x1f, 0x3e, 0xd0, 0x7e, 0x46, 0x3e,
  0xad, 0xd1, 0xa0, 0xbe, 0x88, 0x4a, 0x82, 0xb9, 0x5b, 0xce, 0xd0, 0x3c,
  0x98, 0x28, 0xd1, 0x3e, 0xde, 0x96, 0x1a, 0xbe, 0xfd, 0x4f, 0x2a, 0xbe,
  0x40, 0x95, 0x66, 0xbd, 0xda, 0xab, 0x41, 0x3e, 0xe3, 0xc4, 0x2d, 0xbe,
  0x65, 0x89, 0x6b, 0x3d, 0xf4, 0x33, 0xe0, 0xbc, 0xe2, 0x8b, 0xef, 0xbe,
  0x15, 0xdd, 0xb5, 0xbd, 0xec, 0x42, 0x34, 0xbe, 0x99, 0xaf, 0x72, 0xbd,
  0x32, 0xce, 0x12, 0xbe, 0x1d, 0x77, 0x93, 0xbe, 0xe7, 0x75, 0xc9, 0xbb,
  0x5e, 0x8e, 0xba, 0x3d, 0xfe, 0xc8, 0x16, 0x3d, 0xe2, 0xa5, 0xab, 0xbd,
  0xca, 0xa0, 0x0a, 0x3e, 0xdf, 0x0a, 0x2a, 0xbd, 0x51, 0x9f, 0xe1, 0xbc,
  0xb1, 0x2a, 0x0c, 0xbc, 0x43, 0x63, 0xb4, 0xbe, 0x76, 0xb6, 0xc8, 0xbe,
  0x97, 0x69, 0xed, 0xbe, 0x87, 0xfd, 0x1c, 0xbf, 0x74, 0xc5, 0xee, 0xbe,
  0x47, 0x24, 0x0f, 0xbf, 0xc1, 0x12, 0x75, 0xbe, 0xa9, 0xd1, 0xb0, 0xbe,
  0x3b, 0xaa, 0x63, 0x3d, 0x4e, 0xa8, 0x9b, 0xbd, 0x75, 0xad, 0x9c, 0xbc,
  0x9d, 0xa2, 0xca, 0x3c, 0xc0, 0x80, 0x83, 0x3e, 0x0c, 0x95, 0xea, 0xbd,
  0x81, 0xdd, 0x2a, 0x3e, 0xed, 0x08, 0x8b, 0x3d, 0x4e, 0xef, 0x37, 0x3e,
  0xc4, 0xaf, 0x30, 0x3e, 0x6b, 0x7d, 0x0b, 0xbf, 0x1e, 0x96, 0x28, 0xbe,
  0xc6, 0x76, 0xd9, 0xbe, 0x09, 0x27, 0x01, 0x3e, 0x34, 0x86, 0xc1, 0x39,
  0x24, 0xeb, 0xb4, 0xbe, 0xc4, 0xc9, 0x40, 0xbd, 0x3c, 0xd8, 0x11, 0x3e,
  0x99, 0x33, 0x00, 0xbd, 0x1a, 0x4c, 0x8e, 0xbd, 0xd7, 0x70, 0x71, 0xbe,
  0x32, 0x7a, 0x82, 0x3e, 0xce, 0x2a, 0xb9, 0xbc, 0x18, 0x21, 0x04, 0xbe,
  0xfa, 0xaf, 0x6f, 0xbd, 0x21, 0x89, 0xd4, 0xbd, 0xa5, 0x77, 0x03, 0xbd,
  0x48, 0x57, 0x98, 0xbd, 0xa6, 0x38, 0x94, 0x3d, 0xc8, 0xee, 0x80, 0xbd,
  0x58, 0x64, 0xe3, 0xbd, 0xcc, 0xe0, 0xed, 0xbd, 0xab, 0x2c, 0x8c, 0xbd,
  0x70, 0xd7, 0x7b, 0x3e, 0x1f, 0x2d, 0x15, 0xbd, 0x63, 0x53, 0x5b, 0xbd,
  0x8e, 0xac, 0xc4, 0xbc, 0xea, 0xdd, 0xe2, 0x3d, 0x3f, 0x96, 0xdf, 0xbd,
  0xfd, 0x58, 0x0d, 0x3b, 0xa3, 0xa4, 0x36, 0xbe, 0xa0, 0x07, 0x6f, 0xbd,
  0xe9, 0xd7, 0x05, 0x3f, 0x93, 0x27, 0x6f, 0xbc, 0x2a, 0xff, 0x3d, 0x3e,
  0xf0, 0xf0, 0x32, 0x3e, 0x02, 0x7a, 0xb8, 0x3d, 0x0f, 0x7c, 0x15, 0x3f,
  0xdb, 0x62, 0x9a, 0xbd, 0xa7, 0xed, 0xc6, 0xbd, 0x23, 0x1f, 0xe2, 0xbd,
  0x0e, 0x4c, 0xdd, 0xbc, 0xc5, 0x00, 0xc6, 0xbe, 0xc9, 0x7a, 0x6f, 0xbe,
  0x9f, 0xf2, 0xae, 0x3c, 0x25, 0x16, 0x16, 0xbe, 0x4e, 0x59, 0xae, 0xbe,
  0xe1, 0x95, 0x98, 0xbe, 0xf4, 0xd4, 0x01, 0x3f, 0x0c, 0xd0, 0xf6, 0xbd,
  0x23, 0x7e, 0xbf, 0x3d, 0xbb, 0xd6, 0x6e, 0x3d, 0x10, 0x56, 0x5c, 0xbc,
  0x71, 0x4d, 0xbb, 0x3d, 0xd9, 0xb6, 0x5d, 0xbe, 0x36, 0xdf, 0x1f, 0xbe,
  0xa9, 0x7a, 0x89, 0xbd, 0x73, 0x72, 0xe4, 0xbd, 0xf0, 0xac, 0x5c, 0xbc,
  0x37, 0x41, 0x8f, 0xbd, 0xb4, 0x05, 0x9b, 0x3e, 0xcf, 0x7c, 0x1a, 0x3e,
  0x31, 0xe5, 0x7d, 0xbe, 0xfa, 0x82, 0x32, 0x3c, 0xf0, 0xd6, 0x80, 0xbc,
  0x5e, 0x11, 0xb1, 0xbd, 0x06, 0x64, 0x9e, 0xbe, 0x09, 0x9c, 0x6a, 0x3e,
  0x4d, 0x0b, 0x3a, 0xbd, 0x93, 0x7e, 0xdc, 0xbc, 0xd4, 0x5a, 0xb8, 0xbd,
  0x4f, 0xf3, 0x00, 0xbe, 0x89, 0xc3, 0x99, 0xbe, 0x8a, 0x1a, 0x10, 0x3d,
  0x56, 0x94, 0xa8, 0xbd, 0x9f, 0xda, 0xbf, 0x3d, 0xa1, 0x48, 0x05, 0x3e,
  0x82, 0x15, 0x83, 0xbe, 0xff, 0x18, 0xce, 0xbd, 0x17, 0xfd, 0x8c, 0xbd,
  0xa4, 0x4c, 0xbf, 0x3d, 0x45, 0xd6, 0x04, 0xbf, 0x7f, 0xd7, 0xd4, 0xbe,
  0x72, 0x35, 0xd5, 0xbe, 0x9d, 0x46, 0x43, 0xbe, 0x25, 0xdd, 0x68, 0xbc,
  0x27, 0x87, 0x51, 0xbd, 0xfe, 0xbe, 0x5c, 0xbd, 0x2b, 0x7e, 0x24, 0x3d,
  0x32, 0x75, 0x88, 0xbf, 0x04, 0x84, 0xca, 0xbe, 0x34, 0x70, 0x37, 0x3e,
  0x51, 0x6a, 0x5e, 0xbe, 0x89, 0x95, 0x36, 0x3d, 0x1d, 0x3c, 0x72, 0x3e,
  0x21, 0x8d, 0x8a, 0xbd, 0x20, 0xd8, 0x55, 0x3e, 0xde, 0xa8, 0x46, 0xbe,
  0xfe, 0x5d, 0x13, 0x3f, 0xee, 0x5f, 0x90, 0xbd, 0xba, 0x07, 0x6c, 0x3c,
  0x33, 0x51, 0xf1, 0xbd, 0x60, 0xa8, 0x5d, 0xbd, 0xaf, 0x87, 0x2c, 0xbe,
  0x8d, 0x5f, 0x02, 0xbd, 0xa8, 0xd1, 0xd0, 0x3d, 0x38, 0x18, 0x27, 0x3e,
  0x7e, 0x12, 0x9d, 0x3e, 0x67, 0x5e, 0x4b, 0xbd, 0x91, 0x06, 0xb6, 0xbe,
  0x19, 0xe9, 0x9f, 0xbe, 0x8a, 0x77, 0x77, 0xbe, 0xf0, 0x50, 0xd4, 0x3d,
  0x13, 0x4a, 0x2c, 0xbe, 0x06, 0xfd, 0xf0, 0x3d, 0x85, 0x55, 0x39, 0xbd,
  0x6f, 0xcf, 0xad, 0xbb, 0xfc, 0xdc, 0x3f, 0x3e, 0x68, 0x4b, 0x46, 0xbe,
  0x8b, 0x8f, 0x88, 0xbd, 0x2a, 0x55, 0xa5, 0x3d, 0xff, 0xf2, 0x72, 0xbe,
  0x55, 0xa1, 0x01, 0x3e, 0x52, 0xdb, 0x0c, 0xbd, 0xd3, 0x89, 0x4b, 0x3e,
  0xf7, 0xef, 0xff, 0x3c, 0x6c, 0x06, 0x9c, 0xbe, 0x68, 0x66, 0x77, 0xbe,
  0x1f, 0xe5, 0x96, 0x3e, 0x6a, 0x66, 0x84, 0xbe, 0xdc, 0x4a, 0x8c, 0x3e,
  0xbb, 0x68, 0x15, 0xbd, 0x5b, 0x0b, 0xb0, 0xbe, 0xab, 0x41, 0x39, 0x3e,
  0x14, 0x6d, 0x5b, 0xbe, 0x54, 0x0b, 0x53, 0xbe, 0xca, 0x80, 0x83, 0x3e,
  0xa6, 0x16, 0xfe, 0xbd, 0x84, 0x99, 0x8b, 0x3e, 0xa0, 0x54, 0x16, 0xbe,
  0x82, 0x1c, 0x81, 0xbd, 0x0f, 0xb2, 0xe7, 0x3e, 0xda, 0x5b, 0x01, 0xbd,
  0x4e, 0x7a, 0x04, 0x3f, 0xc5, 0x12, 0x61, 0xbb, 0xcf, 0x82, 0x53, 0x3d,
  0x23, 0x0c, 0xee, 0xbc, 0x4e, 0x00, 0xf4, 0x3d, 0x51, 0xd2, 0xcd, 0x3e,
  0xec, 0xc6, 0x84, 0x3d, 0x01, 0x2e, 0x0f, 0xbe, 0x04, 0x74, 0x3b, 0xbe,
  0x83, 0xcf, 0x26, 0x3d, 0x42, 0xa3, 0xaa, 0xbd, 0x0b, 0x40, 0x75, 0xbd,
  0x08, 0x49, 0x4d, 0xbd, 0x38, 0x6a, 0x95, 0xbd, 0x08, 0x19, 0x1c, 0x3e,
  0x08, 0x74, 0xdb, 0xbd, 0xfb, 0x41, 0x82, 0xbe, 0x09, 0xf5, 0x1e, 0x3e,
  0x8a, 0x23, 0xab, 0xbd, 0xb1, 0xbe, 0x9c, 0xbd, 0x28, 0xbe, 0x57, 0xbe,
  0x14, 0x61, 0xe0, 0xbd, 0xfb, 0xc3, 0xe7, 0xbb, 0xa0, 0xef, 0x1e, 0xbe,
  0x71, 0x35, 0xc7, 0xbe, 0x5e, 0x5c, 0x51, 0xbe, 0x4b, 0x11, 0x02, 0xbe,
  0x65, 0x59, 0x21, 0xbd, 0x43, 0x62, 0x9f, 0xbe, 0x98, 0xf0, 0x29, 0xbe,
  0x29, 0x22, 0x03, 0x3d, 0xe2, 0xdd, 0xff, 0xff, 0x10, 0x00, 0x00, 0x00,
  0x0a, 0x00, 0x00, 0x00, 0x1c, 0x00, 0x00, 0x00, 0x38, 0x00, 0x00, 0x00,
  0x04, 0x00, 0x00, 0x00, 0x10, 0x00, 0x00, 0x00, 0x04, 0x00, 0x00, 0x00,
  0x01, 0x00, 0x00, 0x00, 0x08, 0x00, 0x00, 0x00, 0x1a, 0x00, 0x00, 0x00,
  0x73, 0x65, 0x71, 0x75, 0x65, 0x6e, 0x74, 0x69, 0x61, 0x6c, 0x2f, 0x63,
  0x6f, 0x6e, 0x76, 0x32, 0x64, 0x5f, 0x31, 0x2f, 0x43, 0x6f, 0x6e, 0x76,
  0x32, 0x44, 0x00, 0x00, 0x58, 0xdd, 0xff, 0xff, 0x62, 0xde, 0xff, 0xff,
  0x04, 0x00, 0x00, 0x00, 0x80, 0x01, 0x00, 0x00, 0x15, 0xc0, 0x04, 0x3f,
  0xe9, 0x7d, 0x20, 0x3e, 0xde, 0x1d, 0xc6, 0x3d, 0x72, 0x5e, 0x96, 0x3e,
  0xc9, 0x35, 0x10, 0x3d, 0xe0, 0xd0, 0xd9, 0xbd, 0x3e, 0x62, 0x48, 0xbe,
  0x4a, 0xc0, 0x13, 0xbd, 0x56, 0xa9, 0xef, 0xbd, 0x4a, 0xb4, 0x6e, 0xbd,
  0x7f, 0x6b, 0x28, 0xbc, 0xf5, 0x67, 0x49, 0x3d, 0x02, 0x74, 0x67, 0x3e,
  0xc9, 0x02, 0xe6, 0x3d, 0x91, 0xc0, 0x11, 0xbe, 0xf6, 0x92, 0xed, 0xbc,
  0x9f, 0xa9, 0xb2, 0x3e, 0x2b, 0xb8, 0x0e, 0xbe, 0x53, 0x3d, 0xc5, 0x3d,
  0xfb, 0x40, 0xf3, 0xbd, 0x05, 0x40, 0xb8, 0xbd, 0xe5, 0xd0, 0xdc, 0x3b,
  0x79, 0x89, 0x47, 0xbe, 0xf9, 0x93, 0x0a, 0x3e, 0x64, 0x61, 0x8a, 0x3e,
  0x71, 0x2d, 0x94, 0x3d, 0x19, 0x22, 0x12, 0xbf, 0x36, 0x7c, 0xcc, 0xbd,
  0x85, 0xdd, 0x62, 0xbd, 0xf5, 0x35, 0x8e, 0x3e, 0x26, 0x32, 0x59, 0xbe,
  0x58, 0x6c, 0xfb, 0xbc, 0x35, 0x0e, 0x8d, 0x3e, 0x7e, 0x74, 0xe7, 0x3c,
  0x85, 0x58, 0xe5, 0x3c, 0xb8, 0xf7, 0xd6, 0x3c, 0xff, 0xb9, 0x0a, 0xbd,
  0xb8, 0x2b, 0xac, 0xbd, 0x9b, 0x6a, 0x99, 0xbd, 0x11, 0x1b, 0x1f, 0xbd,
  0x6b, 0x22, 0xb6, 0xbd, 0xf7, 0x62, 0x2e, 0xbd, 0x7a, 0x7f, 0xae, 0x3c,
  0x8c, 0x24, 0x81, 0xbd, 0x33, 0x8c, 0x52, 0x3d, 0x71, 0x15, 0x33, 0xbc,
  0x5e, 0x30, 0x8b, 0xbd, 0x14, 0x2e, 0xb4, 0x3c, 0x23, 0x5a, 0x19, 0x3e,
  0x93, 0x55, 0x89, 0x3e, 0x8e, 0x25, 0x0e, 0x3f, 0x2a, 0xb0, 0x99, 0xbb,
  0x9b, 0xf4, 0x86, 0xbe, 0x3e, 0x21, 0x5f, 0xbe, 0x89, 0x7d, 0x16, 0xbe,
  0x97, 0x1c, 0x4e, 0x3d, 0x74, 0x20, 0x83, 0xbe, 0x40, 0x01, 0xce, 0x3c,
  0xec, 0xc9, 0xb5, 0xbd, 0x17, 0x74, 0x08, 0xbe, 0x96, 0x26, 0x3b, 0x3e,
  0x75, 0x6e, 0x0d, 0x3e, 0x20, 0xf0, 0x59, 0x3e, 0xe7, 0x96, 0x44, 0x3e,
  0x37, 0xd1, 0xef, 0x3d, 0x30, 0x88, 0x6e, 0x3c, 0x75, 0x3a, 0x0d, 0xbe,
  0x4a, 0x08, 0x53, 0xbd, 0xfe, 0x1c, 0xb9, 0xbd, 0xe3, 0x06, 0x5b, 0xbe,
  0x2e, 0x13, 0x4e, 0xbe, 0xd0, 0x28, 0xa4, 0xbc, 0x6f, 0xfb, 0x2d, 0x3d,
  0x11, 0xa9, 0xd7, 0xbd, 0x6d, 0x2d, 0x61, 0x3e, 0x89, 0x04, 0x33, 0xbc,
  0x62, 0x8d, 0x34, 0xbd, 0x94, 0x8e, 0x7c, 0x3d, 0xc0, 0x07, 0x4b, 0xbd,
  0x0a, 0x9a, 0x01, 0xbd, 0x7e, 0x7c, 0x0e, 0x3d, 0x59, 0x4c, 0x0f, 0xbd,
  0xc8, 0x4e, 0x74, 0x3d, 0xdc, 0x57, 0x1e, 0xbd, 0xac, 0x94, 0x61, 0xbe,
  0x6f, 0xe8, 0x76, 0x3e, 0xb4, 0x1f, 0xe8, 0xbe, 0xd3, 0xb6, 0xb8, 0x3d,
  0x0a, 0x52, 0x41, 0xbe, 0xe0, 0x20, 0x1c, 0x3e, 0x84, 0xf5, 0x19, 0x3e,
  0x1e, 0x93, 0x1c, 0xbd, 0x55, 0x1e, 0x96, 0x3e, 0xe5, 0x3e, 0x46, 0x3d,
  0xf6, 0x3e, 0x91, 0xbc, 0x71, 0x84, 0x80, 0x3c, 0xba, 0xdf, 0xff, 0xff,
  0x10, 0x00, 0x00, 0x00, 0x09, 0x00, 0x00, 0x00, 0x1c, 0x00, 0x00, 0x00,
  0x38, 0x00, 0x00, 0x00, 0x04, 0x00, 0x00, 0x00, 0x08, 0x00, 0x00, 0x00,
  0x04, 0x00, 0x00, 0x00, 0x03, 0x00, 0x00, 0x00, 0x01, 0x00, 0x00, 0x00,
  0x18, 0x00, 0x00, 0x00, 0x73, 0x65, 0x71, 0x75, 0x65, 0x6e, 0x74, 0x69,
  0x61, 0x6c, 0x2f, 0x63, 0x6f, 0x6e, 0x76, 0x32, 0x64, 0x2f, 0x43, 0x6f,
  0x6e, 0x76, 0x32, 0x44, 0x00, 0x00, 0x00, 0x00, 0x30, 0xdf, 0xff, 0xff,
  0x3a, 0xe0, 0xff, 0xff, 0x04, 0x00, 0x00, 0x00, 0x00, 0x01, 0x00, 0x00,
  0x40, 0x07, 0xde, 0x3c, 0x0b, 0xf3, 0xf1, 0xbd, 0xca, 0xe2, 0x47, 0x3e,
  0xd0, 0x3c, 0x0e, 0x3f, 0x3b, 0x23, 0xb6, 0x3d, 0xb7, 0x7f, 0x28, 0x3e,
  0xf3, 0x9c, 0x6f, 0x3e, 0xe6, 0x1e, 0xc1, 0xbe, 0xca, 0xc2, 0xff, 0xbd,
  0xb6, 0x72, 0xb9, 0x3d, 0xd3, 0x2c, 0x96, 0xbe, 0x7a, 0x2e, 0xa0, 0x3d,
  0x78, 0x28, 0xd6, 0xbe, 0x56, 0x1a, 0xa8, 0x3d, 0xb4, 0x45, 0x31, 0xbd,
  0x8d, 0xb3, 0x86, 0xbd, 0x94, 0x66, 0xaf, 0xbe, 0xd1, 0xc3, 0xca, 0xbd,
  0x0c, 0x10, 0x91, 0x3e, 0x1d, 0xe2, 0xb7, 0xbe, 0xb4, 0xa1, 0xe4, 0x3d,
  0x43, 0xc7, 0x92, 0x3e, 0xfb, 0xe5, 0x2c, 0x3c, 0xd4, 0xc4, 0x86, 0xbe,
  0x48, 0x2d, 0x05, 0xbe, 0x1f, 0xb1, 0x18, 0x3e, 0xe2, 0xea, 0xc3, 0x3e,
  0x8b, 0x26, 0x93, 0x3e, 0x46, 0x9e, 0xf4, 0xbe, 0x2a, 0xc6, 0x5b, 0x3e,
  0x45, 0x51, 0x7d, 0x3d, 0x1b, 0x92, 0x93, 0xbd, 0x6c, 0xbc, 0x33, 0xbe,
  0x86, 0x0a, 0x8c, 0xbd, 0x73, 0x49, 0x83, 0x3e, 0x2b, 0x2a, 0xbb, 0xbe,
  0x9e, 0x70, 0xea, 0x3d, 0x2d, 0x67, 0x0c, 0xbd, 0xed, 0xda, 0x02, 0xbf,
  0x58, 0xc8, 0x86, 0xbd, 0xba, 0x36, 0x3a, 0xbe, 0xd4, 0xfd, 0x20, 0x3e,
  0xc0, 0x09, 0xe6, 0xbe, 0x79, 0x16, 0x25, 0x3c, 0x8b, 0xfd, 0x17, 0xbf,
  0xd4, 0xc3, 0xd6, 0x3d, 0x73, 0xf4, 0xac, 0xbd, 0x4c, 0x2d, 0xfc, 0xbd,
  0x5a, 0xf3, 0x48, 0xbe, 0x9f, 0x92, 0xf3, 0xbb, 0x8e, 0x38, 0xa1, 0x3e,
  0xad, 0xdc, 0x23, 0xbf, 0x53, 0xf6, 0x2f, 0x3c, 0x0e, 0x00, 0x85, 0xbd,
  0x52, 0xea, 0x88, 0xbe, 0xe6, 0x0c, 0xa8, 0x3c, 0xeb, 0x75, 0x6f, 0xbe,
  0x71, 0x83, 0xf5, 0x3c, 0xdb, 0xc5, 0xf7, 0x3d, 0x5a, 0x53, 0x64, 0x3e,
  0xfd, 0x5e, 0xe8, 0xbe, 0xa6, 0xfc, 0x59, 0x3e, 0x6a, 0x83, 0x35, 0x3d,
  0x22, 0xcd, 0x87, 0x3e, 0x12, 0xe1, 0xff, 0xff, 0x10, 0x00, 0x00, 0x00,
  0x08, 0x00, 0x00, 0x00, 0x14, 0x00, 0x00, 0x00, 0x30, 0x00, 0x00, 0x00,
  0x02, 0x00, 0x00, 0x00, 0x04, 0x00, 0x00, 0x00, 0x10, 0x00, 0x00, 0x00,
  0x19, 0x00, 0x00, 0x00, 0x73, 0x65, 0x71, 0x75, 0x65, 0x6e, 0x74, 0x69,
  0x61, 0x6c, 0x2f, 0x64, 0x65, 0x6e, 0x73, 0x65, 0x5f, 0x31, 0x2f, 0x4d,
  0x61, 0x74, 0x4d, 0x75, 0x6c, 0x00, 0x00, 0x00, 0x80, 0xe0, 0xff, 0xff,
  0x8a, 0xe1, 0xff, 0xff, 0x04, 0x00, 0x00, 0x00, 0x00, 0x1c, 0x00, 0x00,
  0x89, 0xbc, 0x3a, 0xbe, 0x3c, 0xad, 0xb7, 0xbe, 0x72, 0x79, 0x94, 0x3e,
  0x4d, 0xe2, 0xa5, 0x3d, 0x84, 0xca, 0xf6, 0xbc, 0xd1, 0x70, 0x4b, 0x3d,
  0xbc, 0x02, 0x72, 0xbe, 0x40, 0x7d, 0x37, 0xbd, 0xb4, 0x2e, 0x06, 0x3d,
  0xe2, 0x60, 0xfb, 0x3d, 0x1b, 0x64, 0xe3, 0x3d, 0x8a, 0x6e, 0x49, 0x3d,
  0xeb, 0xb5, 0x75, 0x3c, 0xb0, 0xf9, 0x6d, 0xbd, 0xb2, 0x9b, 0x6d, 0xbd,
  0x45, 0x0b, 0xa0, 0x3d, 0xd0, 0xdd, 0x1e, 0xbe, 0xe7, 0xf2, 0xa8, 0xbc,
  0x99, 0x38, 0xff, 0x3c, 0x2e, 0x56, 0x3d, 0xbe, 0x81, 0xae, 0xe8, 0xbd,
  0x9f, 0xdd, 0x40, 0x3d, 0x3a, 0xf8, 0xa9, 0xba, 0x44, 0x09, 0xc5, 0xbd,
  0x37, 0x56, 0x92, 0xbd, 0x1b, 0x31, 0x7c, 0xbe, 0xfd, 0xcb, 0x2c, 0x3e,
  0x66, 0x90, 0xed, 0x3d, 0x07, 0xdd, 0x5c, 0x3d, 0xe8, 0xa9, 0xfd, 0x3d,
  0x63, 0x2b, 0x82, 0xbd, 0xa2, 0x74, 0x8d, 0xbe, 0x23, 0x8b, 0x0a, 0xbe,
  0x2c, 0x7b, 0x7d, 0x3d, 0xa2, 0x7f, 0x91, 0xbd, 0x7b, 0x37, 0xe7, 0x3b,
  0x21, 0x74, 0x00, 0xbe, 0x66, 0xaf, 0x67, 0x3e, 0x04, 0x95, 0x47, 0xbd,
  0xf4, 0x91, 0xa0, 0xbe, 0xcc, 0x58, 0x79, 0xbe, 0xa2, 0xfc, 0xdb, 0xbd,
  0x28, 0xd8, 0x10, 0xbe, 0x8b, 0xcb, 0xe2, 0xbc, 0x55, 0xfd, 0x07, 0x3d,
  0x33, 0x19, 0x8e, 0x3d, 0x26, 0xa1, 0x37, 0x3e, 0xe7, 0xa2, 0x61, 0xbe,
  0xf4, 0x52, 0xe2, 0x3d, 0x63, 0xba, 0x12, 0xbe, 0xd7, 0xd2, 0xb1, 0xbd,
  0x07, 0x94, 0x51, 0x3c, 0x88, 0x7d, 0x46, 0xbe, 0x01, 0x0b, 0x14, 0x3e,
  0x53, 0x11, 0x05, 0xbe, 0x6d, 0x5c, 0x87, 0xbe, 0x01, 0x56, 0xe5, 0xbd,
  0x1e, 0x5b, 0x26, 0xbe, 0x9c, 0x53, 0x5b, 0xbe, 0x03, 0x38, 0x51, 0x3d,
  0x10, 0xc6, 0x1f, 0xbd, 0x2e, 0xd6, 0x35, 0x3e, 0xbc, 0x3b, 0x86, 0x3d,
  0x93, 0x56, 0x67, 0xbc, 0x25, 0x30, 0xd5, 0xbb, 0x6c, 0xd6, 0x55, 0xbd,
  0xd1, 0x54, 0xde, 0x3d, 0xad, 0x22, 0x0c, 0xbe, 0x7b, 0xa2, 0x8b, 0xbd,
  0xa1, 0xe9, 0x6d, 0x3e, 0x38, 0x13, 0x88, 0xbd, 0x98, 0xb7, 0xb6, 0xbe,
  0x13, 0x28, 0xfa, 0x3d, 0x6f, 0x41, 0xf4, 0xbd, 0x77, 0xda, 0x03, 0xbe,
  0x6c, 0xc1, 0x63, 0xbd, 0x85, 0x71, 0x08, 0x3c, 0x26, 0x76, 0x49, 0x3d,
  0x43, 0xee, 0x35, 0xbe, 0x92, 0xca, 0xe6, 0xbd, 0x22, 0x11, 0x61, 0xbd,
  0xab, 0x32, 0xcd, 0x3d, 0xc0, 0x9d, 0x32, 0x3d, 0x00, 0x05, 0xac, 0x3c,
  0xe3, 0x0d, 0x48, 0xbe, 0xe9, 0x9a, 0xeb, 0x3d, 0x29, 0x03, 0x12, 0xbe,
  0x97, 0x88, 0x87, 0xbe, 0x98, 0x75, 0x42, 0xbc, 0x21, 0x0b, 0x2d, 0x3e,
  0x77, 0x29, 0xb3, 0xbd, 0x07, 0xfc, 0xc6, 0xbd, 0x65, 0xf3, 0x10, 0xbe,
  0x17, 0x84, 0x2f, 0x3d, 0x8c, 0x0a, 0x6c, 0xbe, 0x69, 0x44, 0x51, 0x3c,
  0xa9, 0xd2, 0x6d, 0xbe, 0xa9, 0x2d, 0x2d, 0xbe, 0x99, 0x8e, 0x3a, 0xbe,
  0xe7, 0xd2, 0x0c, 0xbe, 0xf6, 0xa9, 0x2b, 0xbe, 0x0b, 0xd4, 0x96, 0x3d,
  0x8c, 0x2a, 0xde, 0xbd, 0x40, 0xea, 0x65, 0xbe, 0xf8, 0xac, 0x67, 0xbe,
  0xb8, 0xe5, 0x9d, 0x3c, 0xfd, 0x9d, 0xe9, 0xbd, 0xde, 0x7c, 0x86, 0xbe,
  0x7a, 0xb3, 0x4e, 0xbc, 0x32, 0xc2, 0xda, 0xbd, 0x72, 0xd1, 0x96, 0xbe,
  0x8f, 0x8f, 0x51, 0xbe, 0xe1, 0x08, 0x68, 0xbc, 0x14, 0x40, 0xc9, 0x3d,
  0x24, 0x2d, 0xab, 0xbe, 0x9c, 0xd6, 0xfe, 0xba, 0xa9, 0xfe, 0xdf, 0xbd,
  0x69, 0x36, 0x38, 0x3e, 0xe5, 0x26, 0x81, 0xbd, 0x13, 0xd6, 0x5f, 0xbe,
  0xc0, 0x69, 0x5d, 0xbd, 0x1d, 0x79, 0x8a, 0x3c, 0x6c, 0xf3, 0x7d, 0xbe,
  0x5f, 0x0f, 0xea, 0xbd, 0x33, 0x70, 0x17, 0xbe, 0xf6, 0x72, 0xd7, 0x3c,
  0xa5, 0x30, 0x3a, 0x3e, 0xfa, 0x86, 0xb8, 0xbd, 0x0d, 0x0e, 0x1a, 0x3e,
  0x0d, 0xca, 0x6d, 0x3d, 0x7b, 0xcf, 0xc8, 0xbe, 0xb3, 0xc7, 0x2a, 0xbd,
  0x76, 0x1c, 0xdc, 0x3c, 0xc2, 0xee, 0x0b, 0x3f, 0xe5, 0x03, 0x44, 0xbe,
  0xff, 0x82, 0x54, 0xbe, 0xe2, 0xd6, 0x47, 0xbe, 0xe3, 0x5c, 0x6d, 0xbe,
  0x1b, 0xff, 0x12, 0x3e, 0xe9, 0x3b, 0x5d, 0x3d, 0x16, 0x62, 0xce, 0xbe,
  0xb9, 0x44, 0x00, 0xbd, 0x28, 0x81, 0xca, 0x3e, 0x8f, 0xd6, 0x2a, 0xbe,
  0x42, 0xf8, 0x6d, 0x3e, 0xbf, 0xe2, 0x76, 0x3d, 0xe1, 0x5b, 0x14, 0xb9,
  0x19, 0xf4, 0xdc, 0x3d, 0xef, 0x2c, 0xe0, 0x3e, 0x1a, 0xfe, 0xe9, 0x3e,
  0xe7, 0x98, 0xaf, 0xbc, 0x77, 0xb4, 0x17, 0xbd, 0xfe, 0x03, 0xd0, 0xbd,
  0x1d, 0x0f, 0x82, 0xbe, 0x00, 0x9d, 0x06, 0x3d, 0xa5, 0xa1, 0xda, 0x3d,
  0x10, 0xa2, 0x47, 0xbe, 0x8a, 0x19, 0x01, 0x3e, 0x00, 0x88, 0x05, 0x3f,
  0x1d, 0x83, 0x00, 0x3d, 0xd9, 0x80, 0xbd, 0x3e, 0x7c, 0xfd, 0xca, 0x3d,
  0x04, 0xa1, 0x5f, 0x3d, 0xc1, 0xad, 0xd7, 0x3d, 0xb0, 0xf0, 0x01, 0x3f,
  0x11, 0x02, 0x41, 0x3f, 0xb7, 0xfb, 0x73, 0x3c, 0xb6, 0xfc, 0x63, 0xbd,
  0xfa, 0x94, 0x05, 0xbe, 0x8b, 0xc5, 0x57, 0xbe, 0x2a, 0xa8, 0x2a, 0xbe,
  0x13, 0x83, 0x20, 0x3e, 0xad, 0xe8, 0x0b, 0x3c, 0x20, 0x9e, 0x49, 0x3e,
  0x0d, 0x14, 0x14, 0x3f, 0xe0, 0x9e, 0x02, 0x3d, 0x00, 0x6e, 0x00, 0xbc,
  0x10, 0x94, 0x3b, 0xbd, 0xea, 0xef, 0x28, 0x3e, 0xde, 0x61, 0xcd, 0xbc,
  0xab, 0xe9, 0x2f, 0x3e, 0x69, 0xc2, 0x84, 0x3e, 0x27, 0xa0, 0x86, 0xbe,
  0x2d, 0x39, 0xee, 0xbd, 0xed, 0x59, 0x8e, 0xbe, 0x44, 0x79, 0x48, 0xbe,
  0x4a, 0x80, 0x91, 0xbc, 0x82, 0xf5, 0x28, 0x3e, 0x48, 0x91, 0x32, 0xbe,
  0x67, 0x8a, 0xdf, 0xbb, 0x40, 0x57, 0x53, 0x3e, 0x2a, 0x66, 0xeb, 0x3c,
  0xbe, 0xab, 0x0a, 0x3e, 0xf9, 0x28, 0x02, 0xbe, 0xe9, 0xf0, 0x46, 0x3d,
  0xff, 0xa2, 0x23, 0xbd, 0x7c, 0xa4, 0x3b, 0x3d, 0x43, 0x5e, 0xbb, 0x3e,
  0xe6, 0x9d, 0xff, 0x3d, 0x9a, 0x5b, 0x3c, 0xbe, 0x41, 0xab, 0x61, 0xbe,
  0x62, 0x54, 0xac, 0xbe, 0x1a, 0x87, 0x03, 0xbe, 0x54, 0x3a, 0x8e, 0xbc,
  0x9c, 0x32, 0x83, 0xbe, 0xaa, 0xea, 0x0a, 0xbd, 0xc5, 0x62, 0x13, 0x3c,
  0x85, 0x2a, 0xae, 0xbe, 0x99, 0x9a, 0x05, 0xbc, 0x98, 0x41, 0x4a, 0xbe,
  0x44, 0xc4, 0x81, 0xbe, 0x17, 0x3e, 0x94, 0xbc, 0x51, 0x84, 0x01, 0x3e,
  0x56, 0x2f, 0xcb, 0x3e, 0x37, 0x56, 0x55, 0xbd, 0xb1, 0xd2, 0x91, 0xbe,
  0xc1, 0xb7, 0xce, 0xbd, 0x7d, 0x13, 0xae, 0xbe, 0x4b, 0x34, 0xe4, 0x3d,
  0x24, 0x66, 0x06, 0xbe, 0xfe, 0x4c, 0x41, 0xbe, 0xe0, 0xdf, 0xcf, 0x3b,
  0x8d, 0xce, 0x93, 0x3d, 0x62, 0x9b, 0x90, 0xbe, 0x15, 0xf9, 0xe9, 0xbe,
  0x52, 0xb7, 0xd8, 0xbe, 0x2b, 0x01, 0xc6, 0xbe, 0x5e, 0x6a, 0x5b, 0x3e,
  0xbc, 0xb8, 0x95, 0x3d, 0xd9, 0xb0, 0x92, 0xbc, 0xa5, 0x1f, 0x12, 0xbf,
  0x5b, 0xeb, 0x44, 0x3d, 0x99, 0xff, 0x83, 0xbd, 0xcf, 0x73, 0xcd, 0x3e,
  0x56, 0xa0, 0x0e, 0x3e, 0x9b, 0x16, 0xf2, 0xbe, 0x2b, 0xcb, 0x6d, 0x3d,
  0x2d, 0xcc, 0x91, 0xbe, 0x5b, 0x2e, 0xcc, 0xbd, 0x45, 0xe0, 0x24, 0xbf,
  0x88, 0x7c, 0x35, 0x3d, 0x3c, 0xa0, 0x7d, 0xbe, 0xd5, 0xf9, 0xcc, 0xbe,
  0x8c, 0x8d, 0xbb, 0xbd, 0x4e, 0x08, 0x98, 0xbd, 0xa2, 0x1c, 0xb7, 0x3e,
  0xac, 0xa8, 0x28, 0xbe, 0x10, 0x46, 0x70, 0x3d, 0xad, 0xb9, 0x91, 0x3d,
  0xc7, 0xe8, 0xa2, 0xbc, 0xce, 0x28, 0xd9, 0x3d, 0x8c, 0xbe, 0xff, 0x3d,
  0x26, 0x37, 0x29, 0xbe, 0x3e, 0x8d, 0x14, 0xbe, 0xb1, 0x16, 0xa0, 0x3e,
  0x64, 0x07, 0xdb, 0xbd, 0x5f, 0x69, 0xdc, 0x3d, 0x33, 0x74, 0xef, 0xbd,
  0xb9, 0x6e, 0xb5, 0x3d, 0x2b, 0x8f, 0x5f, 0x3d, 0xf8, 0x12, 0x23, 0xbd,
  0x6b, 0x57, 0x0a, 0x3f, 0x70, 0xd6, 0x66, 0xbd, 0x1e, 0x6e, 0xc9, 0x3c,
  0xea, 0xf9, 0xc8, 0x3d, 0x54, 0x11, 0x0b, 0xbe, 0x4c, 0xed, 0xf0, 0xbd,
  0x01, 0x82, 0x7c, 0xbd, 0xb2, 0xa8, 0x2b, 0xbd, 0xa7, 0x64, 0xd5, 0x3d,
  0x92, 0x30, 0xde, 0x3e, 0xdc, 0x72, 0xc1, 0x3a, 0x2a, 0x18, 0x83, 0x3e,
  0x9d, 0xf2, 0x22, 0xbe, 0x1d, 0xb1, 0xb9, 0xbd, 0x13, 0x21, 0xc9, 0xbd,
  0x89, 0x76, 0x11, 0x3d, 0x78, 0x6e, 0x38, 0x3f, 0x1d, 0x12, 0x51, 0x3c,
  0x92, 0xca, 0x0f, 0x3d, 0x5d, 0x1d, 0xd5, 0x3d, 0xd6, 0xe7, 0x32, 0xbe,
  0x8c, 0x43, 0x17, 0x3d, 0x35, 0xa0, 0xa3, 0xbd, 0x5e, 0xc1, 0x87, 0x3c,
  0xb8, 0x1c, 0x46, 0x3c, 0x79, 0x43, 0x13, 0x3f, 0xeb, 0x3f, 0x1d, 0xbe,
  0x6c, 0xa3, 0xc3, 0x3d, 0xce, 0x0c, 0xb6, 0xbe, 0x1a, 0xca, 0x8d, 0xbd,
  0x21, 0xd8, 0x98, 0x3a, 0x81, 0x65, 0xd4, 0x3d, 0x22, 0xaf, 0xf3, 0x3e,
  0xf8, 0x54, 0xef, 0xbe, 0xaa, 0xbf, 0x24, 0x3d, 0x69, 0x31, 0xa6, 0x3d,
  0x71, 0x9f, 0x2b, 0xbe, 0x12, 0x98, 0x85, 0x3d, 0x29, 0x13, 0x7d, 0xbd,
  0x8e, 0xca, 0x15, 0xbb, 0xf5, 0x54, 0x8b, 0xbe, 0x18, 0x1f, 0xe5, 0x3b,
  0xc2, 0xee, 0x4c, 0xbe, 0x38, 0xee, 0x08, 0x3e, 0x1a, 0x3e, 0x2e, 0xbf,
  0xd7, 0x65, 0x79, 0xbe, 0xe3, 0x26, 0x80, 0x3d, 0xb4, 0x12, 0xa8, 0xbd,
  0xb6, 0xbc, 0xc0, 0x3e, 0x01, 0x2c, 0x93, 0xbe, 0xba, 0xd9, 0x66, 0x3d,
  0xb0, 0x05, 0x04, 0xbe, 0xa8, 0x6b, 0xf7, 0xbd, 0xfb, 0xf2, 0x91, 0x3c,
  0xfd, 0xa1, 0x9c, 0xbe, 0xa8, 0x7e, 0x0d, 0x3d, 0x35, 0xbe, 0x89, 0xbe,
  0xe1, 0xb0, 0x7a, 0x3d, 0x38, 0xf7, 0x3b, 0xbe, 0x85, 0xb5, 0x27, 0x3e,
  0x15, 0x9c, 0x26, 0xbf, 0x3f, 0x05, 0x19, 0xbe, 0x7a, 0x34, 0x96, 0xbe,
  0x63, 0x38, 0x85, 0xbe, 0x8c, 0x8a, 0x5f, 0xbe, 0xd1, 0x94, 0xc4, 0x3d,
  0xc7, 0xa0, 0x72, 0xbc, 0xfa, 0x4d, 0x8e, 0x3d, 0x81, 0xbb, 0xb3, 0xbc,
  0x64, 0x74, 0x2f, 0x3e, 0xe3, 0xdf, 0x9f, 0xbe, 0x3e, 0x31, 0x46, 0xbe,
  0x5d, 0x1f, 0xda, 0xb9, 0xf3, 0xf6, 0x85, 0x3e, 0x5d, 0xfa, 0x3e, 0x3b,
  0xfa, 0x64, 0x4a, 0xbe, 0xef, 0xa4, 0x5d, 0xbe, 0x1c, 0x8f, 0x15, 0xbe,
  0x03, 0x2e, 0x87, 0xbe, 0x44, 0xdf, 0xa2, 0xbe, 0xa3, 0xcb, 0x8e, 0xbd,
  0x68, 0x4f, 0xa5, 0x3e, 0xef, 0x95, 0xb0, 0xbe, 0xc5, 0x58, 0x7b, 0x3d,
  0x0d, 0x86, 0x98, 0x3e, 0x6d, 0x50, 0x65, 0xbe, 0x22, 0x1c, 0x8b, 0x3b,
  0x8d, 0x08, 0x61, 0xbe, 0x48, 0xbe, 0x72, 0xbe, 0xde, 0xfd, 0x9c, 0x3c,
  0x5f, 0x7b, 0x53, 0xbe, 0x70, 0x33, 0xc9, 0xbd, 0xcc, 0x2c, 0x58, 0xbe,
  0x46, 0x25, 0xda, 0x3c, 0xaf, 0x79, 0x85, 0xbe, 0x8d, 0x19, 0xef, 0xbd,
  0x01, 0x47, 0x96, 0x3e, 0x42, 0x48, 0x7c, 0x3f, 0x10, 0xfd, 0xc0, 0xbe,
  0x1d, 0x2b, 0xfa, 0x3c, 0x17, 0x86, 0x34, 0x3e, 0x1a, 0xc9, 0xc0, 0x3e,
  0x78, 0xe3, 0x32, 0xbe, 0xc3, 0xd8, 0x90, 0xbc, 0xd9, 0xa4, 0x66, 0xbe,
  0x21, 0x16, 0xfc, 0xbd, 0x60, 0xff, 0x08, 0xbd, 0xa1, 0xf4, 0x8c, 0xbd,
  0x38, 0xdd, 0xaa, 0xbd, 0x7e, 0x2f, 0x1b, 0x3e, 0x0a, 0xf5, 0x2e, 0x3d,
  0x0e, 0x9f, 0x4e, 0xbe, 0xa1, 0x82, 0x50, 0xbe, 0x6b, 0xbb, 0xce, 0x3f,
  0x48, 0xd4, 0x41, 0xbe, 0x36, 0x7b, 0x9c, 0x3d, 0x90, 0xb2, 0xfa, 0xbd,
  0x00, 0xfb, 0x05, 0x3f, 0xc8, 0x19, 0x2c, 0xbc, 0xba, 0x7c, 0x68, 0xbe,
  0x51, 0x79, 0xa4, 0xbd, 0xfc, 0x5f, 0x59, 0x3e, 0x7e, 0x54, 0x27, 0xbe,
  0x1e, 0xc4, 0x93, 0xbd, 0xe1, 0xb8, 0x81, 0x3a, 0xa1, 0x84, 0xc0, 0xbc,
  0x65, 0x64, 0x5b, 0xbd, 0xae, 0x9a, 0x8c, 0xbe, 0x04, 0x74, 0xcb, 0xbd,
  0x77, 0xb1, 0x92, 0x3f, 0x3f, 0xa6, 0x9e, 0xbe, 0xe9, 0x15, 0x9d, 0x3e,
  0x4d, 0x12, 0x39, 0x3e, 0x88, 0x49, 0x67, 0x3f, 0x08, 0x59, 0x06, 0x3d,
  0x66, 0x0b, 0x9d, 0xbe, 0x3e, 0xd4, 0x39, 0xbe, 0x26, 0x82, 0x10, 0xbe,
  0x3c, 0x28, 0xf0, 0xbd, 0xab, 0x26, 0x59, 0xbe, 0xcf, 0x73, 0xa7, 0xbe,
  0xa5, 0x95, 0xba, 0x3d, 0x3a, 0xe3, 0x0e, 0x3e, 0xbb, 0x20, 0x5f, 0xbd,
  0x72, 0x28, 0x83, 0xbc, 0x9d, 0x84, 0x09, 0x3f, 0xaf, 0x9e, 0xa9, 0xbe,
  0x81, 0x54, 0x66, 0x3e, 0xaf, 0x13, 0xb5, 0x3d, 0xb8, 0xe4, 0x04, 0x3e,
  0x8f, 0xa4, 0x5d, 0xbe, 0x3e, 0x96, 0xcf, 0xbc, 0x91, 0x13, 0x80, 0xbe,
  0x5a, 0x1f, 0x06, 0xbd, 0x96, 0xc5, 0x77, 0xbe, 0xf6, 0x31, 0x80, 0xbe,
  0xcf, 0x02, 0xa3, 0xbe, 0x3e, 0xdd, 0xd5, 0xbd, 0x69, 0x4e, 0x30, 0xbe,
  0x8c, 0x37, 0xab, 0xbb, 0x52, 0xc3, 0xff, 0xbd, 0x2d, 0x46, 0xe5, 0x3e,
  0x62, 0x5e, 0x75, 0xbe, 0xec, 0xbb, 0x67, 0xbd, 0xf7, 0x36, 0x59, 0x3d,
  0x11, 0xe1, 0xe5, 0x3e, 0x73, 0xa0, 0x2e, 0xbe, 0xf3, 0x18, 0x09, 0xbe,
  0xbd, 0x0b, 0x20, 0x3d, 0xd4, 0x50, 0xdd, 0xbd, 0xce, 0xf1, 0x82, 0xbe,
  0x4f, 0x1d, 0x50, 0x3d, 0xd5, 0x89, 0x5d, 0xbe, 0x0a, 0x3c, 0xd0, 0x3c,
  0x24, 0xcc, 0xbd, 0xbd, 0x6f, 0x35, 0xb8, 0xbe, 0xbd, 0x57, 0x46, 0xbe,
  0x4c, 0x7f, 0x15, 0x3f, 0x46, 0x56, 0x6f, 0xbe, 0x56, 0x0d, 0x67, 0xbe,
  0xf4, 0x18, 0x61, 0xbd, 0x90, 0x12, 0xa2, 0x3e, 0x48, 0x50, 0xbd, 0xbe,
  0xd5, 0xf0, 0x06, 0xbe, 0xb5, 0x5c, 0x6c, 0xbd, 0x9a, 0x03, 0x3b, 0xbe,
  0x67, 0x76, 0xa4, 0xbe, 0xdd, 0xa7, 0x72, 0x3e, 0x36, 0x2c, 0xf2, 0x3d,
  0x2e, 0x71, 0x86, 0xbe, 0x97, 0xc1, 0xbd, 0xbe, 0x90, 0x43, 0xef, 0xbd,
  0x32, 0x74, 0x6c, 0xbc, 0x85, 0x21, 0x62, 0x3e, 0x40, 0x70, 0x7a, 0xbd,
  0xe3, 0x69, 0x3c, 0x3d, 0x15, 0x69, 0x9d, 0xbe, 0x5a, 0xf6, 0x09, 0xbe,
  0x15, 0x24, 0xff, 0x3d, 0x31, 0x17, 0x11, 0x3c, 0xa9, 0xd4, 0xaf, 0x3e,
  0x06, 0x47, 0x7e, 0x3d, 0xb3, 0xc4, 0x97, 0xbe, 0x2d, 0xb9, 0x81, 0xbe,
  0xc1, 0xd8, 0x95, 0xbe, 0xa2, 0xc8, 0x15, 0xbd, 0xf7, 0xa6, 0x96, 0x3c,
  0x4f, 0x98, 0x2b, 0xbd, 0xcc, 0x80, 0x2a, 0xbe, 0x62, 0x3b, 0x24, 0xbf,
  0x82, 0x77, 0x8d, 0xbc, 0xfc, 0x13, 0xe5, 0x3b, 0x65, 0x45, 0x16, 0x3d,
  0xb8, 0x88, 0x39, 0x3c, 0x0c, 0x2d, 0x58, 0x3d, 0x41, 0x7c, 0xe5, 0x3d,
  0x18, 0x11, 0x38, 0xbe, 0x8a, 0x83, 0x09, 0xbe, 0xf7, 0x54, 0x48, 0xbe,
  0x94, 0x92, 0x97, 0xbe, 0xc4, 0xdd, 0x28, 0xbf, 0xf1, 0x7c, 0x41, 0xbd,
  0xe1, 0x63, 0x8a, 0x3d, 0xb9, 0xfd, 0x50, 0xbd, 0xd7, 0x3e, 0x90, 0xbe,
  0x8e, 0xc1, 0xba, 0xbe, 0xa2, 0xe5, 0xa1, 0xbc, 0xcc, 0x65, 0x13, 0x3c,
  0x90, 0x7e, 0x15, 0x3d, 0xc4, 0xc3, 0x05, 0x3e, 0xac, 0x31, 0x93, 0xbe,
  0x4b, 0x53, 0x3b, 0x3d, 0xaa, 0x45, 0x1c, 0xbd, 0xc2, 0xe4, 0x2c, 0xbf,
  0x5f, 0xcc, 0x71, 0xbb, 0xd6, 0x84, 0x64, 0xbe, 0xe8, 0xc7, 0x61, 0xbf,
  0x50, 0xba, 0xae, 0xbe, 0x33, 0x5a, 0x83, 0x3d, 0x12, 0xdd, 0x0a, 0x3d,
  0x76, 0x04, 0x17, 0xbf, 0xca, 0xdc, 0x0f, 0xbf, 0x0a, 0x83, 0xf7, 0xbc,
  0xde, 0x63, 0x78, 0xbd, 0xe5, 0xe9, 0x00, 0x3e, 0xab, 0xe2, 0xb3, 0x3c,
  0x3c, 0x02, 0xb5, 0xbe, 0xea, 0x14, 0x30, 0x3d, 0xa7, 0x8b, 0x56, 0xbe,
  0x8c, 0x87, 0x19, 0xbf, 0xdb, 0x0c, 0x72, 0xbe, 0x47, 0x28, 0xf5, 0x3b,
  0x8c, 0x3e, 0xe8, 0x3d, 0x87, 0x68, 0x84, 0xbe, 0xb2, 0xc5, 0x8b, 0xbd,
  0xec, 0xee, 0x29, 0x3d, 0x3b, 0xc0, 0xc8, 0xbe, 0x78, 0xe0, 0xc2, 0x3e,
  0x49, 0xcd, 0x46, 0xbc, 0xb0, 0xa8, 0xf8, 0xbc, 0xbc, 0x36, 0x9d, 0x3a,
  0x23, 0xb2, 0x39, 0x3e, 0x33, 0x49, 0x3f, 0xbe, 0xe4, 0xc3, 0x9f, 0x3d,
  0xc6, 0x09, 0x87, 0x3e, 0xfe, 0xf6, 0x90, 0xbd, 0x5b, 0xa7, 0x0b, 0xbe,
  0xd2, 0x5d, 0x45, 0xbe, 0x90, 0x85, 0x5a, 0xbd, 0x56, 0x7d, 0x04, 0xbe,
  0x88, 0x19, 0x64, 0xbd, 0x2e, 0x2e, 0xbc, 0x3d, 0x8f, 0xae, 0x8d, 0xbe,
  0x2e, 0x88, 0x9d, 0x3e, 0xde, 0x79, 0x2c, 0xbd, 0xf4, 0x4a, 0xc5, 0x3b,
  0x2b, 0x61, 0x21, 0x3d, 0x3a, 0x74, 0xb7, 0x3d, 0xbb, 0x60, 0x16, 0x3d,
  0x41, 0x94, 0x4f, 0xbd, 0xa5, 0x73, 0x7f, 0x3b, 0xfe, 0x3d, 0x4c, 0x3e,
  0xf8, 0x57, 0x93, 0xbe, 0x55, 0x5c, 0x95, 0x3d, 0x2a, 0x6a, 0x8a, 0x3e,
  0x25, 0x11, 0x48, 0xbe, 0x57, 0x09, 0xe6, 0x3e, 0x55, 0x5b, 0x6e, 0xbd,
  0xd0, 0x7c, 0x8d, 0x3e, 0x5e, 0x54, 0xea, 0xbe, 0x2d, 0x16, 0x7c, 0x3c,
  0x41, 0x99, 0xbe, 0xbc, 0xec, 0xeb, 0xf7, 0x39, 0xc6, 0x70, 0x9a, 0xbd,
  0xd5, 0x99, 0xf2, 0x3d, 0x38, 0xa9, 0x43, 0x3d, 0x59, 0x68, 0x4b, 0xbe,
  0xac, 0xc5, 0x53, 0x3a, 0xb8, 0x5c, 0xda, 0xb8, 0x95, 0x53, 0x62, 0x3e,
  0xad, 0x84, 0x7b, 0x3d, 0x05, 0xac, 0xbc, 0xbd, 0xf8, 0x89, 0x8d, 0xbc,
  0x17, 0x22, 0x4c, 0x3e, 0x37, 0x24, 0x28, 0xbe, 0xf6, 0xbd, 0xce, 0x3e,
  0xee, 0x0e, 0x81, 0xbd, 0xed, 0x3e, 0xb4, 0x3e, 0x1a, 0x4b, 0xc3, 0xbd,
  0xfb, 0xcd, 0x0a, 0xbe, 0xcf, 0xbb, 0x61, 0x3c, 0x0e, 0x70, 0x28, 0xbf,
  0x76, 0x7e, 0xfb, 0x3d, 0x77, 0xe9, 0xb0, 0xbd, 0xfe, 0x42, 0x15, 0x3e,
  0xe5, 0xb9, 0x30, 0xbe, 0xea, 0x7d, 0xec, 0x3d, 0xcb, 0xb4, 0xeb, 0x3d,
  0xa6, 0x46, 0xcf, 0x3b, 0x2d, 0x94, 0x74, 0x3c, 0x64, 0x3b, 0x62, 0xbc,
  0x59, 0x09, 0x4e, 0x3f, 0x94, 0xcf, 0xb4, 0xbd, 0x7f, 0x22, 0x0b, 0xbc,
  0xd8, 0xd0, 0x8c, 0x3c, 0x73, 0xfc, 0x0c, 0x3e, 0x28, 0xdd, 0x90, 0x3d,
  0x87, 0x28, 0xa0, 0xbd, 0x93, 0x26, 0x65, 0x3c, 0x5b, 0x49, 0x75, 0xbe,
  0x26, 0xca, 0x61, 0x3d, 0xf0, 0x2b, 0x4b, 0xbe, 0x7a, 0xe3, 0xb0, 0xbe,
  0x4d, 0xfb, 0x64, 0x3e, 0x02, 0xd1, 0x94, 0x3e, 0xb9, 0xbb, 0x16, 0xbe,
  0xb1, 0x65, 0x69, 0xbe, 0x31, 0xac, 0xba, 0x3f, 0xba, 0x2a, 0xf9, 0xbd,
  0x48, 0x19, 0xe0, 0xbe, 0xcf, 0xee, 0x4e, 0xbe, 0x0f, 0xd8, 0x06, 0x3f,
  0xf0, 0x77, 0x00, 0xbd, 0xa4, 0x51, 0x25, 0xbe, 0xb3, 0xeb, 0x24, 0xbe,
  0x15, 0x1a, 0xd1, 0xbd, 0x55, 0x40, 0x92, 0x3c, 0xf1, 0xf7, 0x67, 0x3c,
  0x5e, 0x17, 0x89, 0xbe, 0x32, 0x72, 0x7f, 0xbe, 0xcc, 0xcc, 0xf2, 0x3d,
  0x86, 0x5c, 0xab, 0xbe, 0xea, 0xe3, 0x26, 0xbd, 0xe0, 0x21, 0x14, 0x40,
  0x3b, 0x1f, 0xdb, 0xbd, 0x42, 0x74, 0xbc, 0xbe, 0x54, 0x05, 0x6c, 0xbe,
  0x1b, 0x8e, 0x06, 0x3f, 0x68, 0x09, 0xb0, 0xbd, 0xd2, 0x5c, 0x4d, 0xbe,
  0x6e, 0xa7, 0xaa, 0x3d, 0xc8, 0x28, 0x0d, 0xbe, 0x42, 0x8e, 0x96, 0xbe,
  0x9a, 0x54, 0xb5, 0xbd, 0x59, 0x25, 0x19, 0x3d, 0xcf, 0x75, 0x9f, 0xbe,
  0x26, 0x1d, 0xd6, 0x3e, 0xf4, 0x6c, 0xc7, 0x3c, 0x3c, 0x11, 0x21, 0xbe,
  0x49, 0x08, 0xa1, 0x3f, 0x4b, 0x13, 0x2c, 0xbe, 0xc3, 0x07, 0xc8, 0xbe,
  0xd7, 0x5d, 0xe6, 0xbd, 0xd1, 0xf2, 0xdd, 0x3e, 0x7e, 0x9c, 0x8f, 0xbd,
  0xc3, 0x86, 0x79, 0xbe, 0x86, 0xfb, 0xdf, 0xbd, 0xe2, 0x24, 0xb5, 0xbc,
  0x0a, 0xc8, 0x13, 0xbe, 0xdb, 0xca, 0x94, 0x3e, 0xf1, 0x3e, 0x15, 0x3e,
  0x57, 0x40, 0x11, 0xbe, 0x97, 0x57, 0x7e, 0x3e, 0x47, 0x76, 0x3a, 0x3d,
  0x09, 0x42, 0x61, 0x3c, 0x70, 0xf9, 0x4b, 0x3f, 0x89, 0x2f, 0x01, 0xbe,
  0x42, 0x5c, 0x14, 0x3d, 0xa5, 0x93, 0xbb, 0xbd, 0x93, 0x6f, 0xb4, 0x3e,
  0xe0, 0x31, 0x55, 0xbd, 0x76, 0x52, 0x87, 0xbe, 0x1a, 0xcf, 0xab, 0x3e,
  0xd7, 0x3f, 0x2b, 0xbd, 0x7c, 0x91, 0x7d, 0xbe, 0xff, 0x2c, 0x16, 0x3e,
  0xe6, 0xed, 0x8a, 0xbd, 0xd8, 0x3b, 0x4c, 0x3d, 0x64, 0x73, 0xa4, 0xbe,
  0x9a, 0x48, 0x22, 0xbd, 0x71, 0xf0, 0x0f, 0xbd, 0xe0, 0xbd, 0x26, 0x3f,
  0x3b, 0x3e, 0xdd, 0xbd, 0x27, 0x0a, 0xcb, 0xbd, 0xf1, 0x50, 0x14, 0xbe,
  0xfd, 0x13, 0xae, 0xbd, 0x74, 0x52, 0xa2, 0xbd, 0x87, 0x72, 0x10, 0xbe,
  0x2c, 0x58, 0xb0, 0x3e, 0x77, 0x45, 0xe8, 0xbd, 0xaf, 0xce, 0xc0, 0xbd,
  0x58, 0x42, 0x81, 0xbe, 0x90, 0x20, 0xc2, 0xbe, 0xbf, 0x1b, 0xb2, 0x3b,
  0xa5, 0xf1, 0xdd, 0xbd, 0xba, 0x8e, 0x93, 0xbe, 0x74, 0x8d, 0xa7, 0xbe,
  0xa1, 0x13, 0x0c, 0x3f, 0x9e, 0xf3, 0x89, 0xbe, 0x2b, 0xfe, 0x4d, 0xbe,
  0x77, 0xb6, 0xe9, 0x3e, 0x39, 0x7e, 0xc9, 0xbe, 0x8e, 0x68, 0x6e, 0xbe,
  0xbe, 0xf7, 0xac, 0xbe, 0xa0, 0x21, 0x17, 0xbe, 0xe4, 0xb3, 0x11, 0xbe,
  0xd9, 0x69, 0x22, 0xbe, 0x6d, 0x5e, 0xe5, 0x3d, 0x56, 0xc5, 0x8e, 0xbc,
  0x18, 0xdb, 0xb5, 0xbe, 0x40, 0x5a, 0x31, 0xbc, 0x0f, 0x5f, 0x92, 0xbe,
  0x24, 0x4a, 0x1d, 0x3e, 0x73, 0xef, 0xe6, 0x3f, 0x46, 0x4b, 0x0d, 0xbf,
  0xf2, 0x41, 0xd4, 0x3d, 0x4f, 0x91, 0xfc, 0x3e, 0xe9, 0xbe, 0xbd, 0x3f,
  0x4b, 0x45, 0x2a, 0xbe, 0x91, 0x25, 0xa7, 0xbd, 0x67, 0xfa, 0xd2, 0x3c,
  0x33, 0x28, 0x34, 0x3e, 0xd9, 0xa8, 0xa5, 0xbd, 0xf2, 0xfc, 0x80, 0xbe,
  0x04, 0x53, 0xd9, 0xbc, 0x07, 0xca, 0x86, 0xbe, 0xe1, 0x38, 0x88, 0xbd,
  0xfc, 0x0e, 0x39, 0xbe, 0xce, 0xc7, 0x66, 0x3e, 0x71, 0x91, 0x5c, 0x40,
  0x82, 0xbd, 0x9d, 0xbe, 0x3f, 0xf2, 0xa4, 0x3e, 0x13, 0x03, 0xb9, 0x3c,
  0xa7, 0x7c, 0xb2, 0x3f, 0x56, 0x4f, 0xee, 0xbd, 0x25, 0x63, 0x8c, 0xbe,
  0x8c, 0x1f, 0xa0, 0xbd, 0x9a, 0x91, 0xab, 0x3e, 0x50, 0x13, 0x1f, 0x3e,
  0xfe, 0x7d, 0x20, 0x3e, 0x58, 0x26, 0x38, 0x3e, 0xa5, 0x6c, 0x42, 0x3d,
  0x1f, 0x9b, 0x92, 0xbc, 0xe0, 0x62, 0x40, 0xbe, 0xd8, 0xcf, 0xa0, 0x3d,
  0xe9, 0x51, 0x38, 0x40, 0xe6, 0xf9, 0xfb, 0xbe, 0xfa, 0xc8, 0xd5, 0x3e,
  0x9a, 0x69, 0xd0, 0xbd, 0x96, 0x57, 0xa0, 0x3f, 0x25, 0xfc, 0x42, 0xbc,
  0x7c, 0x2a, 0xaa, 0xbd, 0x36, 0xb1, 0x47, 0x3e, 0x6f, 0x93, 0xc4, 0xbc,
  0xe0, 0x6c, 0x33, 0x3e, 0x41, 0xfb, 0x88, 0xbd, 0xe5, 0x85, 0x8d, 0xbd,
  0x73, 0xea, 0xcf, 0xbc, 0x92, 0x84, 0xec, 0xbc, 0x11, 0xef, 0xb1, 0x3c,
  0x19, 0x84, 0x26, 0x3e, 0x57, 0x1e, 0x79, 0x3f, 0x03, 0x8d, 0xfe, 0xbe,
  0x5d, 0x67, 0x0e, 0x3f, 0xe3, 0x5f, 0x32, 0x3e, 0x3c, 0xe1, 0x93, 0x3d,
  0x51, 0x76, 0x29, 0xbe, 0x09, 0xe9, 0x43, 0xbe, 0x60, 0x25, 0xab, 0xbd,
  0x02, 0x23, 0x6c, 0xbc, 0xc1, 0x43, 0x12, 0x3e, 0x20, 0x48, 0x82, 0xbe,
  0x15, 0x9f, 0x00, 0xbe, 0x16, 0x61, 0xb8, 0xbc, 0xad, 0x1f, 0x36, 0x3e,
  0xcc, 0xf7, 0x13, 0xbe, 0xcb, 0x79, 0x0f, 0x3d, 0xa8, 0xc7, 0x57, 0x3f,
  0xc7, 0x5f, 0x29, 0xbf, 0xcc, 0xb1, 0x25, 0xbe, 0xb7, 0xb2, 0x18, 0x3b,
  0x52, 0xd5, 0x6f, 0x3f, 0x5a, 0x6c, 0x4e, 0xbe, 0xe4, 0xed, 0xac, 0xbd,
  0x11, 0xdd, 0x16, 0xbe, 0x7f, 0xed, 0x31, 0xbe, 0xdd, 0x06, 0x75, 0x3d,
  0x80, 0x59, 0x0f, 0x3d, 0x0e, 0x4f, 0x38, 0xbe, 0x97, 0x2a, 0x34, 0xbe,
  0x35, 0x10, 0xb1, 0xbd, 0xff, 0xbc, 0x36, 0xbe, 0xb8, 0x37, 0x60, 0x3e,
  0xc1, 0x7c, 0x61, 0x3f, 0x76, 0xa0, 0x02, 0xbf, 0x1e, 0x75, 0xbf, 0xbe,
  0x8e, 0x21, 0x03, 0xbe, 0xcf, 0x07, 0x0c, 0x3f, 0x33, 0xa1, 0xa5, 0xbe,
  0x0c, 0xf5, 0xf0, 0xbc, 0xfe, 0x5b, 0xec, 0xbd, 0xcc, 0x0f, 0x92, 0xbe,
  0x47, 0x3a, 0xfa, 0xbe, 0x5a, 0xde, 0x94, 0xbd, 0x7b, 0x2a, 0x0f, 0xbe,
  0x73, 0xd1, 0x1d, 0xbe, 0xf6, 0xb2, 0xdf, 0x3e, 0xe8, 0x21, 0x43, 0x3d,
  0x97, 0x48, 0x72, 0x3e, 0x69, 0x8d, 0x47, 0x3e, 0x69, 0xc1, 0xcf, 0xbd,
  0xe6, 0xc0, 0x97, 0x3d, 0x4a, 0x09, 0x61, 0x3e, 0x0a, 0x51, 0x74, 0xbc,
  0x50, 0xc6, 0x4e, 0xbe, 0x3b, 0xae, 0x89, 0xbd, 0xa8, 0xd8, 0xf2, 0xbd,
  0x7d, 0x2f, 0xed, 0xbd, 0xd6, 0x27, 0xe9, 0xbd, 0x00, 0xef, 0x42, 0xbe,
  0x86, 0x9a, 0xc3, 0x3d, 0xc1, 0x82, 0x1a, 0xbe, 0xb8, 0x7e, 0x1a, 0x3e,
  0xca, 0xcd, 0x26, 0x3e, 0x3a, 0xa9, 0xd9, 0x3d, 0x24, 0xa7, 0x92, 0x3d,
  0x43, 0xdf, 0x0f, 0xbe, 0x76, 0x40, 0x1a, 0x3e, 0x1c, 0x86, 0x30, 0x3e,
  0x76, 0x05, 0x8c, 0x3e, 0xb9, 0x42, 0x98, 0x3e, 0xf7, 0xc7, 0x78, 0xbe,
  0xa1, 0x7d, 0xab, 0x3d, 0xbb, 0x3a, 0x08, 0xbe, 0x96, 0xbd, 0x3f, 0x3d,
  0x46, 0x2c, 0xac, 0xbd, 0x0a, 0x40, 0x40, 0x3e, 0x7e, 0x64, 0x3e, 0xbe,
  0x70, 0xa7, 0xb8, 0x3d, 0xb6, 0xef, 0xdc, 0xbb, 0x8e, 0x64, 0x16, 0xbe,
  0x28, 0x5a, 0x7a, 0xbe, 0x79, 0x35, 0xaa, 0xbd, 0xda, 0x9b, 0x41, 0xbd,
  0x82, 0x1b, 0x71, 0x3d, 0xc6, 0x23, 0xab, 0xbd, 0xd3, 0x87, 0x94, 0xbe,
  0xb1, 0x5b, 0xfd, 0xbd, 0xd9, 0x88, 0x0c, 0x3e, 0x89, 0xa5, 0x2b, 0x3e,
  0xa0, 0xe8, 0x16, 0x3e, 0xaf, 0x09, 0x75, 0xbe, 0xd2, 0x8c, 0x66, 0xbd,
  0xe4, 0x63, 0xe3, 0xbd, 0x28, 0x4b, 0x61, 0x3e, 0xd9, 0x09, 0x31, 0x3d,
  0x81, 0x6b, 0xd3, 0x3d, 0x1c, 0xbc, 0x9b, 0xbe, 0x48, 0x8e, 0x34, 0xbe,
  0xe8, 0xf4, 0xdc, 0xbd, 0xc4, 0xe2, 0xa2, 0x3d, 0x4e, 0x6c, 0x80, 0x3e,
  0x37, 0x2e, 0x07, 0xbd, 0xa7, 0xf5, 0x7c, 0xbe, 0x91, 0xd8, 0x32, 0x3e,
  0x02, 0x93, 0x77, 0xbd, 0xfb, 0xf8, 0xaa, 0xbd, 0x8b, 0xec, 0xba, 0xbd,
  0x73, 0x46, 0xe9, 0xbc, 0xc7, 0x29, 0xd3, 0x3d, 0xbc, 0x24, 0x7e, 0x3e,
  0x74, 0xab, 0x84, 0xbd, 0x27, 0x64, 0x40, 0xbe, 0xdc, 0x74, 0xc0, 0x3c,
  0xad, 0x4f, 0x81, 0xbe, 0xe8, 0x1d, 0x90, 0x3e, 0xf6, 0xb9, 0x5e, 0x3d,
  0x2d, 0x5a, 0x1c, 0x3e, 0x7a, 0x39, 0xf1, 0x3d, 0x12, 0xe7, 0xf2, 0xbc,
  0xa2, 0x90, 0x87, 0xbd, 0x03, 0x8e, 0x9e, 0x3d, 0xe2, 0x04, 0xac, 0xbd,
  0x9d, 0x20, 0x63, 0x3d, 0x7d, 0x18, 0xd6, 0xbc, 0xfe, 0x5d, 0x3e, 0xbe,
  0x82, 0x80, 0x82, 0x3e, 0x8a, 0x7d, 0x7d, 0x3d, 0xa3, 0xec, 0xa9, 0xbc,
  0xa5, 0xd3, 0xf8, 0xbd, 0x43, 0x37, 0x3c, 0xbe, 0xe0, 0x76, 0xa3, 0x3d,
  0xd1, 0x6b, 0x93, 0x3d, 0xf4, 0xc7, 0x83, 0x3b, 0x10, 0x29, 0x9c, 0xbe,
  0xde, 0x37, 0xce, 0x3c, 0x53, 0x39, 0x46, 0xbe, 0x98, 0x6e, 0x30, 0xbe,
  0x35, 0x4e, 0x29, 0xbe, 0xf0, 0x5f, 0x9f, 0x3d, 0xf1, 0x6f, 0x3e, 0xbd,
  0x41, 0xc2, 0x01, 0xbe, 0xeb, 0xf5, 0x55, 0x3d, 0x56, 0x79, 0x22, 0x3d,
  0xe8, 0x98, 0xbf, 0x3b, 0x2f, 0xfc, 0xa7, 0xbd, 0xda, 0xc7, 0x20, 0xbe,
  0xd7, 0x05, 0x7a, 0xbe, 0x06, 0x6b, 0x21, 0x3e, 0xaf, 0xbc, 0x51, 0xbd,
  0x5e, 0xf1, 0xca, 0xbd, 0xa6, 0xa9, 0x49, 0xbe, 0x6b, 0xa0, 0x66, 0x3d,
  0x6f, 0x86, 0x16, 0xbe, 0xde, 0x4a, 0x20, 0xbd, 0xfa, 0xd6, 0x53, 0x3e,
  0x22, 0x2c, 0x9c, 0x3d, 0x84, 0x8e, 0x52, 0x3e, 0x56, 0xee, 0x90, 0xbd,
  0x55, 0x5a, 0xdb, 0x3d, 0x2f, 0xbd, 0x51, 0xbb, 0xd8, 0xa5, 0x40, 0x3e,
  0xbc, 0x29, 0xd4, 0x3c, 0x57, 0xa3, 0xf4, 0x3c, 0x2a, 0x76, 0x5e, 0xbe,
  0xed, 0x16, 0x11, 0xbd, 0x9b, 0xbd, 0xb6, 0x3d, 0x21, 0xaf, 0x97, 0xbd,
  0x66, 0x92, 0x4f, 0x3e, 0xd8, 0xd5, 0xe9, 0xbd, 0x54, 0x5d, 0x3b, 0x3e,
  0x0c, 0xc5, 0x3b, 0xbe, 0x91, 0x3e, 0x87, 0x3e, 0x14, 0x48, 0x63, 0x3e,
  0x11, 0x10, 0x08, 0x3d, 0xd6, 0x31, 0x31, 0xbe, 0x0a, 0x25, 0xc0, 0xbe,
  0x0d, 0x2f, 0xb9, 0x3e, 0xf2, 0xe6, 0x95, 0xbc, 0x94, 0xb4, 0x16, 0xbe,
  0x33, 0x05, 0x3b, 0xbd, 0x63, 0xfd, 0x96, 0xbd, 0x56, 0xef, 0x6f, 0x3d,
  0x0f, 0x57, 0xa3, 0xbd, 0xfe, 0xbd, 0xf4, 0x3d, 0xf2, 0xfa, 0x91, 0x3b,
  0xa2, 0x6e, 0x46, 0x3e, 0xc6, 0x9a, 0xa3, 0xbe, 0xa4, 0xe4, 0x40, 0x3e,
  0x21, 0x31, 0x42, 0x3d, 0x19, 0xe4, 0x36, 0xbd, 0x82, 0x58, 0x7e, 0xbd,
  0xc7, 0x1f, 0xf6, 0xbe, 0x47, 0x4f, 0xf7, 0x3e, 0xe0, 0x68, 0xf1, 0xbc,
  0x14, 0x4b, 0x07, 0xbe, 0xd3, 0x09, 0x85, 0xbd, 0x01, 0x6f, 0x55, 0x3d,
  0x41, 0xdd, 0x84, 0x3d, 0xe4, 0x11, 0x9f, 0xbe, 0xa8, 0x63, 0xef, 0x3d,
  0xd1, 0x6d, 0x0f, 0xbe, 0x2a, 0x2e, 0xcc, 0xbb, 0x45, 0xfb, 0x2d, 0xbe,
  0x4e, 0x55, 0x09, 0x3e, 0x03, 0xaf, 0x13, 0x3e, 0x6f, 0x73, 0xa9, 0x3d,
  0x96, 0x5c, 0xd8, 0xbd, 0x3c, 0x54, 0xda, 0xbe, 0x15, 0x0f, 0x4d, 0x3f,
  0xf3, 0x17, 0xe4, 0xbc, 0xce, 0xa9, 0x26, 0xbe, 0xa6, 0x65, 0x0e, 0xbe,
  0x93, 0xaa, 0x26, 0xbd, 0x90, 0x70, 0x05, 0x3e, 0x6f, 0x56, 0xdd, 0xbd,
  0x6b, 0x07, 0xec, 0xbd, 0x24, 0x5d, 0x70, 0xbe, 0x00, 0xe9, 0xe9, 0x3d,
  0xe1, 0xf2, 0xde, 0xbd, 0x44, 0x5e, 0x23, 0x3e, 0xd3, 0x89, 0x74, 0x3e,
  0xc9, 0x72, 0xee, 0xbc, 0xa0, 0x81, 0x5c, 0x3d, 0xf1, 0x7f, 0x59, 0xbe,
  0x89, 0x48, 0xa3, 0x3e, 0x33, 0xaf, 0xe0, 0xbb, 0x81, 0x57, 0x73, 0xbd,
  0xf4, 0x15, 0x51, 0xbd, 0xe8, 0xe5, 0x5f, 0xbd, 0x84, 0xe0, 0x39, 0x3e,
  0x10, 0x65, 0xb5, 0x3c, 0x6e, 0xa2, 0x97, 0x3e, 0x2e, 0xb1, 0x8e, 0xbe,
  0x26, 0x1c, 0x4f, 0x3e, 0x9e, 0xcf, 0x03, 0x3d, 0x4c, 0x07, 0xcf, 0x3d,
  0x46, 0xe1, 0xeb, 0x3d, 0xa5, 0x22, 0x1f, 0xbc, 0xd3, 0x70, 0x21, 0x3e,
  0xf0, 0x6a, 0x10, 0xbe, 0xda, 0x8e, 0x9c, 0x3e, 0x76, 0x6a, 0x08, 0x3d,
  0x48, 0xf0, 0x20, 0x3e, 0x29, 0x82, 0x93, 0xbd, 0x06, 0x85, 0x35, 0x3b,
  0x29, 0x7d, 0x75, 0x3d, 0x83, 0x15, 0xb9, 0x3d, 0x86, 0xd9, 0x90, 0x3e,
  0x54, 0x57, 0x5a, 0xbe, 0x3a, 0xd8, 0x79, 0x3e, 0x3c, 0x3e, 0x83, 0x3d,
  0xcd, 0x93, 0x74, 0x3d, 0x18, 0xb3, 0x81, 0x3e, 0x59, 0xbc, 0x2a, 0x3d,
  0x36, 0x01, 0x6f, 0x3d, 0x32, 0x0e, 0x38, 0xbd, 0xb1, 0x8b, 0xda, 0x3c,
  0xa0, 0xf9, 0xcf, 0xbb, 0x53, 0xc1, 0xeb, 0x3b, 0xfe, 0x50, 0x14, 0xbe,
  0x44, 0xc3, 0x18, 0xbe, 0xd4, 0x6c, 0x81, 0x3d, 0x10, 0xf2, 0x02, 0xbe,
  0x71, 0x4f, 0x85, 0x3e, 0x4e, 0x8d, 0xa1, 0xbe, 0x81, 0x08, 0x44, 0x3b,
  0xd7, 0xf0, 0x4e, 0xbe, 0x14, 0xbc, 0x94, 0x3d, 0x8c, 0xa1, 0x98, 0xbd,
  0xf7, 0x1c, 0x5e, 0xbd, 0x14, 0x9e, 0x9d, 0xbe, 0x07, 0x53, 0x5c, 0xbe,
  0xc3, 0xa9, 0x9a, 0x3e, 0x82, 0xe2, 0xc1, 0xbd, 0x27, 0x19, 0x58, 0xbd,
  0xb2, 0x32, 0x34, 0xbe, 0xc5, 0x3f, 0x36, 0xbe, 0x1c, 0xc4, 0xa4, 0x3d,
  0xfb, 0xea, 0xec, 0x3b, 0x88, 0x5e, 0xc1, 0xbd, 0x3a, 0xd0, 0x52, 0x3e,
  0xa0, 0xeb, 0x2b, 0xbe, 0x83, 0x7e, 0x53, 0x3d, 0xb3, 0x46, 0x3b, 0xbe,
  0xd6, 0x60, 0x06, 0xbe, 0x3a, 0xf9, 0xa9, 0x3d, 0x1c, 0x17, 0x12, 0xbd,
  0x22, 0x4f, 0x50, 0xbd, 0xe9, 0x69, 0xfa, 0xbe, 0x4f, 0xfc, 0x8c, 0xbd,
  0x00, 0x52, 0xaf, 0x3b, 0xe7, 0x6c, 0x88, 0xbd, 0xe5, 0xa1, 0xfa, 0xbd,
  0x22, 0xdd, 0xfc, 0xbd, 0x27, 0xaf, 0x10, 0x3d, 0x1b, 0xb7, 0xa0, 0x3d,
  0xe1, 0xe0, 0x7d, 0xbd, 0xa6, 0x7c, 0xf5, 0xbb, 0x14, 0x92, 0x2e, 0x3c,
  0x52, 0x96, 0xd3, 0xbe, 0x85, 0x12, 0x39, 0xbe, 0xb6, 0xf1, 0xa5, 0xbd,
  0x18, 0x64, 0xa6, 0xbd, 0x6f, 0xf8, 0xc6, 0x3d, 0xce, 0x40, 0x0b, 0xbf,
  0x78, 0xb3, 0xba, 0xbd, 0x2f, 0x32, 0x5e, 0xbd, 0xa0, 0xfd, 0xbe, 0x3d,
  0x6f, 0xd5, 0x32, 0xbe, 0x36, 0x0e, 0xd6, 0xbd, 0xe8, 0xe6, 0xc4, 0x3c,
  0x8a, 0x1c, 0xc0, 0xbd, 0x53, 0x63, 0xce, 0xbd, 0x86, 0x73, 0x6f, 0x3d,
  0x81, 0x94, 0x76, 0xbe, 0x9f, 0x42, 0xc6, 0xbe, 0x44, 0xdb, 0xc1, 0xbc,
  0x02, 0xb8, 0xb5, 0xbb, 0x28, 0x91, 0x32, 0x3e, 0xea, 0x9c, 0x08, 0xbe,
  0x99, 0x76, 0xa6, 0xbe, 0x72, 0x9d, 0xab, 0xbd, 0xda, 0x62, 0x90, 0x3d,
  0x0b, 0xcc, 0xb0, 0xbd, 0xee, 0x9f, 0x05, 0xbe, 0x4c, 0xb0, 0x92, 0xbe,
  0x20, 0x2f, 0x7d, 0x3d, 0x80, 0x85, 0x22, 0xbe, 0x73, 0xea, 0xd2, 0xbe,
  0x6a, 0xd4, 0x2d, 0x3d, 0x2a, 0xf8, 0x5d, 0xbd, 0xd8, 0x6f, 0x43, 0x3d,
  0x51, 0xd6, 0xad, 0xbe, 0x57, 0x58, 0x49, 0xbd, 0x53, 0x7e, 0xd3, 0xbd,
  0x09, 0x34, 0x25, 0xbd, 0x9e, 0x8d, 0x7a, 0xbe, 0x7c, 0x3b, 0x2d, 0xbd,
  0xf6, 0x3a, 0xe0, 0xbd, 0x86, 0x44, 0x85, 0xbd, 0xc6, 0x8b, 0xcc, 0x3d,
  0x69, 0xc3, 0x3d, 0xbe, 0xad, 0xbc, 0xee, 0xbd, 0x6c, 0x08, 0xb0, 0x3c,
  0xf3, 0x42, 0x32, 0x3e, 0x74, 0x77, 0xaa, 0xbe, 0x63, 0xf4, 0x0c, 0x3e,
  0x0f, 0x8e, 0x38, 0x3d, 0x97, 0x53, 0xdd, 0xbd, 0xdc, 0x90, 0xc4, 0xbe,
  0x79, 0x1b, 0x31, 0x3e, 0x2f, 0xb2, 0xab, 0x3c, 0x9e, 0xc9, 0x0d, 0x3f,
  0x33, 0x16, 0x2d, 0x3d, 0x30, 0xc2, 0x07, 0x3e, 0x7b, 0xb1, 0x0e, 0xbe,
  0x48, 0xe4, 0x47, 0x3e, 0x1c, 0xc1, 0x04, 0x3d, 0x21, 0xb4, 0x5d, 0x3d,
  0x55, 0x7f, 0x82, 0x3e, 0xa7, 0xa2, 0x8b, 0x3d, 0xa7, 0x78, 0xa9, 0xbe,
  0x93, 0xb8, 0x86, 0x3e, 0xcd, 0xed, 0xc3, 0x3d, 0x20, 0xfd, 0xc9, 0x3c,
  0xbe, 0x11, 0xcd, 0x3e, 0xc7, 0x0c, 0x9d, 0x3d, 0xc2, 0x5f, 0x80, 0x3d,
  0xb5, 0xd2, 0xba, 0x3d, 0xa7, 0x40, 0xf6, 0x3c, 0xe9, 0x8e, 0xfa, 0x3b,
  0x88, 0xf6, 0x77, 0x3e, 0xfa, 0xe8, 0xc9, 0x3d, 0x5f, 0xa2, 0x55, 0x3d,
  0xfe, 0x6f, 0xa2, 0x3c, 0x46, 0xe3, 0x19, 0x3e, 0xd7, 0x1f, 0x82, 0x3d,
  0xb1, 0x35, 0x80, 0x3c, 0x54, 0x9a, 0x91, 0xbc, 0xcf, 0xdd, 0xfe, 0x3d,
  0xaf, 0x52, 0x27, 0x3d, 0x81, 0x7b, 0x90, 0x3d, 0xf4, 0xaf, 0x0e, 0xbd,
  0x70, 0x83, 0x25, 0xbd, 0xc3, 0x11, 0x30, 0xbd, 0x47, 0x98, 0x16, 0xbe,
  0x2f, 0x6d, 0x39, 0xbd, 0x48, 0xb7, 0xd0, 0x3d, 0x58, 0x54, 0x82, 0xbe,
  0xb0, 0x75, 0xdf, 0x3b, 0x77, 0xde, 0x8f, 0xbe, 0x68, 0xde, 0xb9, 0xbd,
  0x97, 0x41, 0x7f, 0xbd, 0x9c, 0xcb, 0x61, 0xbc, 0xaf, 0x10, 0x92, 0x3d,
  0xe8, 0xab, 0x64, 0xbe, 0xa4, 0xaa, 0x3f, 0x3c, 0xe4, 0x24, 0x42, 0xbe,
  0xbe, 0xe7, 0x95, 0x3d, 0x0c, 0xc0, 0x05, 0x3e, 0x60, 0x21, 0x82, 0xbd,
  0xf1, 0xfb, 0xb7, 0xbe, 0xb9, 0xf6, 0x7c, 0xbe, 0x70, 0xe2, 0x94, 0xbe,
  0x02, 0x40, 0x13, 0xbd, 0x56, 0x9a, 0x95, 0x3d, 0xf2, 0x3e, 0x35, 0xbe,
  0xf3, 0x85, 0xda, 0x3d, 0x6b, 0x3e, 0x94, 0xbe, 0x18, 0xc1, 0x86, 0xbe,
  0x34, 0xab, 0xcb, 0x3d, 0x5b, 0x46, 0xf6, 0xbd, 0xa1, 0xe9, 0x28, 0x3c,
  0x6a, 0xbd, 0xab, 0x3d, 0x91, 0xba, 0x29, 0xbe, 0x36, 0x8e, 0x81, 0xbd,
  0xae, 0x2e, 0xd1, 0x3d, 0xff, 0xd4, 0x95, 0xbd, 0xdd, 0x73, 0x3d, 0xbd,
  0xb1, 0x59, 0x1a, 0xbe, 0xe3, 0xae, 0xb6, 0x3c, 0x5d, 0x67, 0xb0, 0x3d,
  0x25, 0x8a, 0x75, 0xbe, 0x32, 0xd6, 0x28, 0xbb, 0x1e, 0x36, 0x03, 0xbe,
  0x85, 0xd5, 0x73, 0xbd, 0x96, 0x36, 0xb1, 0xbd, 0x09, 0xdd, 0xbf, 0x3d,
  0x4b, 0x9b, 0x41, 0xbe, 0xb5, 0x3b, 0x1c, 0x3d, 0x25, 0x18, 0xfd, 0xbd,
  0xe6, 0xf0, 0x72, 0x3d, 0x53, 0xca, 0x9f, 0xbd, 0xbd, 0x1d, 0xc8, 0xbe,
  0x63, 0x37, 0x64, 0xbe, 0xf7, 0xd7, 0x08, 0xbe, 0x98, 0xde, 0x76, 0xbe,
  0x7b, 0x4c, 0x94, 0x3d, 0x37, 0x4e, 0xd0, 0x3c, 0x38, 0xaa, 0xa3, 0xbd,
  0x8d, 0x8c, 0x0e, 0xbd, 0xc3, 0x6d, 0xb4, 0xbc, 0xac, 0x2e, 0xd3, 0xbd,
  0x7b, 0x2a, 0x3e, 0xbe, 0x19, 0x3f, 0x9e, 0x3d, 0xa7, 0x9d, 0xdd, 0x3d,
  0x90, 0xc2, 0x00, 0xbe, 0x6f, 0xfa, 0x12, 0xbd, 0xdb, 0x3f, 0x05, 0x3e,
  0xd1, 0xdf, 0x92, 0xbe, 0xd5, 0x62, 0xde, 0x3d, 0x34, 0xf0, 0x59, 0xbe,
  0xbd, 0x82, 0x88, 0xbd, 0x4c, 0xb5, 0xde, 0x3d, 0xad, 0x2c, 0x56, 0x3d,
  0x14, 0xf4, 0xc4, 0xbd, 0x45, 0x07, 0x3a, 0xbe, 0xb1, 0x54, 0x35, 0xbe,
  0x30, 0xad, 0xf7, 0xbd, 0xe7, 0xf2, 0x71, 0x3d, 0xb5, 0x4e, 0xaa, 0xbd,
  0xe4, 0x97, 0xd4, 0x3d, 0x99, 0x8a, 0x6e, 0xbe, 0x8c, 0x02, 0x55, 0x3e,
  0xa8, 0x92, 0x63, 0xbd, 0xc5, 0x87, 0xe4, 0xbe, 0xa2, 0x13, 0x8d, 0x3c,
  0x77, 0x9b, 0x2a, 0xbd, 0xcf, 0xf1, 0x41, 0x3d, 0xf8, 0xa0, 0x3c, 0x3c,
  0xfe, 0x78, 0x87, 0xbe, 0xcf, 0x15, 0xb9, 0x3d, 0xa4, 0xb0, 0xaf, 0xbd,
  0xf7, 0x54, 0x09, 0x3e, 0x77, 0xf1, 0x29, 0xbd, 0xfd, 0xec, 0x7e, 0x3b,
  0x28, 0x27, 0xf2, 0x3d, 0x15, 0x69, 0x2c, 0x3e, 0x52, 0xc6, 0x96, 0xbc,
  0x54, 0xc5, 0x34, 0xbe, 0xe4, 0xe0, 0xe8, 0x3c, 0x21, 0xe8, 0x6f, 0xbe,
  0xde, 0xef, 0x1a, 0xbe, 0x14, 0xf8, 0xcb, 0xbe, 0xa4, 0x03, 0x88, 0x3d,
  0x8a, 0x71, 0x86, 0xbe, 0x52, 0x8a, 0x9f, 0xbe, 0x68, 0xad, 0x18, 0xbe,
  0x0c, 0x27, 0x71, 0xbe, 0x3a, 0x07, 0x24, 0xbe, 0xc1, 0x8a, 0x68, 0x3e,
  0xab, 0x2a, 0xbe, 0x3d, 0xa8, 0xc0, 0xda, 0xbc, 0xa1, 0x0c, 0xe1, 0x3d,
  0xa0, 0x01, 0x6f, 0xbe, 0x07, 0x46, 0xe0, 0xbd, 0x90, 0xc7, 0xdb, 0xbd,
  0x81, 0x3a, 0xc2, 0xbd, 0x34, 0xf6, 0x0f, 0xbe, 0xd8, 0x6d, 0x83, 0xbd,
  0x6d, 0x3a, 0x21, 0xbe, 0xd9, 0x3b, 0x48, 0xbe, 0x75, 0xd4, 0xed, 0xbe,
  0x3b, 0x36, 0x38, 0xbe, 0xaf, 0x3f, 0xe6, 0xbd, 0x6c, 0xda, 0xde, 0xbd,
  0x50, 0x1b, 0x5d, 0xbe, 0x99, 0x08, 0xfb, 0xbc, 0x2c, 0xf2, 0xcc, 0xbd,
  0x8a, 0xb0, 0x0a, 0x3e, 0x6c, 0xff, 0x92, 0x3e, 0x86, 0xd1, 0x85, 0xbe,
  0xf2, 0xfb, 0x49, 0xbe, 0x56, 0x41, 0x0e, 0xbe, 0x9f, 0x42, 0x1b, 0xbe,
  0x2a, 0xd8, 0xb2, 0xbe, 0x64, 0x2d, 0x91, 0x3c, 0xaa, 0x8a, 0x9c, 0xbd,
  0xfe, 0xe0, 0x7b, 0xbe, 0xf9, 0x25, 0x61, 0xbe, 0x63, 0xef, 0xca, 0xbd,
  0x7b, 0xfd, 0xb0, 0x3d, 0x1e, 0xe1, 0x00, 0xbd, 0x75, 0x0f, 0xaa, 0xbe,
  0x08, 0xb3, 0x76, 0xbe, 0xc5, 0x4c, 0xf1, 0x3d, 0xac, 0x16, 0x1d, 0x3d,
  0x55, 0xd5, 0x12, 0xbe, 0x1d, 0x09, 0x17, 0xbe, 0x78, 0x23, 0x1f, 0xbd,
  0x94, 0xd2, 0x52, 0xbe, 0x68, 0x65, 0x0c, 0x3e, 0xdb, 0x0e, 0xb8, 0xbd,
  0xdd, 0x8b, 0xec, 0xbd, 0xb7, 0x96, 0xc5, 0xbe, 0x4a, 0x25, 0xcd, 0xbb,
  0xf8, 0x63, 0x4d, 0xbe, 0xb3, 0xed, 0xa5, 0xbd, 0xea, 0x83, 0xeb, 0xbc,
  0xe3, 0x98, 0x21, 0xbe, 0x80, 0x9a, 0x22, 0xbe, 0xc2, 0x72, 0x65, 0x3e,
  0x57, 0xe0, 0xdf, 0xbd, 0xa3, 0xd1, 0x28, 0xbe, 0x68, 0x8c, 0x98, 0xbe,
  0x96, 0x6c, 0xcc, 0xbd, 0x1c, 0x96, 0x1a, 0xbe, 0x7d, 0xc7, 0x86, 0xbe,
  0x1f, 0x2c, 0x2e, 0xbe, 0xd0, 0x7c, 0x10, 0xbe, 0x2a, 0x9b, 0x70, 0xbe,
  0xb0, 0x36, 0xbc, 0x3b, 0x95, 0x07, 0xa4, 0x3d, 0x04, 0xf4, 0x23, 0xbe,
  0x37, 0xbc, 0xb1, 0x3e, 0xc6, 0x67, 0x57, 0xbd, 0xe6, 0xce, 0x7f, 0xbc,
  0x25, 0x46, 0x1c, 0xbe, 0x85, 0x7d, 0xbf, 0x3e, 0x90, 0x32, 0x20, 0x3e,
  0xa9, 0x9a, 0xc3, 0x3e, 0xdd, 0x54, 0x96, 0xbc, 0x67, 0x02, 0x5d, 0x3c,
  0x7c, 0x92, 0xdc, 0xbd, 0x5e, 0x83, 0x98, 0x3d, 0x75, 0x42, 0x64, 0xbe,
  0x50, 0x54, 0x75, 0xbe, 0x6f, 0xc3, 0x2a, 0x3e, 0xf0, 0x8e, 0xc0, 0xbd,
  0xcb, 0x57, 0x3d, 0xbe, 0xe1, 0x76, 0xa7, 0x3e, 0x66, 0x47, 0x8d, 0xbd,
  0x09, 0x5b, 0x20, 0xbe, 0xb2, 0xe8, 0x48, 0xbe, 0xf2, 0x82, 0xaa, 0x3e,
  0x61, 0xf1, 0xd1, 0x3d, 0xf6, 0xe9, 0xbf, 0x3e, 0xeb, 0x8b, 0x9e, 0x3d,
  0x09, 0x84, 0xaa, 0x3e, 0x32, 0x56, 0x10, 0x3e, 0x81, 0x1f, 0xa6, 0x3c,
  0x68, 0x74, 0xc7, 0xbd, 0x16, 0xbd, 0xa5, 0xbd, 0x4c, 0xdb, 0x2d, 0x3e,
  0xed, 0xb3, 0xd0, 0xbd, 0x7b, 0x54, 0xd1, 0x3b, 0x56, 0x81, 0x97, 0xbe,
  0x85, 0x12, 0x94, 0xbe, 0x99, 0x71, 0x7a, 0x3c, 0xe7, 0x02, 0xbb, 0xbd,
  0x43, 0x8d, 0xf2, 0xbb, 0x7a, 0x3a, 0xcd, 0xbd, 0xc2, 0x2f, 0x9a, 0x3d,
  0xb6, 0xa4, 0xd2, 0xbd, 0xf2, 0xc7, 0xba, 0xbd, 0xc2, 0x8c, 0xcc, 0xbe,
  0x6d, 0x5e, 0xcf, 0xbd, 0xbc, 0x7f, 0x72, 0x3c, 0xe3, 0x54, 0x59, 0xbd,
  0x38, 0x73, 0x18, 0x3d, 0xc3, 0x3b, 0x9b, 0x3d, 0xbd, 0x43, 0xed, 0x3a,
  0x53, 0xb7, 0xc4, 0xbe, 0x12, 0x4e, 0xb5, 0xbd, 0xa0, 0x59, 0x92, 0x3e,
  0xd3, 0x1d, 0x18, 0x3e, 0x5e, 0xde, 0x8a, 0x3d, 0xb3, 0x8a, 0xe5, 0xbc,
  0x56, 0xe1, 0x1f, 0xbf, 0x71, 0xd8, 0xbd, 0x3b, 0xd7, 0x86, 0x19, 0xbf,
  0xba, 0xae, 0x6c, 0xbd, 0x93, 0x37, 0x21, 0x3e, 0x52, 0x8b, 0x7b, 0xbd,
  0x57, 0xa6, 0x50, 0xbd, 0xce, 0xb6, 0x9b, 0xbe, 0x75, 0x6c, 0x1c, 0xbe,
  0x39, 0x38, 0x82, 0x3e, 0x81, 0x2a, 0x6c, 0x3a, 0x97, 0x72, 0xe2, 0x3e,
  0x97, 0x84, 0x96, 0x3c, 0x7a, 0x48, 0x35, 0xbd, 0xb7, 0x12, 0xcc, 0x3d,
  0x7d, 0x8e, 0x99, 0xbe, 0xfa, 0x2b, 0x42, 0xbe, 0xd3, 0x11, 0xf7, 0xba,
  0x7c, 0xeb, 0x19, 0xbf, 0xac, 0xc2, 0x27, 0xbd, 0x73, 0xc1, 0x52, 0x3d,
  0x91, 0x87, 0xa1, 0xbe, 0x13, 0x15, 0x82, 0xbe, 0xf3, 0x25, 0x17, 0x3e,
  0xb1, 0x90, 0x34, 0xbe, 0x11, 0x76, 0x9b, 0x3e, 0xe7, 0x86, 0x36, 0xbc,
  0xf1, 0x69, 0x24, 0x3f, 0x95, 0x02, 0x66, 0x3d, 0xf3, 0xea, 0xf2, 0x3a,
  0x1d, 0x5b, 0x80, 0x3d, 0xe9, 0xd4, 0xbd, 0xbe, 0x64, 0x30, 0x86, 0xbe,
  0xe5, 0x89, 0x1f, 0x3d, 0x27, 0xaa, 0x40, 0xbf, 0x99, 0x96, 0xc7, 0xbe,
  0xaf, 0x9a, 0x26, 0x3e, 0x23, 0x71, 0xe3, 0x3d, 0x3b, 0xc0, 0xc3, 0xbe,
  0x21, 0xa0, 0x01, 0x3f, 0xdd, 0x57, 0x53, 0xbd, 0xbd, 0xe9, 0x8b, 0x3d,
  0x31, 0x32, 0xa4, 0xbd, 0xf5, 0xc9, 0xef, 0x3e, 0xeb, 0x26, 0x83, 0x3e,
  0xb8, 0x76, 0x55, 0xbd, 0xcc, 0x5c, 0xe1, 0xbd, 0x47, 0x92, 0x91, 0xbe,
  0x21, 0x08, 0xc6, 0xbe, 0x98, 0x82, 0xac, 0x3d, 0x50, 0x5d, 0x13, 0xbf,
  0x8d, 0x42, 0x87, 0xbe, 0x37, 0xb7, 0x75, 0x3e, 0x92, 0x13, 0xa9, 0x3e,
  0xea, 0x71, 0x00, 0xbe, 0x04, 0x7e, 0x7e, 0x3e, 0x6f, 0x50, 0xce, 0xbe,
  0x47, 0x22, 0xf2, 0x3e, 0xe3, 0xad, 0x92, 0xbe, 0x74, 0x40, 0x3d, 0x3d,
  0xb1, 0xa0, 0xc9, 0x3e, 0xd8, 0xda, 0xc8, 0x3d, 0xa0, 0x11, 0x45, 0xbe,
  0x71, 0xb3, 0x27, 0xbf, 0x29, 0x4e, 0x18, 0xbe, 0x3a, 0x16, 0xf1, 0x3c,
  0x09, 0x44, 0x1c, 0xbf, 0x74, 0xe4, 0x0a, 0xbd, 0x3e, 0x84, 0xbe, 0xbd,
  0xd6, 0xf3, 0xc9, 0x3d, 0x5a, 0xed, 0x52, 0x3d, 0x04, 0x95, 0xb3, 0xbe,
  0xac, 0x27, 0xd9, 0xbe, 0x6f, 0x5c, 0xd7, 0x3e, 0x18, 0x72, 0x1e, 0xbe,
  0x2b, 0x4c, 0x82, 0x3c, 0x6c, 0xdf, 0x1c, 0x3e, 0x4f, 0x48, 0x26, 0xbe,
  0x71, 0x66, 0x9f, 0xbd, 0x57, 0xb6, 0x07, 0xbf, 0x9b, 0xec, 0xff, 0xbe,
  0xaa, 0x6c, 0xee, 0x3c, 0x8d, 0xc9, 0xdd, 0xbe, 0x58, 0x29, 0x8b, 0x3d,
  0xe1, 0x0a, 0x00, 0xbd, 0x0f, 0x1d, 0xe9, 0x3c, 0xd2, 0x1d, 0x0b, 0xbe,
  0xa8, 0x12, 0x82, 0xbe, 0xb1, 0x44, 0x85, 0xbe, 0xf5, 0x70, 0xb3, 0x3e,
  0x38, 0x5d, 0x2a, 0x3e, 0xa4, 0xe2, 0x0e, 0x3d, 0x63, 0x2a, 0x73, 0x3e,
  0xf5, 0x85, 0xad, 0x3d, 0xde, 0xfe, 0xa3, 0xbd, 0x7b, 0x07, 0x48, 0xbd,
  0x96, 0x01, 0xa4, 0xbd, 0x3c, 0x27, 0xa0, 0x3b, 0x7d, 0x5a, 0xa2, 0xbd,
  0x70, 0x8c, 0x2c, 0xbe, 0xe8, 0x8d, 0x01, 0xbd, 0xd6, 0x53, 0x8e, 0x3c,
  0x92, 0x66, 0x6c, 0xbd, 0xd5, 0x8b, 0x4b, 0xbd, 0x3f, 0xd2, 0x43, 0xbe,
  0xf1, 0xb7, 0x37, 0xbb, 0x76, 0xf6, 0x16, 0x3e, 0xb1, 0xc3, 0xc4, 0xbd,
  0x1a, 0xb6, 0x95, 0xbe, 0x27, 0xcd, 0x93, 0x3e, 0x94, 0x28, 0x8f, 0x3d,
  0xa1, 0x85, 0xd8, 0x3d, 0xff, 0xbc, 0x42, 0x3e, 0xb8, 0xf9, 0x63, 0x3d,
  0x9b, 0x25, 0x37, 0x3d, 0x38, 0xd7, 0x60, 0x3e, 0xd2, 0x01, 0xa9, 0x3d,
  0x6b, 0x26, 0x1c, 0xbe, 0xe8, 0xcb, 0x90, 0xbc, 0xed, 0x6b, 0x6c, 0x3e,
  0xbe, 0xb2, 0x61, 0xbc, 0xae, 0x01, 0x93, 0xbe, 0x0b, 0x27, 0x12, 0xbe,
  0x47, 0x9f, 0xdd, 0xbd, 0x3d, 0xe2, 0xbe, 0xbd, 0xb8, 0xd2, 0x34, 0x3e,
  0xbc, 0x72, 0xcb, 0xbd, 0xfd, 0x42, 0x6a, 0x3e, 0x86, 0xe2, 0x05, 0xbf,
  0x8a, 0xb5, 0x35, 0x3d, 0x0e, 0x15, 0xde, 0xbd, 0xba, 0x52, 0xac, 0xbd,
  0xe8, 0xd3, 0x87, 0xbd, 0xbd, 0x35, 0x8c, 0x3c, 0x0f, 0xaf, 0x9f, 0xbd,
  0x56, 0x3c, 0x0d, 0xbd, 0x89, 0x79, 0x20, 0x3d, 0xb0, 0x02, 0xb8, 0xbd,
  0x5d, 0x4d, 0xdc, 0xbd, 0x51, 0x26, 0x07, 0xbe, 0x54, 0xda, 0x4e, 0xbe,
  0x81, 0xbf, 0xbb, 0x3d, 0x0a, 0x7b, 0xc6, 0xbd, 0x3e, 0x7b, 0xcd, 0x3e,
  0xad, 0xf0, 0xcb, 0xbe, 0x0f, 0x3a, 0x18, 0x3d, 0x03, 0x6b, 0x50, 0xbd,
  0x9f, 0x4f, 0xb8, 0xbd, 0xb1, 0x4a, 0x03, 0xbe, 0x93, 0x78, 0x7c, 0xbd,
  0x31, 0x36, 0xb3, 0x3c, 0xbb, 0xf6, 0x25, 0xbd, 0x95, 0xca, 0x3e, 0x3d,
  0x55, 0xe8, 0x59, 0xbe, 0x56, 0x83, 0x2c, 0xbd, 0xf2, 0xcb, 0x5d, 0xbd,
  0x9a, 0x58, 0xa6, 0x3d, 0xce, 0x54, 0x46, 0x3e, 0xf1, 0x97, 0x81, 0xbc,
  0x76, 0x92, 0x7f, 0x3e, 0xcc, 0x82, 0x1a, 0xbf, 0x33, 0xfd, 0xaf, 0x3c,
  0x55, 0x5b, 0x0d, 0xbd, 0xa6, 0x9b, 0x99, 0xbd, 0x4a, 0x6e, 0xc9, 0xbd,
  0xbe, 0x2d, 0x85, 0xbb, 0x16, 0xa4, 0x23, 0x3d, 0xba, 0x6b, 0xae, 0x3c,
  0x1b, 0x0d, 0x61, 0x3e, 0x24, 0xdc, 0x13, 0xbe, 0x0a, 0x80, 0x68, 0x3e,
  0xef, 0x16, 0xc5, 0x3a, 0xc1, 0x0a, 0xcb, 0xbe, 0x97, 0x1c, 0x8e, 0xbc,
  0xa7, 0x96, 0xf8, 0x3d, 0xfc, 0x13, 0xc8, 0x3e, 0xa1, 0x14, 0xdf, 0x3e,
  0xcb, 0x69, 0x34, 0x3d, 0xf1, 0x46, 0x25, 0xbc, 0xe0, 0x49, 0xcf, 0xbd,
  0x24, 0x98, 0x12, 0x3e, 0xf6, 0x5e, 0xa0, 0xbd, 0xa3, 0xec, 0xc8, 0x3c,
  0x84, 0xa8, 0x6f, 0x3e, 0x48, 0x2a, 0x91, 0x3d, 0x44, 0x82, 0xba, 0xbe,
  0xe0, 0x34, 0x96, 0x3e, 0x6b, 0xaa, 0x04, 0xbe, 0x4d, 0xb6, 0xca, 0xbe,
  0xe4, 0x5b, 0x6d, 0xbe, 0x53, 0x68, 0xdf, 0x3c, 0x19, 0x12, 0x58, 0x3e,
  0xe4, 0xf3, 0xe0, 0x3e, 0xd4, 0x6f, 0x09, 0x3d, 0x43, 0xaa, 0x46, 0x3e,
  0xc6, 0x02, 0xf1, 0xbd, 0xa8, 0x9b, 0x84, 0x3e, 0x03, 0x21, 0xf6, 0xbd,
  0x3a, 0x78, 0xd1, 0xba, 0xb2, 0x93, 0x45, 0x3e, 0x7f, 0xc2, 0x5f, 0xbd,
  0x3f, 0x4f, 0x08, 0xbe, 0x97, 0xac, 0x7a, 0x3e, 0x19, 0x65, 0x00, 0xbe,
  0x05, 0xcc, 0x4c, 0xbd, 0xab, 0xd5, 0xba, 0x3d, 0x5d, 0x8c, 0xe2, 0x3d,
  0xcc, 0x68, 0xea, 0x3d, 0x28, 0xb9, 0xb4, 0x3e, 0x64, 0xf9, 0x40, 0xbc,
  0x45, 0x12, 0xe3, 0x3d, 0x9b, 0x13, 0x35, 0xbd, 0xda, 0xcf, 0x74, 0xbd,
  0x95, 0x37, 0x99, 0xbd, 0x15, 0x7a, 0xc6, 0xbd, 0x82, 0x65, 0x39, 0x3e,
  0x8b, 0x7b, 0x61, 0xbd, 0x74, 0xdb, 0x80, 0xbc, 0x6a, 0x1e, 0x6f, 0x3e,
  0x5d, 0x51, 0x16, 0xbd, 0x67, 0xb5, 0x89, 0xbe, 0x98, 0x1b, 0xcc, 0x3d,
  0x6c, 0xf7, 0x3e, 0x3e, 0x17, 0x1c, 0xfb, 0x3d, 0xb1, 0xf4, 0x9f, 0x3e,
  0x41, 0xdc, 0x88, 0x3d, 0xd3, 0xfe, 0x76, 0x3e, 0x2a, 0x89, 0x24, 0x3c,
  0xbe, 0xe5, 0x8f, 0x3d, 0xf0, 0x4c, 0xa2, 0xbd, 0x6c, 0xbc, 0x9b, 0xbd,
  0x8a, 0xca, 0x84, 0x3e, 0x5c, 0x78, 0xc0, 0xbd, 0xc2, 0xcc, 0xc5, 0xbd,
  0x2b, 0xd0, 0xd1, 0x3d, 0x81, 0x2e, 0x1d, 0xbe, 0xf5, 0x9b, 0xd0, 0x3d,
  0xc0, 0x19, 0x52, 0xbb, 0x5e, 0xb8, 0x4b, 0xbe, 0xe2, 0x74, 0x48, 0x3e,
  0x9c, 0x4f, 0x4c, 0x3e, 0xcb, 0x78, 0x2b, 0x3d, 0x08, 0xd6, 0x0b, 0x3d,
  0xd4, 0xd3, 0x49, 0x3d, 0x3f, 0x95, 0x6d, 0xbb, 0x25, 0xfd, 0xeb, 0x3d,
  0x10, 0xab, 0x13, 0xbe, 0x92, 0xe2, 0x8c, 0x3e, 0x19, 0x95, 0x00, 0xbe,
  0x07, 0x0e, 0x1d, 0xbe, 0x51, 0xa4, 0x13, 0xbe, 0x9c, 0x72, 0x0f, 0xbf,
  0x84, 0xe4, 0x11, 0x3e, 0x35, 0xc2, 0x3a, 0x3e, 0x99, 0xf1, 0xd8, 0xbd,
  0xa2, 0x1d, 0x7f, 0xbe, 0xe7, 0x46, 0x84, 0xbe, 0x9c, 0x57, 0x13, 0x3d,
  0x89, 0x21, 0x72, 0xbe, 0x72, 0x01, 0xf8, 0x3c, 0x4f, 0x77, 0x21, 0x3d,
  0xc8, 0x4d, 0x01, 0xbe, 0xdd, 0xfd, 0x09, 0xbd, 0x0b, 0xae, 0x0c, 0xbf,
  0x8a, 0xd0, 0xe7, 0xbe, 0xae, 0xf5, 0x0c, 0x3d, 0xc8, 0xf2, 0x61, 0xbe,
  0x8d, 0x18, 0xe3, 0xbe, 0xa3, 0x23, 0xc6, 0x3d, 0x23, 0x38, 0x55, 0x3e,
  0x25, 0xd4, 0xc1, 0xbd, 0x00, 0x1f, 0x3f, 0x3e, 0x10, 0xc7, 0x39, 0x3b,
  0x5b, 0xc7, 0x12, 0xbc, 0xbc, 0x14, 0x9b, 0xbe, 0x50, 0x51, 0x1d, 0x3d,
  0x37, 0xa5, 0xba, 0x3d, 0x2e, 0x81, 0x98, 0xbe, 0xa7, 0xdd, 0x17, 0xbd,
  0x57, 0xf3, 0x1d, 0xbe, 0x1b, 0x12, 0x7d, 0xbe, 0x96, 0xb3, 0x49, 0xbe,
  0x05, 0x69, 0x88, 0xbe, 0x2d, 0xdc, 0x92, 0xbe, 0x05, 0x80, 0x60, 0xbe,
  0xea, 0xb6, 0xfc, 0x3d, 0x1c, 0x0f, 0xf2, 0xbd, 0xf9, 0x0c, 0x50, 0xbe,
  0xf9, 0x5d, 0x91, 0xbe, 0xfd, 0xb3, 0x38, 0xbc, 0xd5, 0x6a, 0x8e, 0xbe,
  0xc5, 0xd7, 0x6d, 0x3d, 0xb5, 0x61, 0x9b, 0xbd, 0xaa, 0xd7, 0x82, 0xbd,
  0xbe, 0x7d, 0xc0, 0xbd, 0xbb, 0x87, 0x90, 0xbd, 0x44, 0xb4, 0xb0, 0xbd,
  0xbe, 0xa3, 0x9f, 0xbc, 0x79, 0xbe, 0xbc, 0xbe, 0xcc, 0x75, 0xc6, 0xbe,
  0x90, 0x6e, 0x54, 0xbe, 0x86, 0x36, 0x39, 0x3d, 0xbc, 0x70, 0xef, 0xbd,
  0xb0, 0xa4, 0x39, 0xbd, 0x82, 0x77, 0x98, 0xbe, 0xab, 0x86, 0x02, 0xbc,
  0xd5, 0x14, 0x04, 0xbf, 0x77, 0xdf, 0x0e, 0x3d, 0xe3, 0x0f, 0x92, 0x3d,
  0x56, 0x68, 0x7e, 0xbe, 0x25, 0xe7, 0x13, 0xbe, 0x4d, 0x54, 0x6b, 0xbe,
  0x1f, 0x97, 0x4e, 0xbe, 0xdd, 0xf1, 0x34, 0xbe, 0x6a, 0xad, 0x46, 0x3e,
  0x30, 0xc2, 0x23, 0x3b, 0x8e, 0x58, 0x48, 0xbe, 0xb4, 0xdc, 0x10, 0x3e,
  0x88, 0xb0, 0x7d, 0x3e, 0x32, 0xa4, 0xfa, 0x3c, 0xbb, 0xc7, 0xa1, 0x3e,
  0xf4, 0x7d, 0xdd, 0x3c, 0x5f, 0x79, 0x97, 0xbc, 0xda, 0x8c, 0x13, 0xbd,
  0x56, 0xed, 0x9a, 0x3b, 0x40, 0xc7, 0x36, 0xbd, 0x4f, 0x04, 0xff, 0xbd,
  0xc0, 0x6b, 0x58, 0x3d, 0x78, 0x85, 0x07, 0xbe, 0x17, 0x31, 0x06, 0xbd,
  0xf8, 0xf7, 0x53, 0xbd, 0xe2, 0xfd, 0x04, 0xbd, 0x13, 0x3e, 0x96, 0xbd,
  0x70, 0x62, 0xc6, 0x3d, 0xef, 0x7e, 0x2a, 0xbe, 0xa4, 0x38, 0x2a, 0xbe,
  0x3f, 0xd1, 0xa3, 0xbc, 0x1f, 0xd2, 0x10, 0xbe, 0x7b, 0x6b, 0x6d, 0xbd,
  0xed, 0x19, 0x90, 0xbd, 0xfc, 0x48, 0xd3, 0xbd, 0x26, 0xa3, 0x04, 0x3d,
  0xdc, 0x07, 0x46, 0xbe, 0x79, 0x79, 0x9a, 0x3d, 0xd7, 0x9c, 0x44, 0xbd,
  0xb6, 0x51, 0x3c, 0xbd, 0x48, 0xc3, 0xc6, 0x3d, 0x20, 0xa3, 0xd9, 0x3d,
  0x12, 0xbe, 0xe7, 0xbd, 0x1f, 0x71, 0x98, 0x3d, 0xd3, 0x72, 0x1a, 0xbe,
  0xce, 0x9f, 0xc0, 0x3d, 0x4c, 0xf4, 0x86, 0xbd, 0x9d, 0x36, 0xa5, 0xbe,
  0xe2, 0x7e, 0x27, 0x3e, 0x27, 0xbd, 0x44, 0xbc, 0x45, 0x3f, 0x43, 0xbe,
  0x8d, 0xe7, 0x87, 0xbe, 0x7e, 0xd2, 0xed, 0xbd, 0xe3, 0xb1, 0xd0, 0xbd,
  0x30, 0x2b, 0xeb, 0x3c, 0x83, 0x5e, 0x12, 0xbe, 0xd9, 0xc4, 0x75, 0x3d,
  0xeb, 0xb6, 0xfe, 0xbd, 0x82, 0xbb, 0x1e, 0x3c, 0x3d, 0x01, 0x58, 0x3d,
  0x68, 0x85, 0xf9, 0xbc, 0xf3, 0x1a, 0x53, 0x3e, 0x43, 0x6f, 0x07, 0x3d,
  0x2c, 0xf7, 0x40, 0xbe, 0xbc, 0xa9, 0x57, 0xbe, 0x87, 0xf7, 0xeb, 0x3c,
  0x86, 0x15, 0x68, 0xbe, 0x37, 0x49, 0xca, 0x3d, 0x7b, 0xd3, 0xb8, 0xbc,
  0xc0, 0xb1, 0xa8, 0x3d, 0x60, 0xdf, 0x27, 0x3e, 0x61, 0xed, 0x45, 0xbe,
  0xe0, 0x92, 0x44, 0x3e, 0xa4, 0x03, 0x4d, 0x3d, 0x5a, 0x87, 0x82, 0x3d,
  0x98, 0xdd, 0xa2, 0x3d, 0xdc, 0xad, 0x10, 0xbc, 0xae, 0x5e, 0x33, 0xbe,
  0x29, 0x07, 0xea, 0x3d, 0x38, 0x0d, 0x4c, 0xbe, 0xc1, 0x0d, 0x0e, 0xbe,
  0x0c, 0xd8, 0xd1, 0x3d, 0x2d, 0x26, 0x05, 0x3d, 0x4b, 0x98, 0x62, 0xbe,
  0x59, 0x6e, 0x37, 0xbe, 0x1c, 0xff, 0xa2, 0x3d, 0x6f, 0xe3, 0x1c, 0x3d,
  0x51, 0x3f, 0x46, 0xbd, 0x6e, 0x9d, 0xb9, 0xbd, 0xea, 0x5e, 0x2b, 0x3a,
  0x07, 0x04, 0x09, 0x3e, 0xf0, 0x15, 0x30, 0x3e, 0x6d, 0x07, 0x14, 0xbe,
  0xa5, 0x67, 0xea, 0x3d, 0x88, 0x2b, 0xe2, 0xbd, 0x9a, 0x4e, 0x73, 0xbe,
  0x7a, 0x13, 0x98, 0xbd, 0x84, 0xf3, 0x29, 0xbc, 0x53, 0x84, 0xca, 0x3c,
  0x62, 0xa0, 0x11, 0x3c, 0x8a, 0xbf, 0x82, 0xbe, 0x4b, 0x01, 0x33, 0x3e,
  0x26, 0x2c, 0x2d, 0xbe, 0x27, 0x5b, 0xb2, 0xbd, 0x80, 0x62, 0x39, 0xbd,
  0xf1, 0x78, 0x01, 0xbe, 0x2b, 0x26, 0x12, 0x3d, 0x1f, 0x82, 0x73, 0xbe,
  0xc4, 0x2c, 0xe8, 0xbd, 0x62, 0xd2, 0xb5, 0x3d, 0x91, 0x43, 0xa4, 0xbd,
  0xf3, 0x93, 0x81, 0xbe, 0x0f, 0xcf, 0xf7, 0xbd, 0x02, 0x01, 0xfc, 0x3d,
  0x3a, 0xbe, 0xdb, 0xbd, 0x58, 0xe6, 0x25, 0x3d, 0x74, 0x46, 0x83, 0xbe,
  0x3c, 0xc6, 0x25, 0x3d, 0xf9, 0x89, 0x56, 0x3c, 0x10, 0x30, 0x95, 0x3d,
  0x51, 0x09, 0xdc, 0xbd, 0xfd, 0x7b, 0x20, 0x3d, 0x24, 0x1e, 0x89, 0xbd,
  0xde, 0x89, 0x16, 0xbe, 0x0d, 0xcb, 0x9d, 0xbe, 0x99, 0x6c, 0x03, 0xbe,
  0x97, 0x99, 0x54, 0xbe, 0x77, 0xb2, 0xeb, 0xbd, 0x03, 0x65, 0xcc, 0x3c,
  0xee, 0xbf, 0x04, 0xbe, 0x7b, 0x65, 0xb3, 0x3d, 0x03, 0xe9, 0xf5, 0xbd,
  0x02, 0x7a, 0x75, 0xbe, 0x24, 0x54, 0xa5, 0xbd, 0xdb, 0x79, 0x39, 0xbe,
  0x73, 0x84, 0xa2, 0xbd, 0x62, 0xfd, 0xff, 0xff, 0x10, 0x00, 0x00, 0x00,
  0x07, 0x00, 0x00, 0x00, 0x14, 0x00, 0x00, 0x00, 0x2c, 0x00, 0x00, 0x00,
  0x02, 0x00, 0x00, 0x00, 0x10, 0x00, 0x00, 0x00, 0x70, 0x00, 0x00, 0x00,
  0x17, 0x00, 0x00, 0x00, 0x73, 0x65, 0x71, 0x75, 0x65, 0x6e, 0x74, 0x69,
  0x61, 0x6c, 0x2f, 0x64, 0x65, 0x6e, 0x73, 0x65, 0x2f, 0x4d, 0x61, 0x74,
  0x4d, 0x75, 0x6c, 0x00, 0xcc, 0xfc, 0xff, 0xff, 0xd6, 0xfd, 0xff, 0xff,
  0x04, 0x00, 0x00, 0x00, 0x08, 0x00, 0x00, 0x00, 0xff, 0xff, 0xff, 0xff,
  0x70, 0x00, 0x00, 0x00, 0x00, 0x00, 0x0e, 0x00, 0x18, 0x00, 0x08, 0x00,
  0x07, 0x00, 0x0c, 0x00, 0x10, 0x00, 0x14, 0x00, 0x0e, 0x00, 0x00, 0x00,
  0x00, 0x00, 0x00, 0x02, 0x10, 0x00, 0x00, 0x00, 0x06, 0x00, 0x00, 0x00,
  0x10, 0x00, 0x00, 0x00, 0x2c, 0x00, 0x00, 0x00, 0x01, 0x00, 0x00, 0x00,
  0x02, 0x00, 0x00, 0x00, 0x18, 0x00, 0x00, 0x00, 0x73, 0x65, 0x71, 0x75,
  0x65, 0x6e, 0x74, 0x69, 0x61, 0x6c, 0x2f, 0x66, 0x6c, 0x61, 0x74, 0x74,
  0x65, 0x6e, 0x2f, 0x43, 0x6f, 0x6e, 0x73, 0x74, 0x00, 0x00, 0x00, 0x00,
  0x34, 0xfd, 0xff, 0xff, 0x3e, 0xfe, 0xff, 0xff, 0x04, 0x00, 0x00, 0x00,
  0x10, 0x00, 0x00, 0x00, 0xac, 0xe5, 0x95, 0xbe, 0xcd, 0x1d, 0x8b, 0xc0,
  0xb4, 0x95, 0xcf, 0x3f, 0x78, 0x63, 0x54, 0x3f, 0x26, 0xfe, 0xff, 0xff,
  0x10, 0x00, 0x00, 0x00, 0x05, 0x00, 0x00, 0x00, 0x10, 0x00, 0x00, 0x00,
  0x44, 0x00, 0x00, 0x00, 0x01, 0x00, 0x00, 0x00, 0x04, 0x00, 0x00, 0x00,
  0x32, 0x00, 0x00, 0x00, 0x73, 0x65, 0x71, 0x75, 0x65, 0x6e, 0x74, 0x69,
  0x61, 0x6c, 0x2f, 0x64, 0x65, 0x6e, 0x73, 0x65, 0x5f, 0x31, 0x2f, 0x42,
  0x69, 0x61, 0x73, 0x41, 0x64, 0x64, 0x2f, 0x52, 0x65, 0x61, 0x64, 0x56,
  0x61, 0x72, 0x69, 0x61, 0x62, 0x6c, 0x65, 0x4f, 0x70, 0x2f, 0x72, 0x65,
  0x73, 0x6f, 0x75, 0x72, 0x63, 0x65, 0x00, 0x00, 0xa8, 0xfd, 0xff, 0xff,
  0xb2, 0xfe, 0xff, 0xff, 0x04, 0x00, 0x00, 0x00, 0x40, 0x00, 0x00, 0x00,
  0xdb, 0xe3, 0x20, 0xbe, 0x0b, 0xd2, 0x8e, 0xbe, 0xea, 0x2b, 0xc9, 0x3f,
  0x8b, 0xb1, 0xf5, 0x3f, 0x62, 0xfc, 0xad, 0x3f, 0xf4, 0xc7, 0xfe, 0xbe,
  0x32, 0x56, 0x8f, 0x3e, 0xa5, 0x98, 0xa5, 0xbe, 0x94, 0x2a, 0xa8, 0xbf,
  0x2d, 0x02, 0x08, 0x3f, 0x84, 0xb0, 0x95, 0xbe, 0x38, 0x1a, 0x64, 0xbf,
  0x43, 0x78, 0x36, 0xbf, 0x40, 0x7a, 0x1e, 0xbf, 0x39, 0x42, 0xd3, 0xbe,
  0x2a, 0xf4, 0x9a, 0xbe, 0xca, 0xfe, 0xff, 0xff, 0x10, 0x00, 0x00, 0x00,
  0x04, 0x00, 0x00, 0x00, 0x10, 0x00, 0x00, 0x00, 0x44, 0x00, 0x00, 0x00,
  0x01, 0x00, 0x00, 0x00, 0x10, 0x00, 0x00, 0x00, 0x30, 0x00, 0x00, 0x00,
  0x73, 0x65, 0x71, 0x75, 0x65, 0x6e, 0x74, 0x69, 0x61, 0x6c, 0x2f, 0x64,
  0x65, 0x6e, 0x73, 0x65, 0x2f, 0x42, 0x69, 0x61, 0x73, 0x41, 0x64, 0x64,
  0x2f, 0x52, 0x65, 0x61, 0x64, 0x56, 0x61, 0x72, 0x69, 0x61, 0x62, 0x6c,
  0x65, 0x4f, 0x70, 0x2f, 0x72, 0x65, 0x73, 0x6f, 0x75, 0x72, 0x63, 0x65,
  0x00, 0x00, 0x00, 0x00, 0x4c, 0xfe, 0xff, 0xff, 0x56, 0xff, 0xff, 0xff,
  0x04, 0x00, 0x00, 0x00, 0x40, 0x00, 0x00, 0x00, 0x9e, 0x11, 0x26, 0xbf,
  0x77, 0x9d, 0x7d, 0xbf, 0xe1, 0x5b, 0x56, 0xbf, 0x1f, 0x62, 0xc3, 0x3d,
  0x4d, 0xd7, 0x55, 0xbf, 0xe9, 0x5a, 0xb9, 0x3d, 0xb6, 0xd0, 0x0e, 0x40,
  0xb7, 0xf5, 0xd1, 0xbe, 0x6d, 0xb8, 0x86, 0x3f, 0x21, 0x5a, 0x46, 0xbf,
  0xb7, 0x3f, 0x43, 0x3f, 0xf3, 0x37, 0x8b, 0xbf, 0x0f, 0x76, 0x1e, 0xbf,
  0x7f, 0xe0, 0xd9, 0xbf, 0x0d, 0x1e, 0xbc, 0x3e, 0x22, 0x84, 0xad, 0xbf,
  0x6e, 0xff, 0xff, 0xff, 0x10, 0x00, 0x00, 0x00, 0x03, 0x00, 0x00, 0x00,
  0x10, 0x00, 0x00, 0x00, 0x48, 0x00, 0x00, 0x00, 0x01, 0x00, 0x00, 0x00,
  0x10, 0x00, 0x00, 0x00, 0x33, 0x00, 0x00, 0x00, 0x73, 0x65, 0x71, 0x75,
  0x65, 0x6e, 0x74, 0x69, 0x61, 0x6c, 0x2f, 0x63, 0x6f, 0x6e, 0x76, 0x32,
  0x64, 0x5f, 0x31, 0x2f, 0x42, 0x69, 0x61, 0x73, 0x41, 0x64, 0x64, 0x2f,
  0x52, 0x65, 0x61, 0x64, 0x56, 0x61, 0x72, 0x69, 0x61, 0x62, 0x6c, 0x65,
  0x4f, 0x70, 0x2f, 0x72, 0x65, 0x73, 0x6f, 0x75, 0x72, 0x63, 0x65, 0x00,
  0x04, 0x00, 0x06, 0x00, 0x04, 0x00, 0x00, 0x00, 0x00, 0x00, 0x06, 0x00,
  0x08, 0x00, 0x04, 0x00, 0x06, 0x00, 0x00, 0x00, 0x04, 0x00, 0x00, 0x00,
  0x20, 0x00, 0x00, 0x00, 0xf6, 0xf0, 0x43, 0x3f, 0x18, 0x38, 0x33, 0xc0,
  0x08, 0xd0, 0x07, 0xc0, 0xd5, 0x85, 0x78, 0xbf, 0xc5, 0x1b, 0xca, 0xbe,
  0x26, 0x48, 0x3a, 0xc0, 0xe8, 0x41, 0x51, 0xc0, 0x27, 0x67, 0x8f, 0xbf,
  0x00, 0x00, 0x0e, 0x00, 0x14, 0x00, 0x04, 0x00, 0x00, 0x00, 0x08, 0x00,
  0x0c, 0x00, 0x10, 0x00, 0x0e, 0x00, 0x00, 0x00, 0x10, 0x00, 0x00, 0x00,
  0x02, 0x00, 0x00, 0x00, 0x10, 0x00, 0x00, 0x00, 0x44, 0x00, 0x00, 0x00,
  0x01, 0x00, 0x00, 0x00, 0x08, 0x00, 0x00, 0x00, 0x31, 0x00, 0x00, 0x00,
  0x73, 0x65, 0x71, 0x75, 0x65, 0x6e, 0x74, 0x69, 0x61, 0x6c, 0x2f, 0x63,
  0x6f, 0x6e, 0x76, 0x32, 0x64, 0x2f, 0x42, 0x69, 0x61, 0x73, 0x41, 0x64,
  0x64, 0x2f, 0x52, 0x65, 0x61, 0x64, 0x56, 0x61, 0x72, 0x69, 0x61, 0x62,
  0x6c, 0x65, 0x4f, 0x70, 0x2f, 0x72, 0x65, 0x73, 0x6f, 0x75, 0x72, 0x63,
  0x65, 0x00, 0x00, 0x00, 0x90, 0xff, 0xff, 0xff, 0x14, 0x00, 0x18, 0x00,
  0x04, 0x00, 0x00, 0x00, 0x08, 0x00, 0x0c, 0x00, 0x10, 0x00, 0x00, 0x00,
  0x00, 0x00, 0x14, 0x00, 0x14, 0x00, 0x00, 0x00, 0x14, 0x00, 0x00, 0x00,
  0x01, 0x00, 0x00, 0x00, 0x20, 0x00, 0x00, 0x00, 0x44, 0x00, 0x00, 0x00,
  0x2c, 0x00, 0x00, 0x00, 0x04, 0x00, 0x00, 0x00, 0x01, 0x00, 0x00, 0x00,
  0x40, 0x00, 0x00, 0x00, 0x03, 0x00, 0x00, 0x00, 0x01, 0x00, 0x00, 0x00,
  0x0c, 0x00, 0x00, 0x00, 0x63, 0x6f, 0x6e, 0x76, 0x32, 0x64, 0x5f, 0x69,
  0x6e, 0x70, 0x75, 0x74, 0x00, 0x00, 0x00, 0x00, 0x04, 0x00, 0x00, 0x00,
  0xff, 0xff, 0xff, 0xff, 0x40, 0x00, 0x00, 0x00, 0x03, 0x00, 0x00, 0x00,
  0x01, 0x00, 0x00, 0x00, 0xfc, 0xff, 0xff, 0xff, 0x04, 0x00, 0x04, 0x00,
  0x04, 0x00, 0x00, 0x00

};


unsigned int model_tflite_len = 13120;// Fill the int in `src/model.cc` here