#include "magic_wand_model_data.h"


// We need to keep the data array aligned on some architectures.

#ifdef __has_attribute

#define HAVE_ATTRIBUTE(x) __has_attribute(x)

#else

#define HAVE_ATTRIBUTE(x) 0

#endif

#if HAVE_ATTRIBUTE(aligned) || (defined(__GNUC__) && !defined(__clang__))

#define DATA_ALIGN_ATTRIBUTE __attribute__((aligned(4)))

#else

#define DATA_ALIGN_ATTRIBUTE

#endif


const unsigned char g_magic_wand_model_data[] DATA_ALIGN_ATTRIBUTE = {

  // Paste the data of the char array in `src/model.cc` here
  
  0x1c, 0x00, 0x00, 0x00, 0x54, 0x46, 0x4c, 0x33, 0x14, 0x00, 0x20, 0x00,
  0x04, 0x00, 0x08, 0x00, 0x0c, 0x00, 0x10, 0x00, 0x14, 0x00, 0x00, 0x00,
  0x18, 0x00, 0x1c, 0x00, 0x14, 0x00, 0x00, 0x00, 0x03, 0x00, 0x00, 0x00,
  0x18, 0x00, 0x00, 0x00, 0x2c, 0x00, 0x00, 0x00, 0xd8, 0x00, 0x00, 0x00,
  0x2c, 0x00, 0x00, 0x00, 0x80, 0x00, 0x00, 0x00, 0x78, 0x00, 0x00, 0x00,
  0x05, 0x00, 0x00, 0x00, 0x28, 0x07, 0x00, 0x00, 0x44, 0x06, 0x00, 0x00,
  0xbc, 0x03, 0x00, 0x00, 0xf8, 0x02, 0x00, 0x00, 0xac, 0x01, 0x00, 0x00,
  0x01, 0x00, 0x00, 0x00, 0xd0, 0x00, 0x00, 0x00, 0x14, 0x00, 0x00, 0x00,
  0x98, 0x32, 0x00, 0x00, 0x94, 0x32, 0x00, 0x00, 0x8c, 0x31, 0x00, 0x00,
  0xd8, 0x30, 0x00, 0x00, 0x30, 0x30, 0x00, 0x00, 0xbc, 0x2f, 0x00, 0x00,
  0x50, 0x2f, 0x00, 0x00, 0x00, 0x13, 0x00, 0x00, 0xec, 0x11, 0x00, 0x00,
  0x10, 0x10, 0x00, 0x00, 0xb4, 0x07, 0x00, 0x00, 0x6c, 0x32, 0x00, 0x00,
  0x68, 0x32, 0x00, 0x00, 0x64, 0x32, 0x00, 0x00, 0x60, 0x32, 0x00, 0x00,
  0x5c, 0x32, 0x00, 0x00, 0x58, 0x32, 0x00, 0x00, 0x54, 0x32, 0x00, 0x00,
  0x50, 0x32, 0x00, 0x00, 0x3c, 0x00, 0x00, 0x00, 0x00, 0x00, 0x00, 0x00,
  0x01, 0x00, 0x00, 0x00, 0x0c, 0x00, 0x00, 0x00, 0x08, 0x00, 0x0c, 0x00,
  0x04, 0x00, 0x08, 0x00, 0x08, 0x00, 0x00, 0x00, 0x08, 0x00, 0x00, 0x00,
  0x13, 0x00, 0x00, 0x00, 0x13, 0x00, 0x00, 0x00, 0x6d, 0x69, 0x6e, 0x5f,
  0x72, 0x75, 0x6e, 0x74, 0x69, 0x6d, 0x65, 0x5f, 0x76, 0x65, 0x72, 0x73,
  0x69, 0x6f, 0x6e, 0x00, 0xfa, 0xce, 0xff, 0xff, 0x04, 0x00, 0x00, 0x00,
  0x10, 0x00, 0x00, 0x00, 0x31, 0x2e, 0x35, 0x2e, 0x30, 0x00, 0x00, 0x00,
  0x00, 0x00, 0x00, 0x00, 0x00, 0x00, 0x00, 0x00, 0x0f, 0x00, 0x00, 0x00,
  0x4d, 0x4c, 0x49, 0x52, 0x20, 0x43, 0x6f, 0x6e, 0x76, 0x65, 0x72, 0x74,
  0x65, 0x64, 0x2e, 0x00, 0x00, 0x00, 0x0e, 0x00, 0x18, 0x00, 0x04, 0x00,
  0x08, 0x00, 0x0c, 0x00, 0x10, 0x00, 0x14, 0x00, 0x0e, 0x00, 0x00, 0x00,
  0x14, 0x00, 0x00, 0x00, 0x5c, 0x00, 0x00, 0x00, 0x60, 0x00, 0x00, 0x00,
  0x64, 0x00, 0x00, 0x00, 0x84, 0x00, 0x00, 0x00, 0x12, 0x00, 0x00, 0x00,
  0x58, 0x31, 0x00, 0x00, 0xe8, 0x30, 0x00, 0x00, 0x44, 0x30, 0x00, 0x00,
  0x9c, 0x2f, 0x00, 0x00, 0xf4, 0x2e, 0x00, 0x00, 0x94, 0x2e, 0x00, 0x00,
  0x2c, 0x2e, 0x00, 0x00, 0xd8, 0x11, 0x00, 0x00, 0xbc, 0x10, 0x00, 0x00,
  0xe0, 0x0e, 0x00, 0x00, 0x0c, 0x06, 0x00, 0x00, 0x28, 0x05, 0x00, 0x00,
  0xe8, 0x03, 0x00, 0x00, 0x3c, 0x03, 0x00, 0x00, 0x98, 0x02, 0x00, 0x00,
  0xd4, 0x01, 0x00, 0x00, 0x10, 0x01, 0x00, 0x00, 0x84, 0x00, 0x00, 0x00,
  0x01, 0x00, 0x00, 0x00, 0x00, 0x00, 0x00, 0x00, 0x01, 0x00, 0x00, 0x00,
  0x11, 0x00, 0x00, 0x00, 0x08, 0x00, 0x00, 0x00, 0x74, 0x05, 0x00, 0x00,
  0x94, 0x04, 0x00, 0x00, 0x78, 0x03, 0x00, 0x00, 0xbc, 0x02, 0x00, 0x00,
  0x30, 0x02, 0x00, 0x00, 0x50, 0x01, 0x00, 0x00, 0xa8, 0x00, 0x00, 0x00,
  0x10, 0x00, 0x00, 0x00, 0x04, 0x00, 0x00, 0x00, 0x6d, 0x61, 0x69, 0x6e,
  0x00, 0x00, 0x00, 0x00, 0x7a, 0xff, 0xff, 0xff, 0x00, 0x00, 0x00, 0x09,
  0x04, 0x00, 0x00, 0x00, 0x1c, 0x00, 0x00, 0x00, 0x10, 0x00, 0x00, 0x00,
  0x04, 0x00, 0x00, 0x00, 0xf6, 0xcf, 0xff, 0xff, 0x00, 0x00, 0x80, 0x3f,
  0x01, 0x00, 0x00, 0x00, 0x11, 0x00, 0x00, 0x00, 0x01, 0x00, 0x00, 0x00,
  0x10, 0x00, 0x00, 0x00, 0xa0, 0xfa, 0xff, 0xff, 0x19, 0x00, 0x00, 0x00,
  0x00, 0x00, 0x00, 0x19, 0x01, 0x00, 0x00, 0x00, 0x84, 0xcf, 0xff, 0xff,
  0x14, 0x00, 0x00, 0x00, 0x12, 0x00, 0x00, 0x00, 0x18, 0x00, 0x00, 0x00,
  0x30, 0x00, 0x00, 0x00, 0x20, 0x00, 0x00, 0x00, 0x02, 0x00, 0x00, 0x00,
  0x01, 0x00, 0x00, 0x00, 0x03, 0x00, 0x00, 0x00, 0x08, 0x00, 0x00, 0x00,
  0x49, 0x64, 0x65, 0x6e, 0x74, 0x69, 0x74, 0x79, 0x00, 0x00, 0x00, 0x00,
  0x02, 0x00, 0x00, 0x00, 0xff, 0xff, 0xff, 0xff, 0x03, 0x00, 0x00, 0x00,
  0x68, 0xd0, 0xff, 0xff, 0x00, 0x00, 0x0e, 0x00, 0x18, 0x00, 0x08, 0x00,
  0x0c, 0x00, 0x10, 0x00, 0x07, 0x00, 0x14, 0x00, 0x0e, 0x00, 0x00, 0x00,
  0x00, 0x00, 0x00, 0x08, 0x03, 0x00, 0x00, 0x00, 0x18, 0x00, 0x00, 0x00,
  0x0c, 0x00, 0x00, 0x00, 0x04, 0x00, 0x00, 0x00, 0x84, 0xcf, 0xff, 0xff,
  0x01, 0x00, 0x00, 0x00, 0x10, 0x00, 0x00, 0x00, 0x03, 0x00, 0x00, 0x00,
  0x0f, 0x00, 0x00, 0x00, 0x07, 0x00, 0x00, 0x00, 0x04, 0x00, 0x00, 0x00,
  0x0c, 0xd0, 0xff, 0xff, 0x14, 0x00, 0x00, 0x00, 0x11, 0x00, 0x00, 0x00,
  0x18, 0x00, 0x00, 0x00, 0x5c, 0x00, 0x00, 0x00, 0x4c, 0x00, 0x00, 0x00,
  0x02, 0x00, 0x00, 0x00, 0x01, 0x00, 0x00, 0x00, 0x03, 0x00, 0x00, 0x00,
  0x34, 0x00, 0x00, 0x00, 0x73, 0x65, 0x71, 0x75, 0x65, 0x6e, 0x74, 0x69,
  0x61, 0x6c, 0x2f, 0x64, 0x65, 0x6e, 0x73, 0x65, 0x5f, 0x31, 0x2f, 0x4d,
  0x61, 0x74, 0x4d, 0x75, 0x6c, 0x3b, 0x73, 0x65, 0x71, 0x75, 0x65, 0x6e,
  0x74, 0x69, 0x61, 0x6c, 0x2f, 0x64, 0x65, 0x6e, 0x73, 0x65, 0x5f, 0x31,
  0x2f, 0x42, 0x69, 0x61, 0x73, 0x41, 0x64, 0x64, 0x00, 0x00, 0x00, 0x00,
  0x02, 0x00, 0x00, 0x00, 0xff, 0xff, 0xff, 0xff, 0x03, 0x00, 0x00, 0x00,
  0x0c, 0xd0, 0xff, 0xff, 0xda, 0xfc, 0xff, 0xff, 0x00, 0x00, 0x00, 0x08,
  0x03, 0x00, 0x00, 0x00, 0x24, 0x00, 0x00, 0x00, 0x18, 0x00, 0x00, 0x00,
  0x0c, 0x00, 0x00, 0x00, 0x00, 0x00, 0x06, 0x00, 0x08, 0x00, 0x07, 0x00,
  0x06, 0x00, 0x00, 0x00, 0x00, 0x00, 0x00, 0x01, 0x01, 0x00, 0x00, 0x00,
  0x0f, 0x00, 0x00, 0x00, 0x03, 0x00, 0x00, 0x00, 0x0e, 0x00, 0x00, 0x00,
  0x06, 0x00, 0x00, 0x00, 0x03, 0x00, 0x00, 0x00, 0xe8, 0xfb, 0xff, 0xff,
  0x09, 0x00, 0x00, 0x00, 0x00, 0x00, 0x00, 0x09, 0x01, 0x00, 0x00, 0x00,
  0xcc, 0xd0, 0xff, 0xff, 0x14, 0x00, 0x00, 0x00, 0x10, 0x00, 0x00, 0x00,
  0x18, 0x00, 0x00, 0x00, 0x6c, 0x00, 0x00, 0x00, 0x5c, 0x00, 0x00, 0x00,
  0x02, 0x00, 0x00, 0x00, 0x01, 0x00, 0x00, 0x00, 0x10, 0x00, 0x00, 0x00,
  0x46, 0x00, 0x00, 0x00, 0x73, 0x65, 0x71, 0x75, 0x65, 0x6e, 0x74, 0x69,
  0x61, 0x6c, 0x2f, 0x64, 0x65, 0x6e, 0x73, 0x65, 0x2f, 0x4d, 0x61, 0x74,
  0x4d, 0x75, 0x6c, 0x3b, 0x73, 0x65, 0x71, 0x75, 0x65, 0x6e, 0x74, 0x69,
  0x61, 0x6c, 0x2f, 0x64, 0x65, 0x6e, 0x73, 0x65, 0x2f, 0x52, 0x65, 0x6c,
  0x75, 0x3b, 0x73, 0x65, 0x71, 0x75, 0x65, 0x6e, 0x74, 0x69, 0x61, 0x6c,
  0x2f, 0x64, 0x65, 0x6e, 0x73, 0x65, 0x2f, 0x42, 0x69, 0x61, 0x73, 0x41,
  0x64, 0x64, 0x00, 0x00, 0x02, 0x00, 0x00, 0x00, 0xff, 0xff, 0xff, 0xff,
  0x10, 0x00, 0x00, 0x00, 0xec, 0xd1, 0xff, 0xff, 0x00, 0x00, 0x0a, 0x00,
  0x10, 0x00, 0x04, 0x00, 0x08, 0x00, 0x0c, 0x00, 0x0a, 0x00, 0x00, 0x00,
  0x02, 0x00, 0x00, 0x00, 0x10, 0x00, 0x00, 0x00, 0x04, 0x00, 0x00, 0x00,
  0x01, 0x00, 0x00, 0x00, 0x0e, 0x00, 0x00, 0x00, 0x02, 0x00, 0x00, 0x00,
  0x0d, 0x00, 0x00, 0x00, 0x05, 0x00, 0x00, 0x00, 0xa8, 0xfc, 0xff, 0xff,
  0x16, 0x00, 0x00, 0x00, 0x00, 0x00, 0x00, 0x16, 0x01, 0x00, 0x00, 0x00,
  0x8c, 0xd1, 0xff, 0xff, 0x14, 0x00, 0x00, 0x00, 0x0f, 0x00, 0x00, 0x00,
  0x18, 0x00, 0x00, 0x00, 0x40, 0x00, 0x00, 0x00, 0x30, 0x00, 0x00, 0x00,
  0x02, 0x00, 0x00, 0x00, 0x01, 0x00, 0x00, 0x00, 0x70, 0x00, 0x00, 0x00,
  0x1a, 0x00, 0x00, 0x00, 0x73, 0x65, 0x71, 0x75, 0x65, 0x6e, 0x74, 0x69,
  0x61, 0x6c, 0x2f, 0x66, 0x6c, 0x61, 0x74, 0x74, 0x65, 0x6e, 0x2f, 0x52,
  0x65, 0x73, 0x68, 0x61, 0x70, 0x65, 0x00, 0x00, 0x02, 0x00, 0x00, 0x00,
  0xff, 0xff, 0xff, 0xff, 0x70, 0x00, 0x00, 0x00, 0x70, 0xd1, 0xff, 0xff,
  0x3e, 0xfe, 0xff, 0xff, 0x00, 0x00, 0x00, 0x05, 0x01, 0x00, 0x00, 0x00,
  0x38, 0x00, 0x00, 0x00, 0x2c, 0x00, 0x00, 0x00, 0x14, 0x00, 0x00, 0x00,
  0x00, 0x00, 0x0e, 0x00, 0x14, 0x00, 0x00, 0x00, 0x10, 0x00, 0x0c, 0x00,
  0x08, 0x00, 0x04, 0x00, 0x0e, 0x00, 0x00, 0x00, 0x03, 0x00, 0x00, 0x00,
  0x01, 0x00, 0x00, 0x00, 0x03, 0x00, 0x00, 0x00, 0x01, 0x00, 0x00, 0x00,
  0x01, 0x00, 0x00, 0x00, 0x0d, 0x00, 0x00, 0x00, 0x01, 0x00, 0x00, 0x00,
  0x0c, 0x00, 0x00, 0x00, 0x2c, 0xd2, 0xff, 0xff, 0x14, 0x00, 0x00, 0x00,
  0x0e, 0x00, 0x00, 0x00, 0x20, 0x00, 0x00, 0x00, 0x58, 0x00, 0x00, 0x00,
  0x40, 0x00, 0x00, 0x00, 0x04, 0x00, 0x00, 0x00, 0x01, 0x00, 0x00, 0x00,
  0x07, 0x00, 0x00, 0x00, 0x01, 0x00, 0x00, 0x00, 0x10, 0x00, 0x00, 0x00,
  0x22, 0x00, 0x00, 0x00, 0x73, 0x65, 0x71, 0x75, 0x65, 0x6e, 0x74, 0x69,
  0x61, 0x6c, 0x2f, 0x6d, 0x61, 0x78, 0x5f, 0x70, 0x6f, 0x6f, 0x6c, 0x69,
  0x6e, 0x67, 0x32, 0x64, 0x5f, 0x31, 0x2f, 0x4d, 0x61, 0x78, 0x50, 0x6f,
  0x6f, 0x6c, 0x00, 0x00, 0x04, 0x00, 0x00, 0x00, 0xff, 0xff, 0xff, 0xff,
  0x07, 0x00, 0x00, 0x00, 0x01, 0x00, 0x00, 0x00, 0x10, 0x00, 0x00, 0x00,
  0x28, 0xd2, 0xff, 0xff, 0x1a, 0xfe, 0xff, 0xff, 0x00, 0x00, 0x00, 0x01,
  0x24, 0x00, 0x00, 0x00, 0x18, 0x00, 0x00, 0x00, 0x04, 0x00, 0x00, 0x00,
  0x0c, 0xfe, 0xff, 0xff, 0x01, 0x00, 0x00, 0x00, 0x01, 0x00, 0x00, 0x00,
  0x00, 0x00, 0x00, 0x01, 0x01, 0x00, 0x00, 0x00, 0x0c, 0x00, 0x00, 0x00,
  0x03, 0x00, 0x00, 0x00, 0x0b, 0x00, 0x00, 0x00, 0x09, 0x00, 0x00, 0x00,
  0x02, 0x00, 0x00, 0x00, 0xd4, 0xd2, 0xff, 0xff, 0x14, 0x00, 0x00, 0x00,
  0x0d, 0x00, 0x00, 0x00, 0x20, 0x00, 0x00, 0x00, 0xb8, 0x00, 0x00, 0x00,
  0xa0, 0x00, 0x00, 0x00, 0x04, 0x00, 0x00, 0x00, 0x01, 0x00, 0x00, 0x00,
  0x15, 0x00, 0x00, 0x00, 0x01, 0x00, 0x00, 0x00, 0x10, 0x00, 0x00, 0x00,
  0x83, 0x00, 0x00, 0x00, 0x73, 0x65, 0x71, 0x75, 0x65, 0x6e, 0x74, 0x69,
  0x61, 0x6c, 0x2f, 0x63, 0x6f, 0x6e, 0x76, 0x32, 0x64, 0x5f, 0x31, 0x2f,
  0x52, 0x65, 0x6c, 0x75, 0x3b, 0x73, 0x65, 0x71, 0x75, 0x65, 0x6e, 0x74,
  0x69, 0x61, 0x6c, 0x2f, 0x63, 0x6f, 0x6e, 0x76, 0x32, 0x64, 0x5f, 0x31,
  0x2f, 0x42, 0x69, 0x61, 0x73, 0x41, 0x64, 0x64, 0x3b, 0x73, 0x65, 0x71,
  0x75, 0x65, 0x6e, 0x74, 0x69, 0x61, 0x6c, 0x2f, 0x63, 0x6f, 0x6e, 0x76,
  0x32, 0x64, 0x5f, 0x31, 0x2f, 0x43, 0x6f, 0x6e, 0x76, 0x32, 0x44, 0x3b,
  0x73, 0x65, 0x71, 0x75, 0x65, 0x6e, 0x74, 0x69, 0x61, 0x6c, 0x2f, 0x63,
  0x6f, 0x6e, 0x76, 0x32, 0x64, 0x5f, 0x31, 0x2f, 0x42, 0x69, 0x61, 0x73,
  0x41, 0x64, 0x64, 0x2f, 0x52, 0x65, 0x61, 0x64, 0x56, 0x61, 0x72, 0x69,
  0x61, 0x62, 0x6c, 0x65, 0x4f, 0x70, 0x2f, 0x72, 0x65, 0x73, 0x6f, 0x75,
  0x72, 0x63, 0x65, 0x00, 0x04, 0x00, 0x00, 0x00, 0xff, 0xff, 0xff, 0xff,
  0x15, 0x00, 0x00, 0x00, 0x01, 0x00, 0x00, 0x00, 0x10, 0x00, 0x00, 0x00,
  0x40, 0xd4, 0xff, 0xff, 0x00, 0x00, 0x0e, 0x00, 0x1a, 0x00, 0x08, 0x00,
  0x0c, 0x00, 0x10, 0x00, 0x07, 0x00, 0x14, 0x00, 0x0e, 0x00, 0x00, 0x00,
  0x00, 0x00, 0x00, 0x05, 0x01, 0x00, 0x00, 0x00, 0x3c, 0x00, 0x00, 0x00,
  0x30, 0x00, 0x00, 0x00, 0x14, 0x00, 0x00, 0x00, 0x00, 0x00, 0x0e, 0x00,
  0x18, 0x00, 0x17, 0x00, 0x10, 0x00, 0x0c, 0x00, 0x08, 0x00, 0x04, 0x00,
  0x0e, 0x00, 0x00, 0x00, 0x03, 0x00, 0x00, 0x00, 0x03, 0x00, 0x00, 0x00,
  0x03, 0x00, 0x00, 0x00, 0x03, 0x00, 0x00, 0x00, 0x00, 0x00, 0x00, 0x01,
  0x01, 0x00, 0x00, 0x00, 0x0b, 0x00, 0x00, 0x00, 0x01, 0x00, 0x00, 0x00,
  0x0a, 0x00, 0x00, 0x00, 0x2c, 0xff, 0xff, 0xff, 0x11, 0x00, 0x00, 0x00,
  0x00, 0x00, 0x00, 0x11, 0x01, 0x00, 0x00, 0x00, 0x10, 0xd4, 0xff, 0xff,
  0x14, 0x00, 0x00, 0x00, 0x0c, 0x00, 0x00, 0x00, 0x20, 0x00, 0x00, 0x00,
  0x58, 0x00, 0x00, 0x00, 0x40, 0x00, 0x00, 0x00, 0x04, 0x00, 0x00, 0x00,
  0x01, 0x00, 0x00, 0x00, 0x15, 0x00, 0x00, 0x00, 0x01, 0x00, 0x00, 0x00,
  0x08, 0x00, 0x00, 0x00, 0x20, 0x00, 0x00, 0x00, 0x73, 0x65, 0x71, 0x75,
  0x65, 0x6e, 0x74, 0x69, 0x61, 0x6c, 0x2f, 0x6d, 0x61, 0x78, 0x5f, 0x70,
  0x6f, 0x6f, 0x6c, 0x69, 0x6e, 0x67, 0x32, 0x64, 0x2f, 0x4d, 0x61, 0x78,
  0x50, 0x6f, 0x6f, 0x6c, 0x00, 0x00, 0x00, 0x00, 0x04, 0x00, 0x00, 0x00,
  0xff, 0xff, 0xff, 0xff, 0x15, 0x00, 0x00, 0x00, 0x01, 0x00, 0x00, 0x00,
  0x08, 0x00, 0x00, 0x00, 0x1c, 0xd5, 0xff, 0xff, 0x00, 0x00, 0x0e, 0x00,
  0x14, 0x00, 0x00, 0x00, 0x08, 0x00, 0x0c, 0x00, 0x07, 0x00, 0x10, 0x00,
  0x0e, 0x00, 0x00, 0x00, 0x00, 0x00, 0x00, 0x01, 0x30, 0x00, 0x00, 0x00,
  0x24, 0x00, 0x00, 0x00, 0x10, 0x00, 0x00, 0x00, 0x0c, 0x00, 0x10, 0x00,
  0x00, 0x00, 0x04, 0x00, 0x08, 0x00, 0x0f, 0x00, 0x0c, 0x00, 0x00, 0x00,
  0x01, 0x00, 0x00, 0x00, 0x01, 0x00, 0x00, 0x00, 0x00, 0x00, 0x00, 0x01,
  0x01, 0x00, 0x00, 0x00, 0x0a, 0x00, 0x00, 0x00, 0x03, 0x00, 0x00, 0x00,
  0x00, 0x00, 0x00, 0x00, 0x08, 0x00, 0x00, 0x00, 0x01, 0x00, 0x00, 0x00,
  0x0c, 0x00, 0x10, 0x00, 0x0b, 0x00, 0x00, 0x00, 0x0c, 0x00, 0x04, 0x00,
  0x0c, 0x00, 0x00, 0x00, 0x03, 0x00, 0x00, 0x00, 0x00, 0x00, 0x00, 0x03,
  0x01, 0x00, 0x00, 0x00, 0xf0, 0xd4, 0xff, 0xff, 0x14, 0x00, 0x00, 0x00,
  0x0b, 0x00, 0x00, 0x00, 0x20, 0x00, 0x00, 0x00, 0xb0, 0x00, 0x00, 0x00,
  0x98, 0x00, 0x00, 0x00, 0x04, 0x00, 0x00, 0x00, 0x01, 0x00, 0x00, 0x00,
  0x40, 0x00, 0x00, 0x00, 0x03, 0x00, 0x00, 0x00, 0x08, 0x00, 0x00, 0x00,
  0x7b, 0x00, 0x00, 0x00, 0x73, 0x65, 0x71, 0x75, 0x65, 0x6e, 0x74, 0x69,
  0x61, 0x6c, 0x2f, 0x63, 0x6f, 0x6e, 0x76, 0x32, 0x64, 0x2f, 0x52, 0x65,
  0x6c, 0x75, 0x3b, 0x73, 0x65, 0x71, 0x75, 0x65, 0x6e, 0x74, 0x69, 0x61,
  0x6c, 0x2f, 0x63, 0x6f, 0x6e, 0x76, 0x32, 0x64, 0x2f, 0x42, 0x69, 0x61,
  0x73, 0x41, 0x64, 0x64, 0x3b, 0x73, 0x65, 0x71, 0x75, 0x65, 0x6e, 0x74,
  0x69, 0x61, 0x6c, 0x2f, 0x63, 0x6f, 0x6e, 0x76, 0x32, 0x64, 0x2f, 0x43,
  0x6f, 0x6e, 0x76, 0x32, 0x44, 0x3b, 0x73, 0x65, 0x71, 0x75, 0x65, 0x6e,
  0x74, 0x69, 0x61, 0x6c, 0x2f, 0x63, 0x6f, 0x6e, 0x76, 0x32, 0x64, 0x2f,
  0x42, 0x69, 0x61, 0x73, 0x41, 0x64, 0x64, 0x2f, 0x52, 0x65, 0x61, 0x64,
  0x56, 0x61, 0x72, 0x69, 0x61, 0x62, 0x6c, 0x65, 0x4f, 0x70, 0x2f, 0x72,
  0x65, 0x73, 0x6f, 0x75, 0x72, 0x63, 0x65, 0x00, 0x04, 0x00, 0x00, 0x00,
  0xff, 0xff, 0xff, 0xff, 0x40, 0x00, 0x00, 0x00, 0x03, 0x00, 0x00, 0x00,
  0x08, 0x00, 0x00, 0x00, 0x44, 0xd5, 0xff, 0xff, 0x4e, 0xd6, 0xff, 0xff,
  0x04, 0x00, 0x00, 0x00, 0x00, 0x08, 0x00, 0x00, 0xa0, 0x54, 0x57, 0x3e,
  0x28, 0xb3, 0xb9, 0x3e, 0x2c, 0x2c, 0x53, 0xbe, 0xe6, 0x67, 0xdc, 0xbd,
  0x25, 0x86, 0xbe, 0xbd, 0x44, 0x54, 0xf9, 0x3e, 0x31, 0xfd, 0x55, 0xbe,
  0xb3, 0x33, 0x6f, 0x3c, 0xc3, 0xaa, 0xf0, 0xbc, 0xc2, 0xbf, 0x48, 0x3e,
  0xd9, 0xa5, 0x11, 0x3c, 0xb0, 0x1d, 0x83, 0xbe, 0x96, 0x78, 0x3e, 0x3e,
  0xda, 0x36, 0x31, 0xbe, 0xa3, 0xcc, 0x8a, 0xbd, 0x53, 0x52, 0x98, 0xbd,
  0x79, 0x76, 0x3e, 0xbe, 0x7b, 0xd4, 0x6e, 0x3e, 0x1a, 0xba, 0x8f, 0xbc,
  0xf3, 0x72, 0x17, 0xbe, 0x92, 0xec, 0x85, 0x3e, 0x08, 0x64, 0x71, 0xbe,
  0x1f, 0x59, 0xed, 0xbd, 0x8f, 0x03, 0x88, 0xbe, 0xbe, 0xcc, 0xaa, 0xbe,
  0xcd, 0x16, 0x1c, 0x3e, 0xf9, 0x3a, 0xca, 0xbc, 0x04, 0xee, 0xf0, 0xbc,
  0x6b, 0x2d, 0x46, 0x3e, 0x2a, 0x61, 0xa2, 0xbe, 0xa6, 0x8d, 0x8d, 0x3e,
  0x94, 0x9f, 0x46, 0xbe, 0x4a, 0x06, 0x13, 0x3e, 0xe4, 0x62, 0xad, 0xbd,
  0x22, 0x56, 0xc0, 0xbe, 0x7b, 0x40, 0x96, 0x3e, 0x1f, 0x95, 0x9e, 0xbd,
  0xb4, 0xac, 0x78, 0x3e, 0xd0, 0xbd, 0x98, 0xbe, 0xb9, 0x32, 0x96, 0x3c,
  0x74, 0x87, 0x12, 0xbe, 0xfc, 0x63, 0xbd, 0x3e, 0x58, 0x22, 0x8a, 0xbe,
  0x2e, 0x6c, 0x89, 0xbe, 0xa6, 0x3d, 0x96, 0xbd, 0x80, 0x30, 0xc5, 0xbd,
  0x4f, 0x8f, 0x3b, 0xbe, 0x67, 0xed, 0xa8, 0xbd, 0x1c, 0x0e, 0x33, 0xbd,
  0x6e, 0x93, 0x5a, 0x3e, 0x7f, 0x44, 0x82, 0xbd, 0x2a, 0x7e, 0xaf, 0xbe,
  0x7a, 0x23, 0xa4, 0x3d, 0xbe, 0xbc, 0x2a, 0xbe, 0xad, 0x0b, 0xfb, 0x3d,
  0x56, 0xae, 0x0b, 0xbd, 0xe2, 0xb4, 0xe8, 0xbd, 0x0d, 0xa4, 0x2b, 0x3e,
  0xca, 0xb3, 0x4a, 0x3d, 0xbb, 0xdc, 0xf9, 0xbd, 0x45, 0xf6, 0x57, 0xbc,
  0xe7, 0xd8, 0x6a, 0xbe, 0x9d, 0x20, 0xfe, 0x3e, 0x27, 0xf9, 0xd1, 0xbd,
  0xf7, 0x65, 0xa4, 0xbe, 0xc4, 0xb9, 0x1c, 0xbf, 0x5d, 0xd0, 0x73, 0xbd,
  0xc3, 0x9c, 0x5a, 0xbe, 0x5a, 0x5c, 0xdb, 0xbe, 0x7f, 0x68, 0xdd, 0xbe,
  0xb6, 0x39, 0x2c, 0xbd, 0x8e, 0x3a, 0xd9, 0xbc, 0xed, 0x48, 0x4b, 0xbd,
  0xb1, 0x94, 0xb4, 0x3d, 0xd3, 0x96, 0x95, 0x3e, 0x2d, 0xfa, 0xa5, 0xbf,
  0xe3, 0xf1, 0x76, 0xbf, 0xa1, 0xa1, 0xb6, 0xbe, 0xa2, 0xd8, 0x10, 0x3e,
  0xa3, 0x19, 0x63, 0x3e, 0xe8, 0xbf, 0xc1, 0xbd, 0x35, 0x7c, 0x0c, 0x3f,
  0x34, 0xc3, 0x95, 0x3c, 0x7d, 0x33, 0x9f, 0x3d, 0xa8, 0xf9, 0xed, 0x3d,
  0x5f, 0x87, 0x4e, 0x3d, 0x14, 0xf6, 0xc7, 0x3c, 0x78, 0x66, 0xcb, 0xbe,
  0x87, 0x58, 0x20, 0xbe, 0xa5, 0x6c, 0xb2, 0xbe, 0x6d, 0x07, 0x06, 0xbd,
  0x98, 0x3f, 0x28, 0x3e, 0xeb, 0x7d, 0xe1, 0x3e, 0x6b, 0x96, 0x1f, 0xbd,
  0xc7, 0xa4, 0xf3, 0xbc, 0xf1, 0x2d, 0xd5, 0xbe, 0x7a, 0x44, 0xf4, 0xbd,
  0x75, 0xcd, 0xa7, 0xbe, 0xd3, 0x6d, 0x39, 0xbe, 0x24, 0x05, 0x19, 0xbe,
  0x64, 0x73, 0xc6, 0xbe, 0xdc, 0xc4, 0xc7, 0xbd, 0xe7, 0x37, 0x04, 0xbe,
  0x6f, 0xb6, 0x27, 0xbe, 0x84, 0xc4, 0xbb, 0x3d, 0x2e, 0xfc, 0x5f, 0xbd,
  0xad, 0x18, 0x02, 0xbd, 0xbc, 0x86, 0x98, 0x3d, 0xdc, 0x26, 0x6a, 0x3d,
  0xcc, 0xec, 0x41, 0x3e, 0xae, 0x8b, 0xea, 0xbd, 0xef, 0xeb, 0xaf, 0xbd,
  0xaa, 0x2b, 0xca, 0xbc, 0xbe, 0x22, 0xf1, 0xbe, 0x7a, 0x5a, 0x8c, 0x3e,
  0x12, 0x4f, 0xd8, 0xbd, 0x1b, 0x34, 0x86, 0xbe, 0x75, 0xee, 0xb2, 0x3b,
  0x4b, 0x94, 0x4c, 0x3e, 0x19, 0x98, 0x4b, 0xbd, 0xba, 0xdf, 0x66, 0xbd,
  0x20, 0x1d, 0x7d, 0xbe, 0x13, 0x73, 0x05, 0xbb, 0x76, 0x4c, 0x0c, 0x3d,
  0x80, 0x30, 0x97, 0x3d, 0x54, 0x80, 0x9d, 0xbc, 0x83, 0x40, 0x00, 0x3e,
  0xbc, 0x94, 0x34, 0x3e, 0xc5, 0x54, 0x39, 0xbe, 0x42, 0x66, 0x31, 0xbf,
  0xad, 0xbc, 0xc5, 0xbd, 0x79, 0xc6, 0xc1, 0xbe, 0x70, 0x84, 0xd1, 0xbe,
  0x84, 0x7e, 0xbb, 0xbe, 0x62, 0x27, 0xa5, 0xbd, 0x63, 0xd7, 0x85, 0xbd,
  0xea, 0x05, 0xbc, 0xbd, 0x92, 0x3e, 0x91, 0xbe, 0x2c, 0xe1, 0x27, 0xbd,
  0xc5, 0xf4, 0x72, 0xbe, 0xa2, 0xca, 0x88, 0xbe, 0xa3, 0x15, 0x58, 0xbe,
  0x94, 0x27, 0x96, 0x3c, 0xa4, 0x38, 0x96, 0xbd, 0x28, 0xae, 0x82, 0x3d,
  0xce, 0x53, 0x36, 0x3f, 0x84, 0x67, 0x66, 0x3e, 0x62, 0xe8, 0x0b, 0xbe,
  0x5d, 0x8b, 0xf9, 0x3d, 0x5f, 0xf8, 0xb9, 0xbd, 0xf5, 0x4e, 0xb7, 0x3e,
  0xd7, 0xcb, 0x35, 0xbc, 0xbf, 0x3b, 0xfe, 0xbc, 0x69, 0xb7, 0x96, 0xbe,
  0x08, 0xb2, 0x74, 0xbc, 0x73, 0x99, 0x26, 0x3e, 0x15, 0x7d, 0x81, 0xbd,
  0x26, 0x28, 0xd3, 0xbc, 0x24, 0x72, 0xcd, 0xbc, 0x1c, 0x86, 0xe4, 0xbb,
  0x9d, 0xae, 0x8a, 0xbc, 0xee, 0xab, 0xee, 0x3b, 0xfc, 0xab, 0x39, 0xbf,
  0x1b, 0xcb, 0x50, 0x3e, 0x34, 0x64, 0x9b, 0xbd, 0x78, 0x25, 0x7f, 0x3d,
  0x03, 0x3d, 0xe2, 0xbe, 0x75, 0x0c, 0xde, 0x3d, 0xf6, 0x1e, 0x01, 0x3e,
  0xb5, 0xcd, 0xeb, 0x3c, 0x93, 0x0c, 0x86, 0xbd, 0xa1, 0xd7, 0x1a, 0xbd,
  0x7b, 0x4e, 0x91, 0xbd, 0x85, 0x6b, 0xf6, 0x3d, 0x8e, 0xd2, 0x70, 0xbe,
  0xfe, 0xc5, 0x85, 0x3c, 0xfc, 0x46, 0x8d, 0x3c, 0x98, 0x39, 0xc4, 0x3e,
  0xb8, 0x4c, 0x89, 0x3c, 0xfc, 0x45, 0x14, 0xbf, 0x45, 0x98, 0x9e, 0x3d,
  0x47, 0x20, 0xf2, 0xbd, 0xaa, 0xe4, 0x35, 0xbe, 0x4f, 0x56, 0xf8, 0xbd,
  0x03, 0x00, 0xf5, 0xbd, 0xb4, 0x2e, 0x10, 0x3e, 0x26, 0x11, 0xe9, 0x3c,
  0x3a, 0x21, 0xe7, 0xbe, 0x34, 0x4d, 0x4d, 0x3e, 0xea, 0x9e, 0x3b, 0xbe,
  0x48, 0xed, 0xd7, 0x3e, 0x38, 0x07, 0x35, 0xbe, 0xf8, 0xcb, 0xd7, 0xbd,
  0xd7, 0xac, 0x3d, 0x3e, 0x70, 0xf0, 0xf2, 0x3d, 0xfb, 0x61, 0x20, 0xbc,
  0xc6, 0x6e, 0x20, 0x3e, 0x8a, 0xc4, 0x2c, 0xbe, 0xb5, 0xc4, 0xaa, 0x3b,
  0x67, 0x49, 0x9c, 0xbe, 0x80, 0x11, 0x1a, 0xbe, 0x03, 0xea, 0x39, 0x3f,
  0x8d, 0x81, 0x55, 0xbe, 0x8b, 0x33, 0xa0, 0xbd, 0x31, 0x14, 0x41, 0x3e,
  0xba, 0xe2, 0x87, 0xbe, 0x6f, 0x88, 0x6d, 0x3e, 0x21, 0x52, 0x9b, 0xbe,
  0xfe, 0x89, 0x25, 0xbe, 0xa4, 0xe2, 0x37, 0x3e, 0x5b, 0xba, 0xe7, 0xbd,
  0x4f, 0xc7, 0x25, 0x3e, 0xb0, 0x96, 0x8e, 0x3e, 0x86, 0xd4, 0x68, 0x3d,
  0x4f, 0xf8, 0x81, 0xbe, 0xea, 0xa1, 0xe4, 0xbe, 0x9f, 0x78, 0x75, 0xbe,
  0xa8, 0x5b, 0x94, 0x3d, 0x33, 0xae, 0x55, 0x3d, 0xce, 0x14, 0x86, 0x3e,
  0x48, 0xab, 0x3c, 0x3e, 0x23, 0x9b, 0x96, 0xbd, 0x39, 0xed, 0x1b, 0xbe,
  0x3f, 0x9e, 0x84, 0xbe, 0x14, 0x38, 0x82, 0xbe, 0x72, 0xc1, 0x68, 0xbe,
  0xd0, 0xa8, 0x73, 0xbd, 0x26, 0xa9, 0x07, 0xbd, 0xa3, 0x52, 0x83, 0xbe,
  0xfc, 0x1a, 0x89, 0xbe, 0x72, 0x7e, 0xc2, 0xbc, 0x0b, 0xf3, 0x46, 0xbe,
  0x17, 0x73, 0x02, 0xbe, 0x6a, 0x88, 0x41, 0xbe, 0x61, 0x4a, 0x86, 0xbd,
  0xcb, 0x46, 0x72, 0x3e, 0x55, 0x1f, 0x10, 0x3d, 0x87, 0x11, 0x1a, 0xbe,
  0xc8, 0x50, 0x0c, 0xbd, 0x75, 0xb4, 0x94, 0xbd, 0xfb, 0x47, 0xe5, 0xbc,
  0x5b, 0x2a, 0xb4, 0x3e, 0x57, 0x94, 0xd6, 0xbd, 0x90, 0x2e, 0x7c, 0x3e,
  0x2c, 0x7a, 0x54, 0xbd, 0xe8, 0x33, 0x20, 0xbd, 0x52, 0xaa, 0x68, 0x3c,
  0x56, 0xb3, 0x96, 0xbd, 0xe4, 0x74, 0x88, 0xbd, 0xbd, 0x97, 0x9f, 0x3e,
  0xdb, 0xc1, 0x7d, 0xbd, 0x46, 0x60, 0x9b, 0x3e, 0x2f, 0x8c, 0x60, 0xbb,
  0xe6, 0x03, 0x01, 0x3f, 0x80, 0x32, 0x60, 0x3d, 0xed, 0x68, 0x8e, 0x3c,
  0x68, 0xc5, 0x33, 0xbe, 0xa9, 0x44, 0x3a, 0x3e, 0xd6, 0x48, 0x59, 0xbd,
  0xda, 0x08, 0x92, 0xbd, 0xc9, 0x5a, 0xfd, 0xbd, 0xde, 0x8a, 0x00, 0x3d,
  0xbd, 0x8e, 0x5b, 0xbe, 0xc2, 0x93, 0x3c, 0xbe, 0x72, 0x30, 0x37, 0xbe,
  0xf7, 0x95, 0x8d, 0x3e, 0xe0, 0x95, 0xeb, 0x3e, 0xba, 0x9a, 0x18, 0x3e,
  0x6f, 0x3a, 0x2a, 0xbe, 0x48, 0x3a, 0xdd, 0xbd, 0x61, 0x20, 0x70, 0xbe,
  0xbd, 0x35, 0x6d, 0xbe, 0xee, 0x61, 0x1b, 0xbe, 0x83, 0x25, 0x18, 0xbe,
  0xd2, 0x1d, 0x2c, 0x3d, 0x78, 0x00, 0x52, 0x3d, 0x7b, 0xce, 0xb2, 0x3e,
  0x06, 0xa2, 0x9d, 0xbd, 0x85, 0x8e, 0xb6, 0xbe, 0x5f, 0x0d, 0x04, 0xbe,
  0x64, 0x5a, 0x13, 0xbe, 0xe9, 0x62, 0x1b, 0x3e, 0xa3, 0x67, 0x1f, 0xbe,
  0x6f, 0xbd, 0xe8, 0xbb, 0x3e, 0x13, 0xac, 0x3e, 0x24, 0xeb, 0x81, 0xbc,
  0xcc, 0x34, 0x84, 0xbe, 0xf4, 0xff, 0x08, 0x3d, 0x91, 0x14, 0x46, 0xbe,
  0x68, 0x58, 0x9f, 0xbd, 0xa6, 0xd9, 0x1b, 0xbd, 0x32, 0xb4, 0x9a, 0xbe,
  0x0a, 0xb4, 0xa4, 0xbd, 0x4e, 0x26, 0x47, 0xbe, 0x22, 0x78, 0xaf, 0x3e,
  0x95, 0x59, 0xda, 0xbd, 0x21, 0xfb, 0xc6, 0xbd, 0x05, 0x8d, 0xfb, 0xbd,
  0x8b, 0xdf, 0x1f, 0xbe, 0x5b, 0x41, 0xc4, 0xbd, 0x9c, 0xf9, 0x99, 0xbd,
  0x75, 0x40, 0xc5, 0xbd, 0xee, 0xd8, 0x32, 0xbd, 0xf9, 0xb8, 0x68, 0xbd,
  0xbc, 0x62, 0xaf, 0x3c, 0x42, 0x6b, 0x54, 0x3e, 0x28, 0xfc, 0x51, 0xbd,
  0x5e, 0xa8, 0x51, 0x3f, 0xa2, 0xd4, 0x34, 0xbe, 0x98, 0xb2, 0xa2, 0x3d,
  0x2a, 0xfb, 0xe1, 0xbd, 0xfa, 0x00, 0x99, 0x3c, 0x03, 0x04, 0xb4, 0x3c,
  0x45, 0x6a, 0xb6, 0xbd, 0x7a, 0xb4, 0x05, 0xbe, 0xe9, 0x87, 0x58, 0xbe,
  0x1e, 0x0d, 0xd8, 0x3d, 0x19, 0x41, 0xc2, 0xbc, 0xbb, 0x7f, 0x78, 0xbd,
  0x85, 0x57, 0xfc, 0xbc, 0x71, 0x7c, 0x90, 0xbd, 0xad, 0xc8, 0xab, 0x3e,
  0x8c, 0xe3, 0xae, 0x3e, 0x83, 0x39, 0x9e, 0x3d, 0xad, 0xf3, 0x1b, 0x3e,
  0xe6, 0x97, 0x13, 0xbe, 0xf6, 0x2e, 0x12, 0x3f, 0xb3, 0x2e, 0xa1, 0xbd,
  0xaa, 0x28, 0x61, 0xbe, 0xfb, 0xb4, 0x00, 0xbf, 0xdc, 0x0a, 0x68, 0xbd,
  0x9c, 0x9b, 0x34, 0x3e, 0x40, 0x3a, 0x11, 0x3e, 0x4a, 0xaf, 0x1d, 0xbd,
  0x04, 0x1b, 0xdb, 0xbd, 0x2f, 0xce, 0xae, 0xbe, 0x46, 0xe6, 0x02, 0xbe,
  0xd3, 0x64, 0xb4, 0xbe, 0xc6, 0x23, 0x0a, 0xbe, 0xa8, 0x6e, 0x35, 0xbb,
  0xd0, 0xda, 0x78, 0x3e, 0xd6, 0x83, 0x41, 0x3d, 0xa9, 0x51, 0x7e, 0xbe,
  0x74, 0xb7, 0x01, 0xbe, 0xdf, 0x9d, 0x81, 0xbd, 0x5b, 0xeb, 0x09, 0x3e,
  0xdc, 0x4d, 0x30, 0xbe, 0x7d, 0x38, 0x9f, 0xbe, 0x1b, 0x1b, 0xdc, 0xbe,
  0xd6, 0x95, 0x9f, 0x3b, 0xc6, 0x83, 0x67, 0xbe, 0x92, 0x9e, 0x02, 0x3e,
  0x71, 0xb8, 0x87, 0x3d, 0x25, 0x5f, 0x54, 0x3c, 0x08, 0x5d, 0xc2, 0xbb,
  0xf6, 0xe4, 0x35, 0xbd, 0x92, 0x04, 0xeb, 0xbc, 0x14, 0xe0, 0xbc, 0xbd,
  0x01, 0x21, 0x4e, 0x3c, 0x99, 0x68, 0x3f, 0x3e, 0xa2, 0x84, 0x3f, 0x3e,
  0x92, 0xcc, 0x0a, 0xbd, 0xfb, 0x32, 0x74, 0x3d, 0x3a, 0x78, 0x8b, 0xbd,
  0x51, 0xda, 0x52, 0x3d, 0xf9, 0x1b, 0xca, 0x3e, 0x77, 0x79, 0xd1, 0xbd,
  0xbc, 0xda, 0xf5, 0x3d, 0x0a, 0xb5, 0xda, 0xbd, 0xd8, 0x06, 0xca, 0x3d,
  0x25, 0x4d, 0x03, 0x3e, 0xa7, 0xa2, 0x92, 0xbd, 0xd3, 0x38, 0xd7, 0x3d,
  0xf3, 0xac, 0x17, 0x3e, 0xf1, 0xe3, 0x96, 0xbd, 0xc2, 0x0b, 0xeb, 0xbd,
  0x98, 0x5e, 0xcb, 0xbd, 0xe7, 0x12, 0xd1, 0x3d, 0xb7, 0x00, 0x31, 0xbd,
  0x7d, 0x71, 0x95, 0xbd, 0xf1, 0xe9, 0xa1, 0x3d, 0x7a, 0x48, 0x49, 0x3d,
  0x84, 0xa6, 0x4b, 0xbd, 0x24, 0x45, 0x31, 0xbe, 0xf1, 0x67, 0xfa, 0xbd,
  0x97, 0xc8, 0x0f, 0xbd, 0xbe, 0x78, 0x4a, 0x3f, 0x88, 0x02, 0x91, 0x3d,
  0x0b, 0x92, 0x83, 0xbc, 0xc4, 0xb1, 0x84, 0xbd, 0x63, 0x8a, 0x01, 0xbe,
  0x81, 0xf4, 0x2d, 0xbe, 0x96, 0xe2, 0xac, 0xbd, 0x95, 0x83, 0x5c, 0x3e,
  0x0f, 0xd2, 0xb2, 0xbd, 0xa0, 0xdc, 0x40, 0x3d, 0x94, 0xab, 0xbb, 0xbd,
  0x01, 0xcf, 0x81, 0xbd, 0x0e, 0x8d, 0x09, 0xbe, 0x12, 0x6e, 0x2a, 0xbe,
  0x52, 0x48, 0xcd, 0xbd, 0xdf, 0x3d, 0xd5, 0x3d, 0x00, 0xda, 0x31, 0xbc,
  0x57, 0x56, 0x91, 0x3d, 0xa5, 0x11, 0xe7, 0x3d, 0xd5, 0xba, 0x60, 0xbd,
  0x09, 0x1b, 0x09, 0xbe, 0xf9, 0x3c, 0x5c, 0xbe, 0x60, 0xe5, 0x4f, 0xbd,
  0xf9, 0x54, 0x50, 0x3e, 0x88, 0xdc, 0x07, 0x3c, 0x23, 0xe3, 0xf0, 0x3c,
  0x2a, 0x6b, 0xbd, 0x3e, 0x74, 0x04, 0x78, 0xba, 0x61, 0x3d, 0x37, 0xbe,
  0x4b, 0x2c, 0x90, 0xbb, 0x08, 0x2d, 0xc3, 0xbe, 0x5b, 0xf6, 0x10, 0x3b,
  0x70, 0x7e, 0xf9, 0xbe, 0x98, 0xc0, 0x28, 0x3d, 0xe2, 0xbe, 0x9e, 0xbe,
  0x2a, 0xb0, 0xc0, 0x3c, 0x97, 0xba, 0xeb, 0x3d, 0x54, 0x1b, 0x0f, 0x3e,
  0x9b, 0x65, 0xd4, 0xbe, 0xf1, 0x91, 0x29, 0x3e, 0x18, 0x63, 0x14, 0xbd,
  0xb7, 0xb7, 0x3f, 0x3e, 0x09, 0xc6, 0x86, 0x3e, 0xc4, 0x96, 0x89, 0xbd,
  0x9d, 0x66, 0x5b, 0xbd, 0x24, 0x25, 0xdb, 0xbc, 0x0b, 0xd7, 0xbc, 0xbe,
  0x0f, 0x88, 0x98, 0xbe, 0xaf, 0xd4, 0xe2, 0x3d, 0x44, 0x4f, 0x25, 0xbd,
  0x96, 0xfe, 0x8f, 0xbd, 0x9c, 0xfb, 0x8f, 0xbd, 0xa1, 0x31, 0x07, 0x3e,
  0x86, 0x62, 0xcd, 0x3c, 0x10, 0xc1, 0xaa, 0xbe, 0xcb, 0x97, 0x8a, 0xbd,
  0x0c, 0x9f, 0x1f, 0x3e, 0xf4, 0x50, 0x20, 0x3e, 0xe6, 0xb6, 0x46, 0xbe,
  0xcb, 0x0a, 0x08, 0x3e, 0x97, 0x81, 0x4b, 0x3b, 0x7a, 0xc6, 0x98, 0x3d,
  0xc7, 0x3f, 0xeb, 0xbe, 0x5f, 0xb3, 0xe3, 0xbe, 0x3a, 0x2b, 0xb3, 0xbe,
  0x33, 0x7b, 0xb6, 0xbe, 0x77, 0x9d, 0xa9, 0xbe, 0x70, 0xd1, 0xae, 0xbe,
  0x41, 0xb1, 0xc7, 0xbe, 0x35, 0x62, 0xa0, 0xbe, 0x63, 0x9b, 0x1e, 0xbe,
  0x3f, 0x1c, 0xde, 0x3c, 0x64, 0x48, 0x88, 0xbd, 0x43, 0xfc, 0x5e, 0x3d,
  0x9e, 0x26, 0xb7, 0x3d, 0xa8, 0xfc, 0x1d, 0xbe, 0xd6, 0x67, 0x59, 0x3e,
  0x59, 0xb2, 0x9d, 0xbe, 0x58, 0x03, 0x0a, 0xbe, 0xbb, 0x80, 0x7f, 0xbe,
  0x64, 0x97, 0x99, 0xbd, 0x82, 0xc8, 0x68, 0x3c, 0x98, 0x41, 0x93, 0x3e,
  0xa0, 0xd8, 0x60, 0x3d, 0xcf, 0x5c, 0x15, 0xbe, 0xad, 0xd3, 0x3f, 0xbd,
  0x3c, 0x57, 0x57, 0x3e, 0x25, 0xaa, 0x14, 0xbd, 0x0b, 0xf1, 0x63, 0xbd,
  0x98, 0x34, 0x07, 0xbd, 0xd8, 0x15, 0xda, 0xbd, 0x03, 0xcb, 0xc3, 0x3c,
  0xab, 0xbf, 0x2e, 0xbc, 0x2e, 0x4e, 0x9c, 0xbd, 0xb0, 0x1a, 0x6c, 0xbe,
  0xc7, 0xe5, 0x00, 0x3e, 0x2b, 0x77, 0x68, 0xbd, 0xc8, 0xea, 0x75, 0xbe,
  0xba, 0x0a, 0x8c, 0xbe, 0x40, 0x5e, 0x9c, 0xbe, 0x2b, 0x66, 0x5f, 0x3e,
  0x92, 0xc4, 0x09, 0xbe, 0xe5, 0x43, 0x55, 0xbe, 0x3b, 0xda, 0x71, 0x3e,
  0x47, 0xac, 0x6d, 0x3c, 0x06, 0xbc, 0xaf, 0x3d, 0x49, 0xe7, 0xce, 0x3d,
  0xe1, 0xf2, 0x99, 0x3b, 0x2c, 0xf0, 0x12, 0x3b, 0x2b, 0x7e, 0xea, 0xbc,
  0x8c, 0xe2, 0xd1, 0xbd, 0x58, 0xe2, 0xcd, 0xbd, 0x19, 0xe9, 0x89, 0xbe,
  0xc9, 0x08, 0x38, 0xbe, 0x37, 0x22, 0x9f, 0xbe, 0xca, 0x7f, 0x8e, 0xbe,
  0x52, 0xc5, 0x90, 0xbe, 0xae, 0xc4, 0x43, 0xbe, 0xc3, 0x0b, 0x53, 0xbd,
  0x19, 0x3f, 0x6d, 0xbe, 0x8b, 0xe9, 0x7d, 0x3d, 0x5f, 0xda, 0x11, 0xbe,
  0x85, 0x47, 0x01, 0xbd, 0x94, 0x27, 0x83, 0xbe, 0xf0, 0xcf, 0xc4, 0xbe,
  0x45, 0x42, 0x1d, 0xbe, 0x26, 0xde, 0xff, 0xff, 0x10, 0x00, 0x00, 0x00,
  0x0a, 0x00, 0x00, 0x00, 0x1c, 0x00, 0x00, 0x00, 0x38, 0x00, 0x00, 0x00,
  0x04, 0x00, 0x00, 0x00, 0x10, 0x00, 0x00, 0x00, 0x04, 0x00, 0x00, 0x00,
  0x01, 0x00, 0x00, 0x00, 0x08, 0x00, 0x00, 0x00, 0x1a, 0x00, 0x00, 0x00,
  0x73, 0x65, 0x71, 0x75, 0x65, 0x6e, 0x74, 0x69, 0x61, 0x6c, 0x2f, 0x63,
  0x6f, 0x6e, 0x76, 0x32, 0x64, 0x5f, 0x31, 0x2f, 0x43, 0x6f, 0x6e, 0x76,
  0x32, 0x44, 0x00, 0x00, 0x9c, 0xdd, 0xff, 0xff, 0xa6, 0xde, 0xff, 0xff,
  0x04, 0x00, 0x00, 0x00, 0x80, 0x01, 0x00, 0x00, 0x0c, 0xbb, 0x5d, 0xbe,
  0xd9, 0x78, 0x3d, 0x3d, 0x5e, 0x89, 0x19, 0x3e, 0x89, 0x4e, 0x9a, 0xbd,
  0x18, 0x99, 0x3f, 0x3c, 0xf9, 0x85, 0x2c, 0x3d, 0x3b, 0x2d, 0x64, 0xbd,
  0xcc, 0x9f, 0xa4, 0x3d, 0x74, 0x77, 0x05, 0xbd, 0xcc, 0x8c, 0x18, 0x3e,
  0xd1, 0xa0, 0xd2, 0x3d, 0x3f, 0x95, 0xb7, 0x3d, 0xff, 0x9d, 0x3a, 0xbe,
  0xd3, 0xf2, 0xc1, 0xbe, 0x0e, 0xbe, 0x5b, 0xbe, 0xae, 0x17, 0xcf, 0xbd,
  0x65, 0x8f, 0x84, 0xbd, 0x6a, 0xb8, 0x90, 0xbe, 0x28, 0xba, 0xd8, 0x3e,
  0xea, 0x0f, 0xc7, 0x3e, 0xda, 0x7f, 0xe8, 0x3e, 0xc7, 0x81, 0x58, 0xbd,
  0xe9, 0x8a, 0x87, 0x3d, 0xb9, 0x33, 0xd0, 0x3c, 0x72, 0x73, 0x87, 0x3d,
  0xfb, 0xd1, 0x69, 0xbd, 0x24, 0xb0, 0x98, 0xbd, 0x54, 0x3c, 0x33, 0xbd,
  0x81, 0xc2, 0xa8, 0xbe, 0xf8, 0x6e, 0x6a, 0xbe, 0x89, 0x82, 0x89, 0x3e,
  0xdb, 0xf4, 0xdc, 0x3e, 0x3a, 0x7c, 0xe8, 0xbd, 0xb4, 0x4f, 0x9c, 0x3e,
  0x64, 0xba, 0x6d, 0x3e, 0xfd, 0xb0, 0xbb, 0x3e, 0xc8, 0x3e, 0xce, 0x3e,
  0x80, 0xc4, 0xf1, 0x3e, 0x2f, 0xf7, 0x92, 0xbb, 0x0e, 0x4a, 0xc6, 0x3d,
  0x8c, 0xab, 0xfa, 0x3d, 0xbe, 0x8b, 0x9c, 0x3d, 0x9b, 0xab, 0x80, 0xbe,
  0xe8, 0xe0, 0xa4, 0xbe, 0x14, 0x49, 0x38, 0xbd, 0x11, 0x6e, 0x10, 0xbd,
  0x1a, 0xf3, 0x68, 0xbe, 0x07, 0xdc, 0x41, 0xbe, 0x1b, 0x61, 0x0f, 0xbe,
  0xc2, 0x4f, 0x8b, 0x3e, 0x17, 0x36, 0x8c, 0x3e, 0x32, 0x85, 0xa4, 0x3d,
  0xfa, 0x31, 0xb3, 0xbd, 0x96, 0x1d, 0xe2, 0x3d, 0xf5, 0x74, 0x14, 0xbd,
  0xbf, 0x87, 0xd3, 0xbd, 0x31, 0xb8, 0xcd, 0x3d, 0x61, 0x81, 0xa1, 0x3d,
  0xaa, 0xf0, 0xbb, 0xbd, 0x1e, 0x63, 0xc3, 0xbe, 0xaf, 0xc7, 0x7a, 0x3e,
  0x2c, 0xa1, 0x7a, 0xbe, 0x55, 0x76, 0x72, 0x3e, 0x1d, 0x0c, 0xc8, 0xbd,
  0xae, 0xc8, 0xc8, 0xbd, 0xff, 0x22, 0xe9, 0x3d, 0xd8, 0x68, 0x4d, 0xbe,
  0x88, 0x95, 0x06, 0x3e, 0x89, 0x82, 0x9d, 0x3c, 0x09, 0x30, 0x11, 0xbe,
  0xb2, 0x95, 0x0b, 0x3e, 0x1c, 0x2a, 0x31, 0x3d, 0xa6, 0xdd, 0x55, 0xbd,
  0x97, 0x53, 0x30, 0xbd, 0x0a, 0x74, 0x65, 0x3d, 0xca, 0x59, 0xc3, 0xbd,
  0xf6, 0xc3, 0xba, 0xbd, 0x03, 0xa4, 0xd1, 0xbd, 0xf7, 0xb0, 0x40, 0x3e,
  0x89, 0xc1, 0x3a, 0x3d, 0x3f, 0xad, 0xb5, 0x3d, 0x67, 0xbd, 0x49, 0x3e,
  0x35, 0x6e, 0x00, 0x3d, 0x6e, 0x87, 0x42, 0x3e, 0x0b, 0xf0, 0x1b, 0xbe,
  0x9a, 0x26, 0xc5, 0x3b, 0x39, 0xb2, 0x3f, 0xbd, 0xb8, 0x98, 0xe4, 0xbd,
  0x53, 0x2c, 0x62, 0x3d, 0x49, 0xf6, 0x6b, 0xbd, 0x15, 0x93, 0x69, 0xbc,
  0xc5, 0xc0, 0xa2, 0x3d, 0x98, 0x5f, 0x60, 0xbd, 0x50, 0x42, 0x28, 0x3d,
  0xf5, 0x56, 0xcc, 0x3d, 0x6f, 0xf3, 0xa9, 0xbd, 0xfe, 0xdf, 0xff, 0xff,
  0x10, 0x00, 0x00, 0x00, 0x09, 0x00, 0x00, 0x00, 0x1c, 0x00, 0x00, 0x00,
  0x38, 0x00, 0x00, 0x00, 0x04, 0x00, 0x00, 0x00, 0x08, 0x00, 0x00, 0x00,
  0x04, 0x00, 0x00, 0x00, 0x03, 0x00, 0x00, 0x00, 0x01, 0x00, 0x00, 0x00,
  0x18, 0x00, 0x00, 0x00, 0x73, 0x65, 0x71, 0x75, 0x65, 0x6e, 0x74, 0x69,
  0x61, 0x6c, 0x2f, 0x63, 0x6f, 0x6e, 0x76, 0x32, 0x64, 0x2f, 0x43, 0x6f,
  0x6e, 0x76, 0x32, 0x44, 0x00, 0x00, 0x00, 0x00, 0x74, 0xdf, 0xff, 0xff,
  0x7e, 0xe0, 0xff, 0xff, 0x04, 0x00, 0x00, 0x00, 0xc0, 0x00, 0x00, 0x00,
  0x33, 0x81, 0xe7, 0x3b, 0xb2, 0x58, 0x64, 0x3d, 0x29, 0x7a, 0xc9, 0x3c,
  0x6a, 0xfe, 0x0e, 0x3e, 0x95, 0xf8, 0x26, 0x3e, 0x94, 0x93, 0xd0, 0xbc,
  0xd8, 0xc1, 0x28, 0x3e, 0x05, 0x4f, 0x6a, 0x3e, 0xc3, 0xe1, 0x4a, 0x3e,
  0x23, 0x6d, 0x06, 0xbe, 0x35, 0x83, 0x39, 0x3e, 0x73, 0x13, 0xa3, 0x3e,
  0x39, 0xd8, 0x86, 0xbe, 0xea, 0x35, 0xb0, 0x3e, 0xec, 0x2e, 0x8f, 0x3e,
  0xf6, 0xed, 0x85, 0x3e, 0xd9, 0x40, 0xa0, 0x3d, 0x58, 0x04, 0x20, 0x3c,
  0x08, 0xe8, 0x0a, 0xbd, 0x60, 0x0f, 0x1b, 0xbe, 0x74, 0x9a, 0xf3, 0xbe,
  0x02, 0xfd, 0xd8, 0xbe, 0x9b, 0xfc, 0x1b, 0x3e, 0xc4, 0x02, 0x87, 0x3e,
  0x50, 0x87, 0xbd, 0x3e, 0xa1, 0x2e, 0x25, 0xbe, 0xe6, 0x69, 0x00, 0xbf,
  0x31, 0xbc, 0x8c, 0x3e, 0x14, 0xc5, 0x49, 0xbe, 0xb4, 0x5c, 0xd9, 0x3e,
  0xa8, 0xbb, 0xc0, 0xbd, 0x38, 0x37, 0x55, 0x3e, 0x72, 0x89, 0x39, 0x3d,
  0x09, 0xda, 0x29, 0x3c, 0x26, 0x09, 0x24, 0xbd, 0xaa, 0x8b, 0xc7, 0xbe,
  0xfe, 0x76, 0x64, 0xbb, 0x57, 0x3a, 0x1d, 0xbf, 0xd5, 0x6c, 0x45, 0x3e,
  0x21, 0x67, 0x9f, 0x3e, 0xbb, 0x84, 0xcb, 0x3e, 0x89, 0x94, 0x38, 0xbe,
  0xaf, 0x7e, 0xff, 0xbe, 0x01, 0xea, 0xb6, 0x3e, 0x64, 0xf1, 0x84, 0xbe,
  0xad, 0x18, 0x9b, 0x3e, 0x87, 0x35, 0x02, 0xbf, 0xe8, 0xc0, 0x5d, 0x3e,
  0x16, 0xe1, 0xff, 0xff, 0x10, 0x00, 0x00, 0x00, 0x08, 0x00, 0x00, 0x00,
  0x14, 0x00, 0x00, 0x00, 0x30, 0x00, 0x00, 0x00, 0x02, 0x00, 0x00, 0x00,
  0x03, 0x00, 0x00, 0x00, 0x10, 0x00, 0x00, 0x00, 0x19, 0x00, 0x00, 0x00,
  0x73, 0x65, 0x71, 0x75, 0x65, 0x6e, 0x74, 0x69, 0x61, 0x6c, 0x2f, 0x64,
  0x65, 0x6e, 0x73, 0x65, 0x5f, 0x31, 0x2f, 0x4d, 0x61, 0x74, 0x4d, 0x75,
  0x6c, 0x00, 0x00, 0x00, 0x84, 0xe0, 0xff, 0xff, 0x8e, 0xe1, 0xff, 0xff,
  0x04, 0x00, 0x00, 0x00, 0x00, 0x1c, 0x00, 0x00, 0xe6, 0x47, 0x4c, 0xbe,
  0x46, 0xc0, 0xe4, 0xbc, 0x52, 0xfd, 0xcb, 0x3e, 0x5b, 0x89, 0xe9, 0xbd,
  0xcd, 0x61, 0xe9, 0x3d, 0x85, 0xa8, 0xba, 0x3a, 0x10, 0x46, 0x7f, 0x3e,
  0x9d, 0xa0, 0x5e, 0xbd, 0x04, 0x5e, 0xe2, 0x3d, 0x1c, 0x84, 0xbc, 0x3d,
  0xeb, 0x5b, 0x82, 0x3e, 0x23, 0xac, 0xdd, 0x3a, 0x46, 0x01, 0x87, 0x3e,
  0x69, 0xda, 0xb3, 0xbd, 0xe5, 0x50, 0x69, 0x3f, 0xb2, 0x33, 0xf5, 0x3d,
  0x24, 0xbb, 0x7b, 0xbe, 0xdf, 0x51, 0x0f, 0x3e, 0xe8, 0xbe, 0xc1, 0xbe,
  0x9e, 0x8b, 0xc0, 0xbd, 0xac, 0x4c, 0xf6, 0xbe, 0x44, 0xcd, 0xf9, 0x3d,
  0xcd, 0x42, 0x35, 0xbf, 0x03, 0x5c, 0xdf, 0xbd, 0x8b, 0xbf, 0x74, 0xbe,
  0x4b, 0xf2, 0x8d, 0xbe, 0x2b, 0x75, 0xb9, 0x3c, 0x08, 0x64, 0x64, 0xbd,
  0xde, 0x3e, 0xe7, 0xbd, 0x32, 0xa8, 0x0a, 0x3e, 0xec, 0x56, 0xfd, 0xbd,
  0xc2, 0x33, 0x78, 0xbc, 0x2a, 0xc6, 0xa4, 0xbe, 0xd9, 0xf2, 0x70, 0x3d,
  0xad, 0xb3, 0xe9, 0xbd, 0x7e, 0x91, 0x36, 0x3d, 0x97, 0x4b, 0x60, 0xbe,
  0x75, 0x24, 0xa0, 0xbd, 0x93, 0xc6, 0x16, 0xbf, 0xc5, 0x20, 0xdc, 0xbe,
  0x64, 0xca, 0xf4, 0xbe, 0x11, 0x7f, 0xf3, 0xbe, 0xae, 0x1a, 0xd9, 0xbd,
  0xef, 0x2c, 0xd5, 0xbb, 0xa6, 0x57, 0x98, 0xbd, 0x0b, 0x42, 0x71, 0x3d,
  0x54, 0xa4, 0x5e, 0xbd, 0x60, 0x1d, 0xb8, 0x3c, 0xc4, 0xfb, 0xe4, 0xbe,
  0x99, 0x97, 0x6c, 0xbd, 0x84, 0xea, 0x1f, 0xbd, 0x9c, 0xed, 0x62, 0xbd,
  0x64, 0x18, 0x72, 0x3c, 0xfe, 0xb3, 0x12, 0x3e, 0xc9, 0xd1, 0x38, 0xbf,
  0x5d, 0x0c, 0xab, 0xbe, 0xfd, 0x8e, 0x30, 0xbf, 0x78, 0xe2, 0x29, 0xbf,
  0x4d, 0xd1, 0x9b, 0xbe, 0xb1, 0x6e, 0x6d, 0xbd, 0x49, 0x33, 0xe6, 0xbd,
  0xb7, 0xc2, 0xa4, 0xbd, 0x8e, 0x45, 0xc6, 0xbd, 0xb9, 0x9b, 0xc4, 0x3c,
  0x42, 0x34, 0x28, 0xbf, 0x7e, 0x05, 0xa3, 0x3c, 0x07, 0x8f, 0xf2, 0x3e,
  0x3e, 0x8f, 0x05, 0x3c, 0x8b, 0xfd, 0x36, 0x3d, 0xcf, 0x54, 0xa8, 0x3d,
  0x8f, 0x9e, 0x25, 0x3e, 0xc4, 0xd6, 0x99, 0xbd, 0xa8, 0xb8, 0x49, 0x3d,
  0x8e, 0x76, 0x08, 0x3e, 0xc0, 0x8d, 0xed, 0x3d, 0xf7, 0x35, 0x6c, 0xbb,
  0x62, 0xad, 0xb3, 0xbd, 0x7f, 0x29, 0x3c, 0x3d, 0x56, 0x0f, 0xd5, 0xbd,
  0xa2, 0x3f, 0xd1, 0xbd, 0x20, 0xb6, 0x49, 0xbe, 0xa8, 0x77, 0xa3, 0x3c,
  0x88, 0xa8, 0xde, 0x3e, 0x27, 0x14, 0x18, 0xbd, 0xeb, 0x2d, 0x73, 0x3e,
  0x34, 0xa0, 0x9e, 0x3d, 0x22, 0x8f, 0x03, 0x3e, 0x70, 0xc9, 0x50, 0xbd,
  0x08, 0x40, 0x7d, 0x3d, 0xd5, 0x23, 0x81, 0x3d, 0xa5, 0xa3, 0x96, 0x3e,
  0xe1, 0x03, 0x1e, 0xbd, 0xad, 0x97, 0x75, 0xbd, 0x40, 0x24, 0xc9, 0xbd,
  0x41, 0x8e, 0x2b, 0x3e, 0xe5, 0x35, 0x7c, 0x3e, 0x72, 0xb9, 0x9c, 0xbd,
  0xad, 0x92, 0xe0, 0x3c, 0x16, 0x93, 0x18, 0x3e, 0xc3, 0x85, 0x60, 0x3d,
  0x47, 0xbf, 0x61, 0x3e, 0xc9, 0x5e, 0xf7, 0x3c, 0xb8, 0x38, 0x21, 0x3d,
  0x72, 0xea, 0xbb, 0x3d, 0xd2, 0x24, 0x2a, 0x3d, 0x34, 0xfd, 0x6f, 0x3d,
  0xa8, 0x52, 0x0f, 0xbd, 0x2f, 0xcd, 0x13, 0xbd, 0x97, 0xc5, 0x98, 0xbb,
  0xc7, 0x14, 0x69, 0x3d, 0x0b, 0x7f, 0x31, 0x3e, 0xa7, 0xf6, 0x35, 0x3e,
  0x29, 0x6d, 0xab, 0x3e, 0x18, 0x87, 0xc7, 0x3d, 0xdd, 0x04, 0x4f, 0xbe,
  0x15, 0x0a, 0x9a, 0xbd, 0x50, 0x55, 0x25, 0xbe, 0x9e, 0xa4, 0x85, 0x3d,
  0x90, 0x90, 0x85, 0xbe, 0xa4, 0x66, 0x01, 0x3d, 0x4d, 0x4b, 0x91, 0xbe,
  0x91, 0xa5, 0x5c, 0x39, 0x2b, 0x58, 0x3c, 0xbe, 0xc1, 0xa1, 0x03, 0x3e,
  0xc6, 0xb0, 0xa3, 0xbe, 0xbd, 0x87, 0xc4, 0xbd, 0x1e, 0xfc, 0x10, 0x3e,
  0x5c, 0xa2, 0x85, 0xbd, 0xef, 0x18, 0x72, 0x3e, 0x55, 0xa2, 0x28, 0x3e,
  0xce, 0xad, 0x90, 0xbd, 0xe9, 0x4a, 0x30, 0xbe, 0xee, 0xd5, 0x11, 0x3e,
  0x44, 0x9e, 0x7d, 0x3e, 0xb2, 0xf8, 0x84, 0x3d, 0x97, 0x9b, 0x39, 0xbe,
  0x47, 0xa5, 0xbe, 0xbd, 0x7f, 0x09, 0x96, 0xbd, 0x2f, 0x11, 0x89, 0xbe,
  0xb8, 0x3a, 0x13, 0x3c, 0x3d, 0xbf, 0x48, 0xbe, 0xdb, 0x5a, 0x02, 0xbc,
  0xe2, 0xb4, 0xb7, 0x3f, 0x05, 0x16, 0xfe, 0xbd, 0xaa, 0x8e, 0x03, 0x3e,
  0xf9, 0x59, 0x80, 0x3d, 0x39, 0x25, 0x02, 0xbe, 0x0e, 0x51, 0xb9, 0x3a,
  0x59, 0x20, 0x9c, 0x3e, 0x26, 0xbe, 0x8c, 0x3e, 0xc0, 0xf4, 0x1f, 0x3e,
  0xcf, 0x28, 0x68, 0x3e, 0x62, 0x32, 0x38, 0xbe, 0x6e, 0xe9, 0xf6, 0x3e,
  0xd2, 0x44, 0x1e, 0x3e, 0x1c, 0x4b, 0x25, 0xbe, 0x7f, 0x2f, 0xbc, 0xbd,
  0x6e, 0x00, 0x00, 0x3e, 0xa0, 0xa0, 0xcf, 0x3f, 0x75, 0xcf, 0xb4, 0xbd,
  0xa8, 0x8a, 0x36, 0xbe, 0xd1, 0xe0, 0x1e, 0x3e, 0x8e, 0x97, 0x9a, 0xbd,
  0xc5, 0x58, 0x33, 0xbe, 0x69, 0x5c, 0x4e, 0x3e, 0x95, 0xb7, 0x5a, 0x3d,
  0x5d, 0x9d, 0x1f, 0xbe, 0xf2, 0x5e, 0x16, 0x3e, 0x10, 0xe8, 0xe4, 0x3d,
  0x04, 0x0e, 0x89, 0x3e, 0xb3, 0x19, 0x83, 0x3e, 0x93, 0xde, 0x25, 0xbd,
  0x9f, 0xad, 0x0e, 0x3d, 0x31, 0x70, 0xab, 0xbd, 0xa0, 0x63, 0x99, 0x3f,
  0x2a, 0xda, 0x48, 0xbe, 0xbd, 0xfb, 0xfb, 0xbd, 0xde, 0x19, 0xc0, 0x3d,
  0x06, 0xac, 0x6c, 0xbe, 0x70, 0xb5, 0xec, 0xbc, 0x3a, 0x4e, 0xb1, 0xbc,
  0x8b, 0x3f, 0xfa, 0x3d, 0x38, 0xfb, 0xc5, 0xbd, 0x8e, 0x29, 0x99, 0x3c,
  0x3c, 0xe6, 0xc1, 0xbd, 0x32, 0xa6, 0x47, 0x3e, 0xee, 0x79, 0x5e, 0xbe,
  0xdd, 0xff, 0xfe, 0xbc, 0x58, 0x2e, 0xf1, 0xbd, 0x78, 0x46, 0xa0, 0x3d,
  0x83, 0xd5, 0x9c, 0x3f, 0x6f, 0xda, 0x81, 0xbe, 0x8f, 0x63, 0x22, 0x3e,
  0x46, 0x2e, 0x82, 0x3e, 0xf4, 0x35, 0x5d, 0xbd, 0xd2, 0x49, 0x80, 0xbd,
  0x94, 0x80, 0x01, 0xbd, 0x5c, 0x6f, 0xa9, 0xbd, 0x08, 0x25, 0x29, 0xbe,
  0xef, 0x2c, 0x9d, 0xbe, 0x6d, 0xfa, 0x3d, 0xbe, 0x22, 0x33, 0x4d, 0xbe,
  0x09, 0x0f, 0x61, 0xbd, 0xf7, 0x26, 0xef, 0xbc, 0x3b, 0x64, 0x00, 0xbc,
  0x81, 0x25, 0xb1, 0xbd, 0xe3, 0xa7, 0x90, 0x3f, 0xb3, 0x45, 0x8e, 0xbd,
  0xfb, 0xe6, 0x0a, 0xbe, 0xb3, 0x15, 0xe0, 0xbd, 0x9b, 0xa0, 0x37, 0x3d,
  0xe6, 0x0f, 0x23, 0x3e, 0xdb, 0x3d, 0x0a, 0xbd, 0x1e, 0x91, 0x74, 0xbc,
  0x4e, 0x7e, 0x96, 0xbe, 0x83, 0x37, 0x0f, 0xbe, 0xd6, 0xd6, 0x3f, 0xbe,
  0x20, 0x67, 0x75, 0x3e, 0x97, 0x03, 0x12, 0xbd, 0x1f, 0x7d, 0xac, 0xbd,
  0x6e, 0xb7, 0x03, 0xbe, 0x2f, 0xb8, 0xc2, 0xbd, 0x1b, 0x9f, 0xaa, 0x3f,
  0x3c, 0x3d, 0x88, 0x3b, 0xbf, 0x9a, 0x64, 0xbe, 0x1a, 0x52, 0x93, 0xbd,
  0x53, 0x78, 0xde, 0xbd, 0x8e, 0x7f, 0xf1, 0x3b, 0x50, 0x89, 0x58, 0xbe,
  0x04, 0xa0, 0xa8, 0xbe, 0x9e, 0x74, 0x88, 0xbd, 0xbc, 0xe5, 0x8f, 0xbd,
  0x97, 0xd5, 0x1c, 0xbe, 0x3d, 0x37, 0xf7, 0xbe, 0x93, 0x0e, 0x2d, 0xbe,
  0x81, 0x85, 0x2e, 0xbe, 0xfe, 0xc2, 0x92, 0xbe, 0x6f, 0x2d, 0x8b, 0xb9,
  0xb1, 0xa8, 0xc9, 0x3a, 0xd3, 0x3a, 0xb5, 0xbd, 0xc6, 0xe2, 0x07, 0xbe,
  0xf4, 0x8c, 0x11, 0x3d, 0x12, 0xc3, 0xe1, 0xbd, 0x40, 0x5d, 0xa0, 0xbd,
  0xf0, 0xeb, 0x43, 0xbc, 0xd7, 0xa0, 0x28, 0x3e, 0x06, 0x7b, 0x30, 0xbd,
  0xd3, 0xa5, 0x7b, 0x3d, 0xe6, 0x64, 0x33, 0xbe, 0x8a, 0xf1, 0x94, 0x3e,
  0x3b, 0xe0, 0xf8, 0xbd, 0x29, 0x82, 0x7b, 0xbd, 0x98, 0x0a, 0xa6, 0xbe,
  0x15, 0xfc, 0xb4, 0xbe, 0x90, 0x06, 0xe5, 0x3f, 0x0f, 0x9a, 0x78, 0x3d,
  0xee, 0x3c, 0x05, 0x3b, 0x01, 0xda, 0x83, 0x3e, 0xb5, 0xdb, 0x8f, 0xbe,
  0x18, 0xde, 0x05, 0xbe, 0x5d, 0x19, 0xb4, 0x3d, 0x04, 0xca, 0x05, 0x3e,
  0x69, 0x75, 0xb2, 0xba, 0x06, 0xf1, 0x7b, 0x3d, 0x35, 0xdc, 0x70, 0xbd,
  0x80, 0x87, 0x38, 0x3e, 0xd1, 0x8d, 0xc5, 0xbd, 0xdf, 0x97, 0xdc, 0x3c,
  0x19, 0x6a, 0xd0, 0xbe, 0x5f, 0x90, 0x76, 0xbe, 0xc5, 0xe2, 0xeb, 0x3f,
  0x95, 0x88, 0x60, 0xbc, 0xcf, 0xae, 0x5b, 0x3e, 0x69, 0x1f, 0x34, 0x3e,
  0x69, 0x29, 0x29, 0x3d, 0xb8, 0x88, 0x55, 0xbe, 0x8c, 0xd2, 0x29, 0xbe,
  0xaf, 0x0a, 0xdb, 0x3e, 0x75, 0x12, 0x0d, 0x3e, 0xb1, 0xa8, 0x14, 0x3e,
  0xb7, 0x16, 0x2a, 0x3e, 0xa8, 0xb6, 0xae, 0x3d, 0x54, 0x63, 0xb3, 0xbd,
  0x0f, 0xcd, 0xfb, 0x3c, 0xe0, 0xea, 0xb0, 0xbe, 0x48, 0xdd, 0xae, 0xbe,
  0x06, 0x7c, 0xb4, 0x3f, 0x28, 0xa3, 0xcf, 0x3d, 0x0b, 0xe2, 0xc1, 0x3e,
  0x6f, 0x2f, 0x14, 0x3e, 0x0b, 0xd4, 0x7f, 0xbe, 0x2e, 0x4b, 0x1f, 0xbe,
  0x05, 0xb6, 0x08, 0x3d, 0xa5, 0x44, 0xeb, 0x3e, 0x76, 0x0e, 0x03, 0xbe,
  0x54, 0xe3, 0xe7, 0x3b, 0x58, 0x4c, 0x76, 0xbe, 0xee, 0xeb, 0x67, 0x3e,
  0xbe, 0xa4, 0xd5, 0x3d, 0x7d, 0x3c, 0xcd, 0x3c, 0xe3, 0x7d, 0x87, 0xbe,
  0x3e, 0xf0, 0xe2, 0xbd, 0x84, 0x38, 0xdd, 0x3f, 0x54, 0x5c, 0x1e, 0x3e,
  0x68, 0x6a, 0xb6, 0x3e, 0x68, 0xe6, 0x5c, 0x3e, 0x50, 0x7a, 0xc2, 0xbd,
  0x68, 0xb1, 0x07, 0xbe, 0xaa, 0xab, 0xa0, 0xbd, 0x74, 0x68, 0x47, 0x3e,
  0x83, 0x3c, 0xa5, 0xbd, 0x8c, 0xe7, 0xed, 0xbd, 0xd6, 0x2b, 0x75, 0xbe,
  0x3c, 0x31, 0x01, 0x3e, 0x5b, 0x21, 0xb2, 0xbc, 0x12, 0x7b, 0xf2, 0xbd,
  0xba, 0x8a, 0x7b, 0xbe, 0xd2, 0xe6, 0x9f, 0xbe, 0xe0, 0x09, 0x85, 0x3f,
  0x7a, 0x9a, 0x3e, 0x3d, 0x0d, 0x45, 0x3b, 0xbe, 0x3c, 0xfd, 0x4e, 0xbc,
  0xce, 0xbf, 0x4d, 0xbe, 0x85, 0x23, 0x87, 0x3d, 0x4d, 0xe9, 0x0a, 0xbe,
  0x75, 0xfc, 0xa0, 0xbc, 0x3f, 0xe3, 0x5a, 0xbe, 0xd3, 0xd7, 0x6e, 0x3e,
  0xb6, 0x8b, 0x68, 0xbd, 0x7a, 0xbd, 0x6f, 0x3e, 0x5a, 0xd7, 0x9c, 0xbd,
  0x03, 0x1d, 0x6e, 0xbc, 0xb6, 0x73, 0x27, 0xbe, 0x71, 0x63, 0xff, 0x3d,
  0xe9, 0xf8, 0x15, 0x3f, 0x34, 0x5f, 0x57, 0xbe, 0x14, 0xe4, 0x0f, 0x3e,
  0x5c, 0x74, 0x99, 0xbd, 0x9b, 0xbc, 0x1d, 0x3e, 0x5a, 0x86, 0xa0, 0x3c,
  0xda, 0x3d, 0xfd, 0x3c, 0x41, 0x1d, 0xac, 0xbd, 0xf1, 0x15, 0x81, 0xbe,
  0x08, 0x64, 0x0e, 0xbe, 0x95, 0x07, 0xc3, 0xbd, 0x66, 0x43, 0x5b, 0x3b,
  0xdc, 0x46, 0x21, 0xbe, 0xad, 0x79, 0x38, 0xbe, 0xcc, 0xf7, 0x55, 0xbe,
  0xda, 0xd1, 0xcb, 0xbd, 0x62, 0xb3, 0x05, 0x3f, 0xd7, 0x94, 0xcd, 0x3d,
  0x55, 0x89, 0xff, 0x3c, 0x12, 0x99, 0x47, 0xbd, 0x1d, 0x29, 0x1f, 0x3d,
  0xfd, 0xb4, 0xea, 0x3c, 0xe6, 0xbc, 0x41, 0xbe, 0x1f, 0xba, 0x1d, 0xbe,
  0xb6, 0xde, 0x70, 0xbe, 0x6b, 0x93, 0x0b, 0xbd, 0x51, 0x47, 0x10, 0x3e,
  0xdf, 0x28, 0xf3, 0xbd, 0x9c, 0x1e, 0xcc, 0xbd, 0x49, 0xdc, 0x37, 0xbe,
  0x5b, 0x8f, 0x28, 0xbe, 0x52, 0x37, 0xec, 0x3c, 0x7a, 0xd3, 0x07, 0x40,
  0x97, 0x28, 0x1e, 0x3d, 0xa0, 0x39, 0x8f, 0x3d, 0x98, 0x05, 0x3e, 0x3d,
  0x6d, 0xb0, 0x86, 0xbe, 0x96, 0xe8, 0x07, 0xbe, 0x9e, 0xb4, 0xcc, 0x3d,
  0xe9, 0x84, 0xc7, 0x3d, 0xa9, 0x73, 0x19, 0xbe, 0xe6, 0x07, 0x87, 0xbd,
  0x28, 0x59, 0x00, 0x3e, 0x6a, 0x70, 0x89, 0x39, 0xd7, 0x84, 0x4a, 0xbd,
  0xba, 0xa1, 0xb5, 0xbd, 0x38, 0x55, 0x8b, 0xbe, 0xb5, 0xdd, 0x4a, 0x3d,
  0x6e, 0x1a, 0xdf, 0x3f, 0x1d, 0xc2, 0x44, 0x3e, 0x6c, 0x9b, 0x50, 0x3e,
  0xa2, 0x73, 0x56, 0xbe, 0xef, 0x36, 0xbc, 0xbc, 0xc2, 0xd2, 0x54, 0xbe,
  0xa0, 0x6d, 0x35, 0xbe, 0xf8, 0xba, 0x3f, 0xbe, 0x83, 0x6c, 0x46, 0xbd,
  0x06, 0x43, 0x0d, 0xbe, 0xf7, 0x57, 0x93, 0x3e, 0x90, 0x36, 0xc9, 0xbb,
  0xaf, 0xb0, 0xf8, 0xbd, 0x53, 0xdb, 0xae, 0xbd, 0xe0, 0x6c, 0x1d, 0x3d,
  0x3a, 0x9a, 0x0c, 0x3e, 0xeb, 0x75, 0xe6, 0x3f, 0xd2, 0xf4, 0x2d, 0xbe,
  0x02, 0x29, 0x10, 0x3e, 0x8d, 0x67, 0xcb, 0x3c, 0x2e, 0x30, 0x76, 0xbd,
  0x2c, 0x6d, 0x8f, 0xbe, 0x59, 0x68, 0x0a, 0x3e, 0xd4, 0xeb, 0x51, 0xbe,
  0x04, 0xff, 0xb6, 0xbd, 0x95, 0x62, 0x08, 0x3d, 0x94, 0xfd, 0x63, 0x3e,
  0x5a, 0x29, 0xab, 0xbd, 0xdb, 0xdf, 0x05, 0xbe, 0xc3, 0x33, 0x3c, 0xbe,
  0xef, 0x0b, 0x6d, 0xbe, 0xad, 0x65, 0x89, 0xbd, 0xf2, 0x78, 0x74, 0x3f,
  0x5e, 0xc1, 0x70, 0xbd, 0x73, 0xc5, 0x51, 0xbe, 0xe2, 0xac, 0xfb, 0xbd,
  0x29, 0x21, 0x71, 0xbe, 0x6a, 0xda, 0x39, 0x3e, 0xe6, 0xc5, 0x97, 0x3d,
  0x02, 0x6e, 0x23, 0x3e, 0x2c, 0x6c, 0x71, 0xbd, 0xdd, 0x61, 0xbd, 0xbc,
  0xaf, 0x65, 0xfa, 0x3d, 0x4a, 0x81, 0xef, 0xbd, 0xf9, 0xc7, 0x77, 0xbe,
  0x74, 0xb5, 0x09, 0xbe, 0x6a, 0x1d, 0xe4, 0xbd, 0xaf, 0xa7, 0xc9, 0x3d,
  0x55, 0x3d, 0x93, 0x3f, 0x99, 0x97, 0xb1, 0x3d, 0x0b, 0x44, 0x8f, 0xbe,
  0x89, 0x2a, 0x29, 0xbe, 0x49, 0x5e, 0x29, 0xbe, 0xbd, 0x5d, 0x42, 0x3e,
  0x58, 0x0c, 0x59, 0xbe, 0x2c, 0xa1, 0x9a, 0xbe, 0x99, 0x64, 0x52, 0xbe,
  0xfa, 0xac, 0x88, 0xbc, 0xe3, 0xc1, 0xa3, 0xbd, 0xdb, 0x5b, 0x31, 0xbe,
  0x97, 0xde, 0x5b, 0xbe, 0x2c, 0x05, 0x4c, 0xbe, 0xee, 0xd6, 0x8e, 0xbd,
  0x58, 0x87, 0xd8, 0xbd, 0x39, 0xcd, 0xbb, 0x3f, 0x99, 0x4f, 0xd1, 0x3d,
  0x8f, 0xb8, 0x7d, 0x3e, 0x22, 0x14, 0x39, 0xbe, 0x6b, 0xe0, 0x11, 0xbe,
  0xc2, 0xb7, 0x4f, 0xbe, 0xe9, 0x76, 0x86, 0x3d, 0xe4, 0x5b, 0xe0, 0x3c,
  0x47, 0xce, 0x43, 0xbe, 0xba, 0x2b, 0x1b, 0xbe, 0x3e, 0x52, 0x45, 0xbe,
  0x57, 0x38, 0x18, 0xbe, 0x8a, 0xae, 0x7a, 0xbd, 0x48, 0x2d, 0x70, 0xbe,
  0x58, 0xe8, 0xa0, 0xbe, 0x35, 0x7f, 0x0b, 0xbe, 0xeb, 0x86, 0xd2, 0x3e,
  0x9d, 0x1c, 0x2f, 0xbe, 0x37, 0xa3, 0xe1, 0x3c, 0x9f, 0x38, 0x61, 0xbc,
  0x43, 0x66, 0xac, 0x3d, 0x58, 0xc0, 0x21, 0xbd, 0xe4, 0x40, 0xad, 0xbd,
  0x52, 0xb0, 0xd3, 0xbd, 0x77, 0x22, 0x8d, 0xbe, 0x4a, 0xc2, 0xaf, 0x3d,
  0x86, 0x17, 0x6b, 0xbd, 0xef, 0xd6, 0x00, 0xbe, 0x86, 0x9e, 0x55, 0xbe,
  0x49, 0xa1, 0x74, 0xbe, 0x41, 0xce, 0x87, 0x3d, 0xd2, 0xac, 0x37, 0x3d,
  0x45, 0xf1, 0xe0, 0x3f, 0xd4, 0xb2, 0x58, 0x3d, 0xf0, 0x1a, 0x67, 0x3e,
  0x17, 0x09, 0x51, 0xbe, 0x93, 0x43, 0xa3, 0x3d, 0x9f, 0xcc, 0x75, 0xbd,
  0xe0, 0x0d, 0x46, 0x3e, 0x29, 0x12, 0x10, 0xbe, 0x94, 0x09, 0x37, 0xbd,
  0xbb, 0xa3, 0x16, 0xbd, 0x92, 0x7f, 0xd5, 0x3e, 0x94, 0x7e, 0x6e, 0xbd,
  0x2f, 0x06, 0x03, 0xbe, 0x54, 0xce, 0x61, 0xbe, 0x6f, 0xb7, 0x6d, 0xbe,
  0xe2, 0xa9, 0xf7, 0x3d, 0x87, 0x7b, 0xe5, 0x3f, 0x2e, 0xf6, 0x00, 0xbe,
  0x0c, 0x68, 0x65, 0x3d, 0xaf, 0x2c, 0xd2, 0x3d, 0x00, 0xe0, 0xfe, 0xbd,
  0x2a, 0x07, 0x36, 0x3b, 0x5f, 0x9c, 0xba, 0xbd, 0x58, 0x51, 0x52, 0xbe,
  0x46, 0x3a, 0x65, 0xbe, 0x5c, 0x97, 0xaa, 0x3d, 0xfd, 0x76, 0x6c, 0x3e,
  0xf1, 0xee, 0x27, 0xbe, 0x16, 0xeb, 0x81, 0xbe, 0xd1, 0xa0, 0xa2, 0xbd,
  0xce, 0xe0, 0x38, 0xbe, 0x30, 0xd4, 0x04, 0xbe, 0x05, 0xf3, 0xc1, 0x3f,
  0xe2, 0xba, 0x01, 0xbe, 0xba, 0x59, 0xff, 0x39, 0x28, 0x6f, 0x97, 0xbb,
  0xd0, 0xd5, 0x07, 0xbe, 0x27, 0x0d, 0xa5, 0x3e, 0xdd, 0xaa, 0x82, 0x3c,
  0xac, 0xea, 0x43, 0x3d, 0x38, 0xb5, 0x10, 0xbc, 0x75, 0x64, 0xd3, 0x3d,
  0x46, 0x3f, 0x50, 0x3e, 0x8d, 0xd8, 0xfe, 0xbd, 0xa1, 0x4c, 0xce, 0x3d,
  0x04, 0x43, 0x61, 0xbc, 0x50, 0xb5, 0x5b, 0xbe, 0xea, 0x3b, 0xa9, 0x3c,
  0x22, 0x6a, 0xd1, 0x3f, 0xde, 0xdd, 0x90, 0xbd, 0x1d, 0x48, 0x66, 0x3e,
  0x19, 0xac, 0x70, 0xbe, 0x86, 0xa7, 0xcc, 0xbd, 0x95, 0x95, 0x3c, 0x3d,
  0xec, 0x4b, 0x09, 0x3e, 0xae, 0x8f, 0x03, 0xba, 0x94, 0x21, 0x0e, 0xbd,
  0x86, 0x2b, 0x0d, 0xbe, 0xee, 0xa2, 0x55, 0x3d, 0xc0, 0xe5, 0xd8, 0x3c,
  0x47, 0xae, 0x04, 0x3c, 0x78, 0x3e, 0xa7, 0xbe, 0x7e, 0xff, 0xf3, 0xbd,
  0x41, 0xf1, 0xbb, 0x3d, 0xae, 0xef, 0x5b, 0x3f, 0x29, 0xdb, 0x07, 0x3e,
  0x33, 0x1f, 0x34, 0xbe, 0x07, 0xbf, 0x6a, 0xbe, 0xca, 0x0c, 0x10, 0x3d,
  0xa0, 0x1a, 0xab, 0xbe, 0xff, 0x13, 0x8d, 0x3d, 0x7a, 0x93, 0xdc, 0xbd,
  0xef, 0xf1, 0xdb, 0xbd, 0xef, 0x3e, 0x33, 0xbe, 0x40, 0x7d, 0x0e, 0x3d,
  0x71, 0x98, 0x8b, 0xbe, 0xf9, 0x4e, 0x20, 0xbe, 0x30, 0xad, 0x99, 0xbe,
  0xaa, 0xe5, 0x0f, 0xbe, 0x59, 0x55, 0xff, 0x3b, 0x18, 0x3a, 0x93, 0x3f,
  0xaf, 0xe6, 0x8d, 0xbd, 0x71, 0xf5, 0xd2, 0x3c, 0xc3, 0xda, 0x41, 0x3d,
  0x3c, 0x10, 0x7e, 0xbe, 0x3c, 0x56, 0x22, 0x3d, 0xd8, 0x06, 0x45, 0xbd,
  0xef, 0xf7, 0xcc, 0x3c, 0x7b, 0x5b, 0x2c, 0xbe, 0xba, 0x9b, 0x9b, 0xbd,
  0xde, 0xb6, 0xad, 0x3e, 0xe6, 0xaa, 0x61, 0xbe, 0x27, 0xbc, 0x2e, 0xbe,
  0x6a, 0x0d, 0x08, 0xbe, 0xc7, 0xb1, 0x85, 0xbe, 0xc0, 0x8f, 0x20, 0x3b,
  0x63, 0x5b, 0x24, 0x3f, 0xd3, 0xde, 0x41, 0x3e, 0xd1, 0xf4, 0x2f, 0x3e,
  0x2a, 0x10, 0x4b, 0xbc, 0x07, 0x27, 0x0f, 0xbd, 0x02, 0x6a, 0xd0, 0xbd,
  0x83, 0xd3, 0x3f, 0xbe, 0x55, 0xfc, 0x5c, 0xbe, 0x39, 0xd2, 0x55, 0xbe,
  0x02, 0x96, 0xd2, 0x3d, 0x9e, 0x12, 0x41, 0x3e, 0xb8, 0x5c, 0xd4, 0x3d,
  0x90, 0xbc, 0xe6, 0x3c, 0x87, 0x59, 0xd5, 0xbe, 0x36, 0xdc, 0x56, 0xbe,
  0xdd, 0xeb, 0x43, 0xbd, 0x2f, 0xec, 0x9e, 0x3f, 0xa9, 0x5c, 0x24, 0x3e,
  0xc0, 0x01, 0xe4, 0x3e, 0xbf, 0xc1, 0x85, 0xb7, 0x2b, 0x97, 0x95, 0xbd,
  0xf6, 0x4e, 0x4b, 0xbd, 0x6b, 0x24, 0x4c, 0xbd, 0x93, 0x49, 0x7d, 0xbe,
  0xf0, 0x5a, 0x8b, 0xbe, 0x23, 0x8a, 0xe1, 0xbd, 0xf0, 0x45, 0x2d, 0x3e,
  0x55, 0x0e, 0xea, 0xbd, 0x00, 0x0a, 0x48, 0xbe, 0x14, 0x6d, 0x98, 0xbe,
  0x78, 0xa2, 0x31, 0x3b, 0x36, 0xc8, 0x1c, 0x3e, 0x80, 0x90, 0xe4, 0x3f,
  0x83, 0x29, 0x61, 0x3d, 0xa0, 0xa1, 0x2e, 0x3f, 0x54, 0x8b, 0x2c, 0xbe,
  0xf5, 0x44, 0xac, 0xbd, 0xe3, 0x4b, 0x81, 0x3d, 0xc6, 0xd5, 0x68, 0xbd,
  0x5a, 0xaf, 0x09, 0xbd, 0xba, 0x6f, 0x12, 0xbe, 0xc1, 0x57, 0xbf, 0xbc,
  0x83, 0xfc, 0xa9, 0x3e, 0xaa, 0x59, 0x3e, 0xbe, 0xbc, 0x97, 0xd7, 0xbd,
  0x20, 0xbc, 0xd5, 0xbe, 0x8b, 0xe3, 0x60, 0xbe, 0x90, 0x1f, 0x15, 0xbd,
  0xb7, 0x5c, 0xa8, 0x3f, 0x3e, 0x26, 0xa8, 0xbd, 0x00, 0xf4, 0x11, 0x3f,
  0x16, 0xe5, 0xaf, 0x3c, 0x11, 0x0b, 0x67, 0xbe, 0x4e, 0x58, 0x1c, 0x3d,
  0x7d, 0x11, 0x28, 0xbd, 0x8f, 0xb9, 0xf7, 0xbd, 0x49, 0xf5, 0x40, 0xbe,
  0x7d, 0x3a, 0xa7, 0x3d, 0xfd, 0xfe, 0x61, 0x3e, 0x77, 0x6e, 0xde, 0x3b,
  0x56, 0x89, 0x57, 0xbe, 0x20, 0xbb, 0xb0, 0xbe, 0x81, 0xda, 0xff, 0xba,
  0x91, 0x29, 0x54, 0xbd, 0xac, 0x05, 0xcb, 0x3f, 0xc1, 0x07, 0x95, 0xbd,
  0x1c, 0x75, 0x85, 0x3d, 0xe4, 0x80, 0x6c, 0xbe, 0xd1, 0xbe, 0xd5, 0xbd,
  0x4e, 0x27, 0x62, 0x3e, 0xd2, 0x55, 0x3f, 0x3d, 0x0f, 0x93, 0x45, 0xbe,
  0xcd, 0xc5, 0x66, 0xbe, 0x17, 0x34, 0x19, 0xbe, 0xd4, 0x41, 0x49, 0x3e,
  0xcc, 0xac, 0x9e, 0xbb, 0xdd, 0x23, 0x19, 0x3d, 0x0f, 0xb3, 0x68, 0xbe,
  0xc9, 0xf5, 0x33, 0xbe, 0x7b, 0x96, 0xf3, 0xbd, 0x38, 0xd4, 0x62, 0x3f,
  0x06, 0x59, 0xd5, 0x3a, 0x4d, 0xea, 0x72, 0xbe, 0x78, 0x41, 0x45, 0xbe,
  0x43, 0x98, 0x15, 0xbe, 0xdf, 0xc1, 0x91, 0xbd, 0x18, 0x27, 0xeb, 0xbd,
  0x27, 0xff, 0x88, 0xbe, 0xa7, 0x16, 0x32, 0xbe, 0x55, 0xc2, 0x8e, 0xbe,
  0x93, 0x70, 0xf5, 0xbd, 0xcd, 0x18, 0xc7, 0x3d, 0xa7, 0xb9, 0x94, 0xbe,
  0x3e, 0x35, 0x48, 0xbe, 0x95, 0x5d, 0x76, 0x3d, 0xd3, 0x8e, 0x0d, 0x3e,
  0x08, 0xd2, 0xa9, 0x3f, 0x46, 0x16, 0x2e, 0xbd, 0x3b, 0xdd, 0xac, 0xbd,
  0xcc, 0xaf, 0x8f, 0xbe, 0xca, 0x45, 0xd7, 0xbe, 0xee, 0xad, 0x17, 0x3e,
  0xee, 0x38, 0x81, 0xbe, 0x45, 0x6c, 0xe0, 0xbe, 0xe3, 0x72, 0x82, 0xbe,
  0x5b, 0x44, 0xb6, 0xbc, 0x54, 0x1c, 0xd9, 0xbd, 0x50, 0x56, 0xca, 0xbe,
  0x4a, 0x2e, 0x94, 0xbe, 0x13, 0xa9, 0x43, 0xbd, 0x0a, 0x20, 0x14, 0xbe,
  0x9d, 0xaa, 0x9c, 0x3e, 0x1f, 0x0c, 0x67, 0xbe, 0xb6, 0x33, 0x22, 0x3e,
  0xe6, 0x02, 0x8d, 0xbd, 0x6d, 0xd2, 0x83, 0xbe, 0x0b, 0xdf, 0x8b, 0x3e,
  0xd9, 0xd0, 0x6d, 0x3d, 0xd8, 0xb5, 0x9b, 0x3e, 0x57, 0xfa, 0x77, 0xbe,
  0x1e, 0xaa, 0xa1, 0x3e, 0x2f, 0x61, 0x0d, 0x3e, 0x52, 0xa4, 0xe8, 0x3e,
  0x8c, 0x05, 0x6e, 0xbe, 0x25, 0x66, 0xd1, 0x3d, 0xa2, 0x47, 0x6a, 0x3d,
  0xc4, 0x72, 0x3a, 0x3d, 0xf8, 0x1d, 0xb6, 0x3e, 0x3f, 0xb3, 0x1f, 0xbf,
  0xda, 0x73, 0x0b, 0x3e, 0x80, 0x7a, 0x24, 0xbe, 0x52, 0x2c, 0x63, 0xbe,
  0x02, 0x32, 0x1d, 0x3e, 0x2d, 0xf2, 0xbf, 0xbb, 0x86, 0x42, 0xb6, 0x3e,
  0xfd, 0x13, 0x89, 0xbd, 0x34, 0xfb, 0x13, 0x3f, 0xb3, 0x5f, 0x58, 0xbd,
  0xcd, 0xdb, 0xaf, 0x3e, 0x6a, 0x5a, 0x53, 0xbe, 0xdd, 0x53, 0xbc, 0x3d,
  0x1f, 0xc8, 0xaa, 0x3d, 0x7e, 0x91, 0xb7, 0x3d, 0xc2, 0x14, 0x49, 0x3e,
  0xb5, 0x10, 0x30, 0xbf, 0xa7, 0x75, 0x02, 0x3d, 0x10, 0x66, 0x1c, 0x3d,
  0x0e, 0xda, 0xa8, 0xbe, 0x5e, 0x34, 0xaf, 0x3d, 0x54, 0x6c, 0xa6, 0x3b,
  0xf2, 0xe9, 0x6b, 0xbd, 0xc6, 0x1a, 0xa0, 0xbe, 0x14, 0x70, 0x6a, 0x3f,
  0xd1, 0x4a, 0xef, 0xba, 0xf5, 0xb5, 0x3b, 0x3f, 0xc2, 0x47, 0xb8, 0xbd,
  0x36, 0x1e, 0x4a, 0x3e, 0xef, 0x05, 0x89, 0x3d, 0x4b, 0x1f, 0xd7, 0x3d,
  0x21, 0xb0, 0x86, 0x3e, 0x0d, 0x71, 0x0e, 0xbf, 0xb4, 0xa8, 0x5d, 0x3d,
  0x3b, 0x8a, 0xa8, 0x3d, 0x43, 0xee, 0x29, 0xbe, 0x1a, 0x64, 0x44, 0xbe,
  0x0e, 0x7d, 0x75, 0xbd, 0x31, 0x69, 0x10, 0xbe, 0x42, 0xff, 0x19, 0xbd,
  0xa2, 0x6f, 0x10, 0x3e, 0x0a, 0x32, 0x9b, 0x3c, 0xac, 0x05, 0x8f, 0x3e,
  0xfc, 0xec, 0x4f, 0xbe, 0x39, 0x10, 0xf2, 0xbc, 0x0e, 0xd4, 0x19, 0x3d,
  0x99, 0xcc, 0x61, 0x3d, 0x25, 0x07, 0x26, 0x3e, 0x55, 0x96, 0x2e, 0xbf,
  0xad, 0xb2, 0x3e, 0x3e, 0xb8, 0x49, 0xf9, 0xbd, 0xfa, 0x6b, 0x6e, 0xbd,
  0x05, 0x21, 0xf0, 0xbd, 0x41, 0x2f, 0x79, 0x3b, 0xac, 0x0e, 0xed, 0xbd,
  0xd3, 0xd6, 0xc3, 0xbd, 0x58, 0x70, 0xd3, 0x3d, 0x32, 0xb5, 0x41, 0xbe,
  0x8c, 0x84, 0xc3, 0x3b, 0x9b, 0xd8, 0x9b, 0xbe, 0xde, 0x58, 0xff, 0xbd,
  0x05, 0x7c, 0x87, 0x3d, 0x86, 0xf3, 0xd0, 0x3c, 0xfc, 0x8c, 0x69, 0x3e,
  0x93, 0x2c, 0x9e, 0xbe, 0xee, 0x34, 0x0d, 0xbe, 0x07, 0xc7, 0x24, 0x3d,
  0xa4, 0x8f, 0x57, 0xbe, 0x96, 0xd6, 0x03, 0xbe, 0x3c, 0x5d, 0x05, 0xbe,
  0x97, 0x09, 0xce, 0xbe, 0x9d, 0xc5, 0xf0, 0xbd, 0x88, 0xb3, 0x00, 0xbe,
  0x2b, 0x37, 0x18, 0xbe, 0xf1, 0x4f, 0xf7, 0xbc, 0x19, 0xc7, 0x49, 0xbe,
  0xd8, 0xad, 0x49, 0x3d, 0x55, 0x45, 0xdb, 0x3c, 0x7f, 0x41, 0xb1, 0x3c,
  0xc2, 0x03, 0x1f, 0x3e, 0x57, 0x12, 0xb9, 0xbe, 0xbb, 0xe2, 0x68, 0x3d,
  0x48, 0x43, 0xcb, 0x3d, 0xe4, 0xd1, 0x19, 0xbd, 0xbd, 0xf7, 0xec, 0xbd,
  0xd8, 0x89, 0xcd, 0xbe, 0xd8, 0x85, 0xae, 0x3d, 0x17, 0x75, 0xcd, 0xbd,
  0x18, 0xae, 0x89, 0x3d, 0x5e, 0xb7, 0x98, 0xbd, 0x90, 0x1e, 0x1f, 0x3d,
  0x57, 0xac, 0x9d, 0xbd, 0x08, 0xff, 0x01, 0x3d, 0x2f, 0xcb, 0x26, 0xbe,
  0x8d, 0xec, 0x1d, 0xbd, 0x4e, 0xe6, 0xf2, 0xbc, 0x09, 0x03, 0x97, 0x3e,
  0x33, 0xde, 0x68, 0x3d, 0xa1, 0x04, 0xf2, 0x3d, 0x18, 0x70, 0xc2, 0xbd,
  0x59, 0x14, 0x39, 0x3e, 0x96, 0x48, 0x40, 0xbd, 0x3e, 0x05, 0x77, 0x3e,
  0x15, 0xfc, 0x81, 0xbe, 0xb8, 0x7c, 0xa2, 0x3e, 0xe3, 0x45, 0x05, 0x3e,
  0x18, 0xde, 0xa6, 0x3e, 0xc0, 0x08, 0xa4, 0x3d, 0x85, 0x42, 0x70, 0xbe,
  0x66, 0x3e, 0xdc, 0xbd, 0x77, 0x95, 0x02, 0x3e, 0xee, 0x8e, 0x84, 0xbe,
  0x13, 0x32, 0x8a, 0x3f, 0x29, 0xcf, 0x4d, 0xbe, 0xb7, 0xaa, 0xc9, 0x3d,
  0x08, 0x94, 0x21, 0x3d, 0x60, 0x51, 0xca, 0x3d, 0x7b, 0x0f, 0x28, 0xbe,
  0x2c, 0x7b, 0xe0, 0x3d, 0x12, 0x0d, 0x15, 0x3e, 0xdc, 0x4d, 0x80, 0x3e,
  0x89, 0x7a, 0xdf, 0x3d, 0x62, 0x6a, 0xe8, 0x3e, 0xdd, 0x5a, 0xdb, 0x3c,
  0x75, 0x15, 0xb3, 0x3d, 0xd9, 0x03, 0xc8, 0xbd, 0x9e, 0xa2, 0x70, 0x3e,
  0xe9, 0xab, 0x59, 0x3e, 0x54, 0xb6, 0x84, 0x3f, 0x06, 0x28, 0x6c, 0xbd,
  0xda, 0x33, 0xed, 0x3e, 0x35, 0xa2, 0x9c, 0x3c, 0x99, 0x80, 0x9f, 0x3e,
  0x57, 0xbc, 0xfa, 0xbe, 0x48, 0x94, 0x3a, 0x3e, 0xec, 0x8d, 0x60, 0xbd,
  0x0b, 0x9a, 0xbc, 0x3e, 0x43, 0x41, 0xb0, 0x3d, 0xe9, 0xbb, 0xee, 0x3e,
  0x4b, 0x78, 0x41, 0x3e, 0x29, 0xc3, 0xa0, 0x3e, 0xb2, 0xa4, 0x16, 0xbe,
  0x73, 0xba, 0xe6, 0x3d, 0xfb, 0xbc, 0x1e, 0xbe, 0x87, 0x65, 0xa6, 0x3f,
  0x6c, 0x60, 0xd3, 0x3d, 0x68, 0xa4, 0x1f, 0x3e, 0x68, 0xc9, 0x94, 0x3d,
  0x03, 0xb3, 0xf8, 0xbd, 0x86, 0xb8, 0x20, 0xbe, 0x26, 0x30, 0x79, 0x3c,
  0x6b, 0xf1, 0x36, 0xbc, 0xc8, 0x9f, 0x4b, 0x3e, 0x2c, 0x07, 0xa5, 0x3d,
  0xad, 0xa1, 0x1d, 0x3e, 0x73, 0x92, 0x9b, 0x3c, 0xca, 0xbe, 0x85, 0x3e,
  0x30, 0xc9, 0x6c, 0xbe, 0xdd, 0xe6, 0x8d, 0xbc, 0x9b, 0xdf, 0x45, 0xbe,
  0x9e, 0x68, 0x6c, 0x3e, 0x21, 0xd2, 0x4b, 0x3d, 0xd4, 0x0d, 0x79, 0x3e,
  0xcd, 0x21, 0x85, 0xbd, 0x60, 0xd1, 0xe0, 0xbd, 0x0d, 0x58, 0x7d, 0xbd,
  0x51, 0xa6, 0x34, 0xbd, 0xd5, 0x01, 0x78, 0xbe, 0x0a, 0x17, 0x6b, 0x3e,
  0x3d, 0x06, 0x26, 0xbe, 0x8b, 0x1f, 0xe8, 0x3c, 0x11, 0x47, 0x5a, 0x3d,
  0xfe, 0x7b, 0xf3, 0x3d, 0xbd, 0xba, 0xd0, 0xbe, 0xa1, 0x18, 0xd5, 0xbc,
  0xd6, 0xdb, 0x84, 0xbd, 0x47, 0x70, 0x3b, 0x3f, 0x5d, 0x2d, 0x0a, 0xbe,
  0xb7, 0xf8, 0x47, 0xbe, 0xad, 0x3a, 0x0c, 0xbe, 0xa1, 0xdb, 0x50, 0xbe,
  0x04, 0x03, 0xfa, 0xbd, 0x0d, 0x4b, 0x3a, 0x3d, 0x0f, 0xa6, 0xb4, 0xbe,
  0x33, 0x97, 0x02, 0x3e, 0x2a, 0xaf, 0xff, 0x3d, 0x11, 0x25, 0x9c, 0x3d,
  0xd0, 0xc7, 0x48, 0xbd, 0xfa, 0xcd, 0x1e, 0xbd, 0x59, 0x4e, 0xae, 0xbe,
  0x1a, 0xc7, 0x3b, 0xbd, 0x1a, 0xa9, 0x04, 0xbe, 0x4c, 0x4e, 0x9b, 0x3f,
  0xdf, 0x24, 0x88, 0xbd, 0xe7, 0x37, 0x08, 0xbe, 0xc3, 0xe3, 0x36, 0x3c,
  0xe5, 0x1c, 0x3c, 0xbe, 0x8a, 0xe0, 0x95, 0x3d, 0x4f, 0xc8, 0x98, 0xbc,
  0x1b, 0xa1, 0xe3, 0x3d, 0x8e, 0xe3, 0x4b, 0xbd, 0x0a, 0xd4, 0xd4, 0xbd,
  0xb9, 0x64, 0x92, 0xbc, 0x69, 0x25, 0x1b, 0xbe, 0x1a, 0xd4, 0x66, 0xbd,
  0x42, 0x09, 0x51, 0xbe, 0x85, 0x6f, 0xbe, 0xbc, 0xf3, 0x96, 0xef, 0x3e,
  0xb2, 0xdf, 0x33, 0x3e, 0x99, 0xe9, 0x05, 0x3e, 0x45, 0x82, 0x32, 0xbe,
  0xc4, 0xd4, 0x36, 0x3d, 0x85, 0xeb, 0xdf, 0x3d, 0xe4, 0x1b, 0x32, 0x3e,
  0xd3, 0x1f, 0x47, 0x3d, 0xf1, 0x0e, 0xcf, 0xbc, 0xa4, 0x30, 0xb0, 0xbd,
  0x76, 0x60, 0xd5, 0xbd, 0xec, 0x08, 0x0a, 0x3e, 0x30, 0xd9, 0x82, 0x3e,
  0x8a, 0x7e, 0xd1, 0xbc, 0xa9, 0xa5, 0x17, 0xbe, 0x77, 0x1f, 0x8d, 0xbd,
  0x1b, 0x8e, 0x95, 0x3e, 0xfe, 0x80, 0xc7, 0xbe, 0x4f, 0xe3, 0x44, 0xbc,
  0xa9, 0x25, 0x0e, 0xbe, 0x9c, 0xe5, 0xbb, 0x3d, 0x1a, 0x97, 0x38, 0x3e,
  0x52, 0xc6, 0x43, 0x3c, 0xe9, 0xc6, 0x3c, 0x3e, 0xa0, 0x66, 0x80, 0x3e,
  0x6a, 0xe7, 0x0a, 0x3e, 0x70, 0x7f, 0x73, 0xbd, 0xfc, 0x54, 0x1c, 0x3e,
  0x4e, 0x69, 0xff, 0x3d, 0x75, 0xee, 0xb0, 0x3c, 0x5c, 0x38, 0x01, 0xbe,
  0xb9, 0xb9, 0x86, 0x3e, 0x3a, 0xb2, 0xd4, 0x3e, 0xc4, 0xe6, 0x8a, 0xbd,
  0x94, 0xe8, 0xd2, 0x3d, 0x29, 0xd5, 0x1d, 0xbe, 0x15, 0x00, 0x11, 0x3e,
  0xe6, 0x09, 0x67, 0x3e, 0x73, 0xfd, 0x55, 0x3d, 0x01, 0x43, 0xd5, 0xbc,
  0x7d, 0x27, 0x12, 0xbe, 0xcf, 0x4e, 0xdb, 0x3e, 0x0c, 0x58, 0x8f, 0xbd,
  0xea, 0x7f, 0xef, 0x3e, 0xe9, 0x5d, 0x4b, 0x3e, 0x88, 0x33, 0x67, 0x3d,
  0x96, 0x58, 0x00, 0xbe, 0x8d, 0xca, 0x82, 0x3e, 0x09, 0xef, 0x42, 0x3d,
  0xee, 0x73, 0xda, 0xbe, 0x7a, 0xb1, 0x16, 0xbd, 0xc4, 0x35, 0x22, 0x3e,
  0xb4, 0x98, 0x38, 0xbe, 0xdb, 0x5a, 0xa9, 0x38, 0x4c, 0xe6, 0xbf, 0xbd,
  0xc8, 0x88, 0x29, 0xbd, 0x31, 0x03, 0xc0, 0x3c, 0xf4, 0x6c, 0x47, 0x3d,
  0x38, 0x58, 0x11, 0xbe, 0x6f, 0xc4, 0xce, 0x3d, 0x79, 0xf8, 0x39, 0x3e,
  0x08, 0x48, 0x0a, 0xbe, 0x1f, 0x09, 0x13, 0xbe, 0x59, 0x63, 0x5a, 0xbd,
  0x87, 0x22, 0x4d, 0x3e, 0xca, 0xf1, 0x14, 0xbe, 0x24, 0x97, 0x3b, 0xbd,
  0x06, 0x46, 0x66, 0x3c, 0x77, 0x6b, 0x10, 0x3d, 0x8f, 0xa9, 0xa8, 0xbc,
  0xe0, 0x36, 0x0a, 0x3c, 0x84, 0x64, 0xc9, 0xbc, 0xd9, 0xdb, 0xd3, 0xbc,
  0x4f, 0x53, 0x66, 0xbe, 0x62, 0x2f, 0xb0, 0xbd, 0xe3, 0x12, 0x2e, 0xb9,
  0xb8, 0x55, 0x4f, 0xbe, 0xcd, 0xe5, 0x57, 0x3e, 0xad, 0xe4, 0x29, 0xbe,
  0x66, 0x7b, 0x97, 0x3d, 0xb2, 0xaf, 0xbb, 0x3e, 0xe8, 0x31, 0x95, 0xbe,
  0x1a, 0xb2, 0x3c, 0xbd, 0x3e, 0x3e, 0x42, 0xbe, 0xc0, 0xec, 0xb7, 0xbc,
  0x2a, 0x06, 0x26, 0xbe, 0xb1, 0xa3, 0xbb, 0xba, 0xf0, 0xf4, 0x09, 0x3c,
  0x16, 0x7e, 0x35, 0x3d, 0x61, 0xdf, 0x31, 0xbe, 0x2e, 0xa8, 0x05, 0xbe,
  0x86, 0xce, 0x25, 0x3c, 0x93, 0x1b, 0x4e, 0xbe, 0xb9, 0xd9, 0xa1, 0xbd,
  0x37, 0xa4, 0xe7, 0xbd, 0x1f, 0x23, 0xa3, 0xbd, 0x9b, 0x5e, 0xe0, 0x3e,
  0x36, 0xf9, 0xe0, 0xbe, 0x78, 0xaa, 0x35, 0xbe, 0x69, 0x84, 0xb2, 0x3e,
  0x0a, 0x60, 0x25, 0x3e, 0xb5, 0x57, 0xf5, 0xbd, 0xe7, 0x8b, 0x9b, 0xbd,
  0x4c, 0xd7, 0x3b, 0x3e, 0x7d, 0x43, 0x08, 0x3e, 0xc2, 0x87, 0x85, 0xbe,
  0xb3, 0x81, 0xa7, 0x3d, 0x72, 0xab, 0x2b, 0xbe, 0xe9, 0xb7, 0xff, 0x3d,
  0x08, 0x4f, 0x60, 0xbe, 0xe1, 0xe4, 0x9b, 0x3d, 0xd0, 0x4c, 0x5d, 0xbe,
  0xc8, 0x91, 0xb7, 0xbe, 0xe7, 0xab, 0xc5, 0xbe, 0x49, 0x85, 0x17, 0x3c,
  0x5f, 0xff, 0x5a, 0x3e, 0xeb, 0xc1, 0x70, 0xbb, 0xb2, 0x5b, 0x77, 0x3d,
  0x7b, 0xe5, 0x01, 0xbe, 0xfb, 0xb1, 0xa4, 0x3e, 0xe9, 0xc5, 0xea, 0x3d,
  0x34, 0x69, 0x4c, 0x3e, 0x7c, 0x33, 0x65, 0xbe, 0x8d, 0x38, 0x12, 0xbe,
  0x1c, 0x21, 0x75, 0x3e, 0x62, 0x13, 0x64, 0xbd, 0xe3, 0x2b, 0xcd, 0x3c,
  0x00, 0x88, 0x74, 0xbe, 0xed, 0x5e, 0x97, 0xbe, 0x2c, 0xa7, 0xca, 0x3f,
  0xe3, 0x48, 0xaf, 0x3d, 0xb3, 0xda, 0x7e, 0x3e, 0xf6, 0x21, 0x7b, 0x3e,
  0x9a, 0xca, 0x5a, 0xbe, 0x09, 0x7d, 0x02, 0xbe, 0xcf, 0x34, 0xb5, 0x3e,
  0xf6, 0xe4, 0xfd, 0xbd, 0x3b, 0x0b, 0x5c, 0x3e, 0x92, 0x1a, 0x07, 0x3e,
  0x98, 0xe4, 0x9b, 0xbe, 0xca, 0x08, 0xf4, 0x3e, 0xbd, 0x26, 0x8e, 0x3e,
  0x15, 0x8c, 0x91, 0xbd, 0xb0, 0x93, 0x46, 0xbe, 0xea, 0x6f, 0x05, 0xbe,
  0xba, 0x9a, 0xe8, 0x3e, 0xbd, 0x59, 0x0d, 0xbe, 0xb9, 0xef, 0x5b, 0xbd,
  0x0a, 0x57, 0x99, 0xbd, 0xbc, 0xac, 0x82, 0xbd, 0xda, 0x42, 0xb6, 0x3c,
  0xb1, 0xa7, 0x96, 0x3e, 0x7b, 0x9c, 0x12, 0xbd, 0xfe, 0xb5, 0xb8, 0x3b,
  0x9c, 0x00, 0xa1, 0x3d, 0x3e, 0xe1, 0x5c, 0x3b, 0x11, 0x3a, 0x24, 0x3f,
  0xbc, 0x23, 0x3b, 0x3e, 0x10, 0xf8, 0x50, 0xbd, 0x91, 0x25, 0xe3, 0xbd,
  0x37, 0x47, 0xf1, 0x3c, 0x5a, 0x54, 0x7d, 0x3f, 0x43, 0xb0, 0x1e, 0xbd,
  0x32, 0xa3, 0x64, 0x3e, 0x38, 0x14, 0x0d, 0x3e, 0x55, 0xbf, 0x08, 0xbf,
  0xe7, 0x6a, 0x7a, 0x3c, 0x79, 0x54, 0xe2, 0xbd, 0x50, 0xf3, 0x06, 0x3e,
  0x12, 0xba, 0xe2, 0xbe, 0x76, 0x38, 0x04, 0x3e, 0xd0, 0x8d, 0x95, 0xbe,
  0x0a, 0xf0, 0x61, 0x3e, 0x1d, 0x5e, 0x1d, 0x3e, 0xeb, 0x2b, 0xc2, 0xbc,
  0x78, 0x82, 0x60, 0xbe, 0x25, 0xa6, 0x59, 0xbe, 0x4f, 0x89, 0x02, 0x3f,
  0x4f, 0x90, 0x8d, 0xbd, 0x1e, 0x11, 0x84, 0x3e, 0xaf, 0x89, 0x0b, 0x3d,
  0xd3, 0xe5, 0xc6, 0xbe, 0xb9, 0xc9, 0xfb, 0x3c, 0xb2, 0x30, 0x9b, 0xbd,
  0xc4, 0x82, 0x66, 0x3e, 0xb0, 0x54, 0xc0, 0xbe, 0x0c, 0xb2, 0xb6, 0x3d,
  0xac, 0x4b, 0xb0, 0xbe, 0x15, 0x4f, 0xa7, 0x3e, 0x81, 0x8c, 0xab, 0xbe,
  0x50, 0x54, 0xa0, 0xbc, 0x35, 0x67, 0x6b, 0xbe, 0x09, 0xc5, 0xd5, 0xbd,
  0x56, 0xe9, 0x89, 0x3f, 0x43, 0xc2, 0x23, 0x3e, 0x56, 0xbb, 0xd0, 0x3c,
  0xb3, 0x2c, 0x8c, 0x3e, 0x5a, 0x64, 0xba, 0xbd, 0xfb, 0xa1, 0xb2, 0x3b,
  0x6c, 0x47, 0xdf, 0x3c, 0x42, 0xc8, 0xc5, 0xbd, 0x47, 0xdb, 0xaf, 0xbc,
  0xe7, 0x9f, 0x96, 0xbd, 0x6a, 0x04, 0x5a, 0xbe, 0xae, 0x66, 0x87, 0x3e,
  0x9f, 0x23, 0x91, 0x3c, 0xdc, 0x5a, 0x9c, 0xbc, 0x27, 0xa0, 0x07, 0xbe,
  0x8e, 0xf6, 0x45, 0xbe, 0x24, 0xdc, 0x9f, 0x3f, 0x8e, 0xc0, 0x10, 0x3b,
  0x83, 0x35, 0xdb, 0x3d, 0x45, 0xc1, 0x07, 0x3e, 0xec, 0xd1, 0xda, 0x3d,
  0xaf, 0x5e, 0x90, 0xbe, 0xef, 0x94, 0xc4, 0xbd, 0xe2, 0x52, 0x1d, 0x3c,
  0xb5, 0xf5, 0x28, 0xbe, 0x5c, 0x03, 0x37, 0xbe, 0x06, 0x1d, 0xac, 0xbc,
  0x00, 0x92, 0xc6, 0x3c, 0x82, 0xbf, 0x5c, 0xbe, 0x90, 0xd2, 0x32, 0xbe,
  0x5a, 0x86, 0x90, 0xbe, 0xc2, 0xdd, 0x87, 0xbd, 0x23, 0x36, 0x02, 0x3f,
  0x95, 0x22, 0x91, 0xbd, 0x1f, 0x11, 0x98, 0xbd, 0x3b, 0x42, 0x73, 0x3d,
  0x4f, 0x59, 0x13, 0xbe, 0x4b, 0xa3, 0x25, 0xbe, 0xf3, 0x14, 0x0f, 0xbe,
  0xdc, 0x6d, 0x1c, 0x3e, 0x90, 0xd5, 0x93, 0xbd, 0x45, 0xdb, 0xb4, 0x3c,
  0xa8, 0x07, 0xd7, 0xbd, 0x61, 0xca, 0x4e, 0xbe, 0xbb, 0x89, 0xa4, 0xbd,
  0x5f, 0xb7, 0xa1, 0xbe, 0xe7, 0x03, 0x98, 0xbd, 0x8c, 0x73, 0xfe, 0x3d,
  0x75, 0x1a, 0x03, 0x40, 0x20, 0xe2, 0x25, 0x3d, 0xa4, 0x7d, 0x22, 0xbd,
  0x86, 0x50, 0x05, 0xbe, 0xdb, 0x6c, 0x78, 0xbe, 0x70, 0x85, 0x4b, 0xbc,
  0xee, 0xd1, 0x87, 0xbd, 0x5e, 0xf7, 0xf0, 0x3d, 0x52, 0x95, 0x6d, 0xbc,
  0xf9, 0x3f, 0xd7, 0xbd, 0xc9, 0x60, 0x94, 0x3e, 0xa1, 0xdb, 0xbb, 0xbd,
  0x0f, 0xe7, 0x65, 0xbe, 0x0a, 0x32, 0x0b, 0xbe, 0xfc, 0x4d, 0xa1, 0xbc,
  0x15, 0x60, 0x3c, 0x3e, 0x95, 0xb2, 0xc8, 0x3f, 0x9c, 0x61, 0x3f, 0x3e,
  0x9d, 0x49, 0x10, 0x3e, 0x70, 0xc9, 0xbf, 0x3d, 0xa5, 0xf0, 0x73, 0xbe,
  0xe0, 0x3d, 0x4c, 0xbe, 0xb1, 0x7d, 0xb2, 0x3c, 0x16, 0xbd, 0x84, 0x3d,
  0x83, 0x4a, 0x50, 0xbe, 0xb5, 0x61, 0x22, 0xbe, 0x0b, 0xcc, 0x91, 0x3e,
  0x54, 0xd3, 0x73, 0xbd, 0x7e, 0xed, 0x94, 0x3d, 0xaa, 0x28, 0xad, 0xbd,
  0x27, 0xee, 0x81, 0x3d, 0x78, 0x4d, 0x4d, 0x3d, 0x49, 0xa3, 0xdc, 0x3f,
  0xc9, 0x41, 0x0b, 0x3e, 0xaa, 0x59, 0xee, 0x3c, 0x50, 0xa1, 0x9e, 0xbd,
  0x22, 0xf1, 0xd8, 0xbd, 0x11, 0x7d, 0x33, 0xbe, 0x56, 0x28, 0x4b, 0xbd,
  0x1f, 0x42, 0xd9, 0xbd, 0x42, 0xe2, 0x96, 0x3d, 0x5e, 0xf2, 0xe3, 0x3d,
  0x27, 0x14, 0x04, 0x3e, 0xf1, 0xda, 0xc9, 0xbd, 0xaf, 0x9a, 0x83, 0xbe,
  0x40, 0x9c, 0x99, 0x3c, 0x68, 0x1d, 0x20, 0xbe, 0x0d, 0x2e, 0xbd, 0xbc,
  0xa6, 0x15, 0xdf, 0x3f, 0x11, 0x82, 0xee, 0x3d, 0x92, 0x2c, 0x0b, 0x3e,
  0xa3, 0x82, 0x9d, 0x3d, 0xa2, 0xbb, 0x0f, 0xbd, 0xdb, 0xf4, 0x10, 0xbd,
  0x0c, 0xfa, 0x3f, 0x3d, 0xb8, 0xc9, 0xa2, 0xbd, 0x5d, 0x46, 0x5a, 0xbe,
  0x92, 0x89, 0xba, 0xbd, 0xe2, 0x6f, 0x5f, 0x3e, 0x7d, 0x97, 0xfc, 0xbd,
  0xfe, 0xa1, 0xc1, 0xbc, 0x1c, 0x86, 0xee, 0xbd, 0xde, 0xb6, 0xa1, 0xbe,
  0x30, 0xb7, 0xc9, 0x3d, 0x0f, 0x05, 0xb9, 0x3f, 0x02, 0xa8, 0x47, 0xbd,
  0x72, 0x3b, 0x28, 0xbe, 0x5b, 0xef, 0xd3, 0xbc, 0x8a, 0xab, 0x90, 0x3c,
  0x49, 0x12, 0x84, 0x3d, 0x38, 0xa1, 0xc8, 0x3d, 0xc3, 0xf5, 0x36, 0x3d,
  0x3c, 0x37, 0x19, 0xbe, 0xf6, 0x27, 0xb8, 0xbc, 0x53, 0x50, 0x7b, 0xbe,
  0x18, 0x41, 0x2f, 0xbc, 0xb9, 0xa7, 0xf6, 0x3b, 0xca, 0xb0, 0x50, 0xbe,
  0xcb, 0x07, 0x74, 0xbd, 0xc6, 0xca, 0xbb, 0xbd, 0x76, 0x90, 0x75, 0x3f,
  0xe7, 0xbd, 0x3d, 0xbe, 0x06, 0xcf, 0xc4, 0xbe, 0x7b, 0xc7, 0x83, 0xbe,
  0x79, 0xbf, 0x02, 0xbf, 0x2f, 0xbb, 0xc4, 0x3d, 0x29, 0xa9, 0xad, 0xbe,
  0x4a, 0x26, 0xc0, 0xbe, 0x80, 0xad, 0x92, 0xbe, 0x4a, 0x5a, 0xc9, 0x3c,
  0x1a, 0x2f, 0x1e, 0xbe, 0x8e, 0x23, 0xc2, 0xbe, 0xb9, 0x29, 0xb3, 0xbe,
  0xe5, 0x86, 0xfa, 0xbc, 0xbf, 0x82, 0x0f, 0xbe, 0xa0, 0x0b, 0x72, 0x3e,
  0xb5, 0x9a, 0xc6, 0xbe, 0x7f, 0x02, 0x3d, 0x3d, 0xbb, 0xde, 0xec, 0xbe,
  0xa0, 0x96, 0xd6, 0xbe, 0xdf, 0x46, 0x11, 0x3d, 0x60, 0xe3, 0x99, 0x3d,
  0xad, 0x97, 0x24, 0xbd, 0x45, 0xef, 0xe8, 0xbe, 0xca, 0x25, 0xbd, 0x3e,
  0x3a, 0x48, 0x8e, 0x3e, 0x8b, 0x34, 0xd1, 0x3e, 0xc1, 0xc6, 0xca, 0x3c,
  0x1d, 0x54, 0x03, 0xbd, 0xa6, 0x45, 0xe1, 0x3c, 0x8c, 0xca, 0xce, 0x3d,
  0x06, 0x2b, 0x5b, 0x3e, 0x8b, 0xa3, 0x1e, 0xbe, 0xed, 0x66, 0xd9, 0xbd,
  0x84, 0xd0, 0x55, 0xbc, 0xd9, 0x62, 0xcb, 0xbe, 0x1d, 0x36, 0x0a, 0x3e,
  0x19, 0xf9, 0x42, 0x3c, 0x0a, 0x25, 0x03, 0x3d, 0x90, 0x02, 0x62, 0xbe,
  0x7f, 0x2b, 0x47, 0x3f, 0x72, 0x7f, 0x8d, 0x3d, 0x3f, 0x86, 0xe2, 0x3e,
  0xa7, 0xc7, 0x72, 0xbe, 0x20, 0x2f, 0x5f, 0xbd, 0x5a, 0xde, 0x9f, 0x3c,
  0x24, 0x1e, 0x76, 0x3d, 0x15, 0xbe, 0xd1, 0x3d, 0xac, 0xb6, 0xb6, 0xbd,
  0xd6, 0xc5, 0x2f, 0x3e, 0xf3, 0xcb, 0xfe, 0xbd, 0x37, 0x0c, 0x3c, 0xbe,
  0xe9, 0x82, 0x88, 0x3e, 0x0e, 0x06, 0x43, 0xbd, 0x36, 0x66, 0x72, 0xbe,
  0x85, 0x46, 0x66, 0xbe, 0xa3, 0x68, 0x42, 0x3f, 0xdb, 0x94, 0x10, 0x3e,
  0xe8, 0x5a, 0x03, 0x3f, 0x55, 0x6c, 0xa9, 0xbd, 0x67, 0x7b, 0x49, 0x3e,
  0x62, 0x3f, 0x89, 0x3d, 0x0b, 0x00, 0x1a, 0x3d, 0x6e, 0x8e, 0x7d, 0x3e,
  0xbb, 0xb3, 0xa7, 0xbe, 0x96, 0x2d, 0x2e, 0x3e, 0x57, 0x78, 0x23, 0xbe,
  0xe8, 0x5a, 0xbb, 0xbe, 0x13, 0x37, 0xce, 0xbe, 0x1d, 0x22, 0xd1, 0xbd,
  0xb2, 0x91, 0x9a, 0xbe, 0xfa, 0xe0, 0xa7, 0xbe, 0x36, 0x17, 0x21, 0x3e,
  0x13, 0xbe, 0x0c, 0x3e, 0x92, 0xdd, 0x8a, 0x3e, 0x92, 0x90, 0x84, 0xbe,
  0xba, 0x49, 0xa3, 0xbd, 0x64, 0x16, 0x82, 0x3d, 0xc1, 0xf9, 0x34, 0x3d,
  0xca, 0x7f, 0xf6, 0x3d, 0xdb, 0xd9, 0xda, 0xbe, 0x3a, 0xde, 0x34, 0x3b,
  0x98, 0xe1, 0x5a, 0xbd, 0x5d, 0x92, 0x4e, 0xbe, 0x8a, 0x18, 0x77, 0xbe,
  0x37, 0x6a, 0x21, 0xba, 0xc8, 0xeb, 0xb6, 0xbe, 0xe8, 0xa3, 0x52, 0xbe,
  0xd4, 0xf9, 0x20, 0x3e, 0x90, 0xf9, 0xbe, 0xbd, 0x03, 0xd7, 0x9a, 0x3d,
  0x4f, 0xa7, 0x73, 0xbe, 0x6f, 0x87, 0x8e, 0xbd, 0x3f, 0xb0, 0xf6, 0x3c,
  0xb1, 0xee, 0xf4, 0xbc, 0xf8, 0x4e, 0x63, 0x3e, 0xe8, 0x38, 0xe1, 0xbe,
  0xe2, 0xc9, 0x99, 0x3b, 0x6d, 0x7e, 0x8f, 0xbc, 0x21, 0xbb, 0x8e, 0xbe,
  0xab, 0x36, 0x53, 0xbe, 0xd4, 0xb3, 0x40, 0xbe, 0x7e, 0xfd, 0x31, 0xbf,
  0x9e, 0x61, 0xd2, 0xbd, 0x3a, 0xa0, 0xb3, 0xbd, 0x77, 0x5d, 0xe7, 0x3c,
  0xe3, 0x63, 0x1b, 0xbd, 0x44, 0x56, 0x65, 0xbe, 0xd2, 0xe5, 0x8b, 0xbd,
  0x1c, 0x23, 0xf4, 0x3c, 0x3d, 0x95, 0x69, 0xba, 0xc4, 0x32, 0x1d, 0x3e,
  0x06, 0xcd, 0x0d, 0xbe, 0x4e, 0xdd, 0x93, 0xbd, 0x11, 0xb8, 0x0e, 0xbd,
  0x1c, 0x60, 0xf6, 0xbe, 0xec, 0x8c, 0x99, 0xbe, 0xd2, 0x58, 0x85, 0xbd,
  0x32, 0xdc, 0x9f, 0xbe, 0xee, 0xfb, 0xc5, 0xbc, 0xc1, 0x8c, 0x03, 0xbe,
  0xf8, 0x93, 0x60, 0xbf, 0x06, 0x54, 0x36, 0xbe, 0xeb, 0xec, 0x11, 0xbf,
  0xea, 0x2a, 0xab, 0xbd, 0xb6, 0xe1, 0x58, 0xbe, 0xc9, 0xda, 0xcf, 0xbd,
  0x93, 0x75, 0x6d, 0x3e, 0xb5, 0xe0, 0x47, 0xbe, 0x88, 0x4a, 0xc3, 0x3d,
  0x76, 0xc8, 0xe3, 0xbd, 0xf3, 0xf8, 0x04, 0xbe, 0x8d, 0x70, 0x82, 0xbe,
  0xb2, 0x3b, 0x4c, 0xbd, 0xf7, 0xbc, 0xa7, 0xbe, 0x7f, 0x58, 0x01, 0x3c,
  0x8c, 0x0c, 0x1c, 0xbc, 0xdf, 0x29, 0x1f, 0xbf, 0xb6, 0x02, 0xec, 0xbd,
  0xc4, 0xb4, 0x8d, 0xbe, 0x5b, 0xc4, 0xf6, 0x3d, 0xd3, 0x01, 0xac, 0xbd,
  0x2e, 0x7b, 0xa3, 0x3d, 0x69, 0x86, 0x9f, 0x3e, 0x36, 0x76, 0x4d, 0x3c,
  0xa3, 0xc1, 0xaa, 0x3d, 0xd1, 0xe2, 0x48, 0xbe, 0xed, 0x8d, 0xc0, 0xbc,
  0x08, 0x6a, 0x62, 0xbe, 0x53, 0x53, 0x90, 0xbc, 0xa8, 0x8a, 0xd2, 0xbe,
  0x95, 0x81, 0x17, 0xbe, 0xa0, 0xe1, 0x3d, 0xbe, 0xbf, 0x4c, 0x00, 0xbf,
  0x17, 0xb2, 0x12, 0xbe, 0x23, 0x0f, 0x0e, 0xbe, 0xb2, 0x1c, 0xd6, 0xbd,
  0x04, 0x2c, 0x3f, 0xbe, 0x49, 0xbf, 0x38, 0xbd, 0x9d, 0x77, 0xde, 0x3b,
  0x76, 0x4b, 0xe0, 0x3d, 0x78, 0xcd, 0x20, 0x3e, 0xd1, 0x69, 0xb7, 0xbe,
  0x6d, 0xb5, 0x1d, 0xbe, 0x31, 0x1a, 0xc8, 0xbe, 0xbc, 0xa9, 0x64, 0xbd,
  0x5d, 0x81, 0xa4, 0xbe, 0x20, 0x45, 0x10, 0x3d, 0x4c, 0xea, 0xfa, 0xbe,
  0x61, 0xfd, 0x11, 0xbf, 0x4a, 0xa3, 0x04, 0xbf, 0x76, 0x93, 0x13, 0xbf,
  0xee, 0x5c, 0x82, 0xbe, 0x6a, 0x74, 0x5a, 0xbe, 0xec, 0xb8, 0x28, 0xbd,
  0x59, 0x19, 0xbb, 0xbc, 0xfa, 0xff, 0xc0, 0x3d, 0xab, 0x37, 0xdb, 0x3d,
  0x82, 0xfd, 0xc5, 0xbe, 0xf3, 0xe8, 0x3e, 0xbd, 0x78, 0x4c, 0xf3, 0x3e,
  0x9e, 0x81, 0xce, 0x3c, 0xb7, 0x98, 0xa2, 0x3e, 0x0e, 0xaa, 0x67, 0x3e,
  0x15, 0x74, 0x70, 0x3c, 0x21, 0xf0, 0x79, 0xbd, 0x23, 0x12, 0x49, 0xbd,
  0x47, 0x49, 0x9c, 0x3e, 0xf6, 0x8f, 0x2f, 0x3c, 0x94, 0xae, 0x53, 0xbe,
  0x31, 0x4c, 0xeb, 0xbc, 0x61, 0x4d, 0x10, 0xbc, 0x3f, 0x6a, 0x31, 0x3d,
  0xa6, 0xcb, 0xef, 0x3c, 0x48, 0x3b, 0xa8, 0xbe, 0x6b, 0xf9, 0x75, 0x3d,
  0xd2, 0x5f, 0xa5, 0x3e, 0x1b, 0x91, 0xce, 0x3c, 0x59, 0x9a, 0xc7, 0x3d,
  0x2b, 0x8f, 0xce, 0x3d, 0x7c, 0x7c, 0x12, 0x3e, 0xfa, 0x84, 0x6c, 0xbd,
  0x1d, 0x7c, 0x76, 0x3e, 0x95, 0x96, 0xa7, 0x3d, 0xd4, 0x8f, 0xaf, 0x3e,
  0x80, 0xae, 0xa3, 0xbd, 0x8a, 0x10, 0xe7, 0x3d, 0x70, 0x45, 0x95, 0x3c,
  0xca, 0x8b, 0x62, 0x3d, 0xa1, 0x89, 0x33, 0x3e, 0xb2, 0x8a, 0xba, 0xbd,
  0xc7, 0xca, 0x09, 0x3e, 0x27, 0xcb, 0x9f, 0x3e, 0xbb, 0x92, 0xaf, 0x3d,
  0xd9, 0xc3, 0xfe, 0x3e, 0x7b, 0xc1, 0x6f, 0x3c, 0xfd, 0x41, 0xfe, 0x3d,
  0xa7, 0x4f, 0x03, 0xbc, 0x9d, 0x5a, 0x34, 0x3e, 0x10, 0x1e, 0x29, 0x3e,
  0xd0, 0x11, 0x19, 0x3c, 0xba, 0x2f, 0xbd, 0x3c, 0x6b, 0x8a, 0x85, 0x3d,
  0xc1, 0x5e, 0x7f, 0x3e, 0xb8, 0x2a, 0x04, 0x3e, 0x7c, 0xbe, 0xaa, 0x3d,
  0xc0, 0xb8, 0x83, 0xbe, 0x4b, 0xf0, 0xf2, 0x3c, 0x45, 0x6a, 0x51, 0x3e,
  0xdc, 0x73, 0x1a, 0xbe, 0x41, 0xd3, 0x1f, 0xbd, 0xa0, 0x07, 0x8f, 0xbd,
  0x6f, 0x13, 0x24, 0x3e, 0xe0, 0x83, 0x9d, 0xbd, 0x86, 0x3c, 0x67, 0x3e,
  0x47, 0xf8, 0x2b, 0x3e, 0xd8, 0x79, 0x26, 0x3e, 0x40, 0x8e, 0x4b, 0xbe,
  0xde, 0xb8, 0x32, 0x3e, 0x36, 0xa9, 0xe6, 0xbc, 0x4d, 0xe4, 0xb2, 0x3e,
  0x16, 0x16, 0x14, 0xbc, 0xfe, 0x39, 0x27, 0xbe, 0x44, 0x75, 0x04, 0x3e,
  0x97, 0xd9, 0x16, 0x3e, 0x1e, 0x2b, 0x78, 0xbd, 0xac, 0x72, 0xa7, 0xbd,
  0xa5, 0x73, 0x2b, 0x3e, 0xda, 0x22, 0x80, 0xbe, 0xbe, 0xee, 0x24, 0x3d,
  0xf4, 0x3b, 0xf2, 0xbd, 0x57, 0x42, 0x0d, 0x3e, 0xde, 0xba, 0x7d, 0x3e,
  0xca, 0xee, 0xe2, 0xbd, 0xd6, 0x30, 0x4b, 0xbd, 0x15, 0xe7, 0xff, 0xbd,
  0x98, 0x58, 0x9f, 0x3f, 0x99, 0xf6, 0xd9, 0x3d, 0xa5, 0x54, 0xa8, 0x3d,
  0x19, 0xc0, 0x17, 0x3e, 0x4b, 0x37, 0x16, 0xbd, 0x49, 0x2d, 0x90, 0x3d,
  0xee, 0x16, 0xa7, 0xbd, 0x72, 0x1c, 0xcc, 0xbd, 0x26, 0x1b, 0xc2, 0xbe,
  0x34, 0xbe, 0x92, 0xbe, 0xce, 0x8e, 0x34, 0xbe, 0xf0, 0x8e, 0xf6, 0xbe,
  0x6e, 0x0b, 0xbe, 0xbc, 0x79, 0x7c, 0x25, 0xbd, 0xfb, 0x61, 0x8d, 0xbe,
  0x5e, 0x34, 0x71, 0xbd, 0xc3, 0x9a, 0xb2, 0x3f, 0x2b, 0x55, 0x05, 0x3e,
  0x6f, 0xdd, 0x91, 0xbe, 0xd3, 0x64, 0x98, 0xbe, 0xa4, 0x30, 0x11, 0x3d,
  0x27, 0xbb, 0x18, 0xbb, 0x54, 0x49, 0x8c, 0xbe, 0x81, 0x06, 0xb7, 0x3d,
  0xed, 0x59, 0x89, 0xbe, 0xb6, 0xa4, 0x84, 0xbe, 0xd7, 0xc5, 0xe6, 0xbe,
  0x67, 0xfa, 0x96, 0xbe, 0x11, 0x93, 0x03, 0xbe, 0x10, 0x90, 0x8a, 0xbd,
  0xf0, 0xaa, 0x90, 0xbe, 0xff, 0x3c, 0xaa, 0xbd, 0x01, 0x0f, 0x79, 0x3f,
  0xaf, 0x3d, 0x8a, 0xbb, 0x41, 0x16, 0x9d, 0x3d, 0x14, 0xa4, 0xcc, 0xbd,
  0xd6, 0x4d, 0x66, 0x3e, 0xd3, 0xec, 0x67, 0xbb, 0xf1, 0x12, 0x28, 0x3e,
  0xce, 0x47, 0x15, 0x3c, 0xd1, 0x60, 0xab, 0xbd, 0xb8, 0x6c, 0x8b, 0xbd,
  0x39, 0xd9, 0x8c, 0xbe, 0x29, 0x3c, 0x6e, 0xbe, 0x68, 0xd3, 0x64, 0xbe,
  0xa2, 0xc2, 0x1d, 0xbd, 0x96, 0x0e, 0x86, 0xbe, 0xe1, 0xc1, 0xb2, 0xbd,
  0x50, 0x7c, 0xb1, 0x3f, 0x44, 0xec, 0xe7, 0xbd, 0xa3, 0xff, 0x52, 0xbe,
  0x72, 0x13, 0x6e, 0xbd, 0x85, 0x53, 0x44, 0x3c, 0x04, 0x99, 0xd7, 0x3b,
  0xb3, 0x2f, 0x72, 0x3d, 0x88, 0x89, 0xb0, 0x3b, 0x88, 0xce, 0x0e, 0xbe,
  0xb9, 0x50, 0x36, 0x3c, 0x9f, 0xc2, 0x02, 0x3d, 0x0b, 0x0e, 0xad, 0xbd,
  0xea, 0xee, 0x68, 0xbe, 0x0f, 0x8d, 0x92, 0xbd, 0xb7, 0x39, 0xef, 0xbd,
  0xc1, 0xed, 0x58, 0xbe, 0x90, 0x4b, 0xbf, 0x3f, 0xbe, 0x63, 0x14, 0xbe,
  0xe8, 0x34, 0x9e, 0xbd, 0x13, 0x35, 0x45, 0xbe, 0x85, 0x19, 0x75, 0x3e,
  0x76, 0x42, 0xfa, 0xbc, 0x9b, 0x30, 0xc1, 0x3e, 0x52, 0xcf, 0xda, 0xbd,
  0x62, 0x68, 0x38, 0x3e, 0xcf, 0x4f, 0x81, 0xbb, 0xe5, 0x22, 0x44, 0x3d,
  0x20, 0xd5, 0x43, 0x3e, 0x55, 0x80, 0xeb, 0xbd, 0x93, 0x7a, 0x60, 0xbc,
  0x5c, 0xba, 0x4b, 0xbe, 0xc5, 0x76, 0x03, 0xbd, 0x41, 0x7b, 0x9b, 0x3f,
  0x18, 0xd7, 0xa5, 0x3e, 0x4b, 0x64, 0x71, 0x3d, 0x21, 0x24, 0x12, 0x3e,
  0x23, 0x27, 0x21, 0xbd, 0x8c, 0x46, 0x91, 0xbe, 0xcc, 0xd7, 0xef, 0xba,
  0x73, 0x86, 0x4d, 0x3e, 0x20, 0x78, 0x18, 0xbe, 0x83, 0xa7, 0x83, 0xbe,
  0xd0, 0xcf, 0xc7, 0xbd, 0xd6, 0xa6, 0x28, 0xbe, 0x18, 0x59, 0x84, 0xbd,
  0xc2, 0x8e, 0x4f, 0xbc, 0xf7, 0xab, 0xa9, 0xbe, 0x99, 0x6d, 0x88, 0xbd,
  0x4a, 0xc1, 0x8d, 0x3e, 0x5d, 0xf6, 0xb8, 0xbd, 0xfb, 0xd2, 0xbd, 0x3d,
  0x00, 0xd6, 0x85, 0x3d, 0x6b, 0x9a, 0x8b, 0x3c, 0xe3, 0xe7, 0xfc, 0xbd,
  0x77, 0xab, 0x44, 0xbd, 0xaf, 0xe5, 0x9d, 0x3d, 0x96, 0xb1, 0x46, 0xbd,
  0x17, 0xb0, 0x3b, 0xbe, 0x68, 0xc0, 0x99, 0x3e, 0x6d, 0x32, 0xc2, 0xbc,
  0x51, 0x8f, 0x6a, 0xbe, 0x1c, 0x9d, 0x00, 0xbe, 0x65, 0x3f, 0x50, 0xbe,
  0x19, 0xbb, 0x37, 0xbd, 0xd2, 0x35, 0xf9, 0x3f, 0xa2, 0x23, 0xce, 0xbd,
  0x9d, 0x7c, 0x03, 0xbc, 0x4b, 0x77, 0xa2, 0x3d, 0xb7, 0xa3, 0x54, 0xbd,
  0x1d, 0xaa, 0x8b, 0xbe, 0x5a, 0x23, 0x19, 0xbe, 0xb5, 0x33, 0x67, 0xbb,
  0x6d, 0xf9, 0xf8, 0xbd, 0x32, 0x0f, 0x32, 0x3c, 0xb1, 0xe7, 0xbf, 0xbd,
  0x97, 0xd6, 0x41, 0x3e, 0xaa, 0xa1, 0x1d, 0x3d, 0xcf, 0x50, 0xd9, 0xbd,
  0x60, 0x99, 0x7b, 0xbe, 0x94, 0x53, 0x9e, 0xbb, 0xae, 0x47, 0x4b, 0x3f,
  0x76, 0x6e, 0xb3, 0x3b, 0x67, 0x3e, 0xba, 0x3e, 0x78, 0x52, 0x2d, 0xbe,
  0x31, 0xcc, 0xbc, 0xbd, 0xf2, 0x87, 0xf5, 0xbd, 0xf6, 0x41, 0x54, 0xbe,
  0xa8, 0x41, 0x21, 0x3e, 0x20, 0xcd, 0x6c, 0xbe, 0x26, 0x56, 0xff, 0xbd,
  0x5b, 0x1d, 0xfe, 0x3d, 0xcf, 0x27, 0xf5, 0xbb, 0x10, 0xfb, 0x89, 0xbe,
  0xf2, 0x92, 0xaa, 0xbe, 0x26, 0x85, 0x17, 0xbe, 0x7b, 0xfb, 0x57, 0x3e,
  0x54, 0xae, 0xf6, 0x3f, 0x82, 0xfe, 0x0c, 0x3e, 0x8c, 0x6a, 0x1d, 0xbe,
  0x47, 0x2a, 0xf5, 0x3d, 0xbc, 0x61, 0x4c, 0xbe, 0xd1, 0x1b, 0xa0, 0x3d,
  0x1a, 0x33, 0x3c, 0x3c, 0xe2, 0x49, 0x04, 0xbe, 0x18, 0x71, 0x85, 0x3d,
  0x92, 0xb1, 0xe7, 0x3c, 0xdd, 0x6a, 0x8f, 0x3e, 0x8a, 0x61, 0xa1, 0xbe,
  0xcc, 0x40, 0x99, 0x3d, 0xda, 0xce, 0x3d, 0xbe, 0x19, 0x72, 0x24, 0xbe,
  0x38, 0x69, 0xc9, 0x3d, 0xbc, 0x9c, 0xb6, 0x3f, 0x22, 0xd1, 0x0e, 0x3e,
  0x95, 0x7c, 0xd8, 0xbd, 0x74, 0x0a, 0x41, 0xbe, 0x6d, 0xbc, 0x9c, 0xbc,
  0x5c, 0x5d, 0x44, 0xbd, 0xa6, 0x3b, 0x94, 0xbd, 0x77, 0xf3, 0x46, 0x3d,
  0xc7, 0xdb, 0x10, 0xbe, 0xe6, 0x40, 0x10, 0xbe, 0xfa, 0x4d, 0xf1, 0x3d,
  0x4e, 0xe5, 0x06, 0xbd, 0x0b, 0xea, 0x20, 0x3d, 0x8f, 0x21, 0x74, 0xbe,
  0x6f, 0xed, 0xb0, 0xbe, 0x35, 0xac, 0x28, 0x3e, 0x25, 0xd8, 0x90, 0x3f,
  0x62, 0x2a, 0xbf, 0x3d, 0x35, 0xd8, 0x85, 0xbe, 0xe9, 0x36, 0x60, 0x3d,
  0x86, 0x50, 0xbb, 0x3b, 0xea, 0x22, 0x9d, 0xbd, 0x49, 0xa5, 0x02, 0xbe,
  0xaa, 0x2a, 0x63, 0xbe, 0x83, 0x72, 0x0e, 0x3d, 0xe6, 0x3f, 0x43, 0xbd,
  0x7e, 0xa3, 0x64, 0xbd, 0xfb, 0x6c, 0x71, 0xbd, 0x86, 0x3b, 0xbd, 0xbd,
  0x91, 0xcf, 0x90, 0xbe, 0xf2, 0x78, 0x55, 0xbe, 0xd4, 0xfd, 0x5e, 0xbe,
  0x4c, 0xc2, 0x85, 0x3f, 0x0b, 0x1a, 0x31, 0xbd, 0x92, 0x41, 0x8b, 0x3e,
  0x3d, 0x78, 0xcc, 0x3d, 0x7e, 0x37, 0x85, 0xbe, 0xc2, 0x80, 0xe6, 0xb8,
  0x41, 0xe6, 0xc2, 0x3d, 0x66, 0x4b, 0x78, 0x3e, 0x61, 0xb1, 0x01, 0xbf,
  0xf0, 0xef, 0x67, 0x3c, 0x9b, 0x2e, 0x84, 0xbe, 0x9c, 0x3c, 0x1d, 0x3e,
  0x74, 0x14, 0xfc, 0xbe, 0x16, 0x1c, 0xce, 0x3b, 0xd8, 0x8c, 0xc9, 0xbe,
  0xcd, 0xba, 0x19, 0xbe, 0x45, 0xdd, 0xac, 0xbe, 0xdb, 0x55, 0xbf, 0xbd,
  0xc7, 0x98, 0x30, 0x3e, 0x04, 0x8d, 0x43, 0x3a, 0x61, 0x99, 0x29, 0xbc,
  0x15, 0xfa, 0xbf, 0xbd, 0x87, 0x06, 0x75, 0x3e, 0x06, 0x05, 0x87, 0x3d,
  0x0e, 0x76, 0x41, 0x3e, 0xbf, 0x1f, 0x16, 0xbe, 0x7a, 0x86, 0x65, 0xbe,
  0x41, 0x5c, 0x64, 0x3e, 0xf9, 0x03, 0x6e, 0xbc, 0x7f, 0xad, 0x27, 0xbd,
  0x6f, 0xbe, 0x8b, 0xbe, 0xcf, 0x5e, 0x9a, 0xbd, 0x9e, 0x40, 0x90, 0x3f,
  0x0f, 0x97, 0xb6, 0xbd, 0x1b, 0x9f, 0x4a, 0x3e, 0x06, 0x6f, 0xb0, 0x3e,
  0x99, 0x21, 0xa5, 0x3d, 0x96, 0x49, 0x2e, 0xbb, 0x53, 0x0f, 0xdb, 0x3e,
  0xf5, 0x65, 0x75, 0x3d, 0x7a, 0x6c, 0x0c, 0x3e, 0x17, 0x31, 0x00, 0xbd,
  0x28, 0xbf, 0x25, 0xbe, 0x02, 0x7c, 0xf4, 0x3e, 0x0a, 0xd2, 0xe8, 0x3e,
  0x34, 0xc4, 0x23, 0xbd, 0x21, 0xc9, 0x3a, 0xbe, 0xa3, 0x53, 0xab, 0xbc,
  0xbe, 0xb1, 0x09, 0x3f, 0xb4, 0x92, 0xbc, 0xbd, 0x13, 0x62, 0x93, 0x3e,
  0x44, 0x71, 0x21, 0x3e, 0x32, 0xf8, 0x07, 0x3c, 0x90, 0x90, 0x1a, 0x3d,
  0x73, 0x4d, 0xd3, 0x3d, 0x75, 0x57, 0x5f, 0x3c, 0x73, 0x11, 0xac, 0x3d,
  0xbc, 0xb9, 0xb3, 0xbd, 0x8e, 0x50, 0x28, 0x3e, 0x37, 0x33, 0x01, 0x3f,
  0x0f, 0x76, 0x85, 0x3e, 0x17, 0xc8, 0x75, 0xbd, 0xec, 0xe3, 0x7f, 0xbe,
  0x1a, 0xb1, 0xd3, 0x3c, 0x74, 0x5f, 0x94, 0x3f, 0xe6, 0x2d, 0x3a, 0x3e,
  0x06, 0xb7, 0x21, 0x3e, 0x8e, 0x8b, 0xaa, 0x3e, 0x64, 0x44, 0x0c, 0xbf,
  0x66, 0x6f, 0x5b, 0xbc, 0x26, 0x6e, 0xa9, 0xbd, 0x30, 0xd2, 0x08, 0x3e,
  0x9e, 0x68, 0xa5, 0xbe, 0x82, 0xa1, 0xf2, 0xbd, 0xd9, 0x00, 0xf2, 0xbe,
  0xb1, 0xc1, 0x8a, 0x3e, 0x3a, 0xbd, 0x20, 0xbc, 0x54, 0x55, 0x5d, 0xbd,
  0xa3, 0xd2, 0xa8, 0xbe, 0xbf, 0xf0, 0xdb, 0xbd, 0x03, 0xc5, 0x5a, 0x3d,
  0x5f, 0x73, 0xb8, 0x3c, 0x43, 0x2a, 0xfc, 0x3d, 0x36, 0x80, 0x2e, 0x3e,
  0xc3, 0x53, 0x92, 0xbe, 0xea, 0x6e, 0x80, 0xbd, 0xee, 0xff, 0x39, 0xbe,
  0x58, 0x74, 0xf8, 0x3d, 0xb0, 0x98, 0xef, 0xbe, 0x3f, 0x42, 0x2b, 0x3e,
  0x5e, 0x57, 0x21, 0xbe, 0x34, 0x2e, 0x0e, 0x3e, 0xf3, 0xa0, 0x16, 0xbf,
  0x5b, 0xa9, 0x15, 0x3b, 0x98, 0xf0, 0x9d, 0xbe, 0x6f, 0xfe, 0xbc, 0x3d,
  0xea, 0x17, 0x19, 0x3f, 0xdd, 0x50, 0x40, 0xbe, 0xc1, 0x0f, 0x4c, 0x3d,
  0x0e, 0x37, 0xe3, 0x3d, 0xa0, 0x00, 0x00, 0xbe, 0x19, 0x42, 0x6a, 0xbd,
  0x51, 0xc0, 0x1f, 0x3d, 0xb1, 0xab, 0xa2, 0x3d, 0x10, 0xac, 0x81, 0x3d,
  0xb6, 0x05, 0x8c, 0x3d, 0xee, 0xd7, 0xea, 0xbd, 0x7d, 0x0e, 0xe4, 0x3d,
  0xd0, 0xe2, 0x4c, 0xbd, 0xf5, 0xfd, 0x88, 0x3c, 0x31, 0xa5, 0x2e, 0xbe,
  0xf0, 0xf5, 0x9e, 0x3d, 0x4a, 0x74, 0x3c, 0x3e, 0xd3, 0xed, 0x81, 0xbd,
  0x66, 0xfd, 0xff, 0xff, 0x10, 0x00, 0x00, 0x00, 0x07, 0x00, 0x00, 0x00,
  0x14, 0x00, 0x00, 0x00, 0x2c, 0x00, 0x00, 0x00, 0x02, 0x00, 0x00, 0x00,
  0x10, 0x00, 0x00, 0x00, 0x70, 0x00, 0x00, 0x00, 0x17, 0x00, 0x00, 0x00,
  0x73, 0x65, 0x71, 0x75, 0x65, 0x6e, 0x74, 0x69, 0x61, 0x6c, 0x2f, 0x64,
  0x65, 0x6e, 0x73, 0x65, 0x2f, 0x4d, 0x61, 0x74, 0x4d, 0x75, 0x6c, 0x00,
  0xd0, 0xfc, 0xff, 0xff, 0xda, 0xfd, 0xff, 0xff, 0x04, 0x00, 0x00, 0x00,
  0x08, 0x00, 0x00, 0x00, 0xff, 0xff, 0xff, 0xff, 0x70, 0x00, 0x00, 0x00,
  0x00, 0x00, 0x0e, 0x00, 0x18, 0x00, 0x08, 0x00, 0x07, 0x00, 0x0c, 0x00,
  0x10, 0x00, 0x14, 0x00, 0x0e, 0x00, 0x00, 0x00, 0x00, 0x00, 0x00, 0x02,
  0x10, 0x00, 0x00, 0x00, 0x06, 0x00, 0x00, 0x00, 0x10, 0x00, 0x00, 0x00,
  0x2c, 0x00, 0x00, 0x00, 0x01, 0x00, 0x00, 0x00, 0x02, 0x00, 0x00, 0x00,
  0x18, 0x00, 0x00, 0x00, 0x73, 0x65, 0x71, 0x75, 0x65, 0x6e, 0x74, 0x69,
  0x61, 0x6c, 0x2f, 0x66, 0x6c, 0x61, 0x74, 0x74, 0x65, 0x6e, 0x2f, 0x43,
  0x6f, 0x6e, 0x73, 0x74, 0x00, 0x00, 0x00, 0x00, 0x38, 0xfd, 0xff, 0xff,
  0x42, 0xfe, 0xff, 0xff, 0x04, 0x00, 0x00, 0x00, 0x0c, 0x00, 0x00, 0x00,
  0x69, 0x1a, 0xc0, 0xbf, 0xff, 0x7d, 0xd1, 0xbe, 0xa2, 0xd0, 0x7a, 0x3f,
  0x26, 0xfe, 0xff, 0xff, 0x10, 0x00, 0x00, 0x00, 0x05, 0x00, 0x00, 0x00,
  0x10, 0x00, 0x00, 0x00, 0x44, 0x00, 0x00, 0x00, 0x01, 0x00, 0x00, 0x00,
  0x03, 0x00, 0x00, 0x00, 0x32, 0x00, 0x00, 0x00, 0x73, 0x65, 0x71, 0x75,
  0x65, 0x6e, 0x74, 0x69, 0x61, 0x6c, 0x2f, 0x64, 0x65, 0x6e, 0x73, 0x65,
  0x5f, 0x31, 0x2f, 0x42, 0x69, 0x61, 0x73, 0x41, 0x64, 0x64, 0x2f, 0x52,
  0x65, 0x61, 0x64, 0x56, 0x61, 0x72, 0x69, 0x61, 0x62, 0x6c, 0x65, 0x4f,
  0x70, 0x2f, 0x72, 0x65, 0x73, 0x6f, 0x75, 0x72, 0x63, 0x65, 0x00, 0x00,
  0xa8, 0xfd, 0xff, 0xff, 0xb2, 0xfe, 0xff, 0xff, 0x04, 0x00, 0x00, 0x00,
  0x40, 0x00, 0x00, 0x00, 0xcf, 0xc8, 0xc1, 0xbf, 0xe5, 0x39, 0xc8, 0x3d,
  0x0a, 0xf9, 0xb1, 0xbe, 0x7b, 0x3c, 0x17, 0x3e, 0x11, 0x4b, 0x94, 0x3e,
  0x92, 0xac, 0x9f, 0x3e, 0x9e, 0xf0, 0x4d, 0x40, 0x51, 0x13, 0x45, 0xbe,
  0xa0, 0xfa, 0x10, 0x3d, 0x2e, 0xae, 0x46, 0xbf, 0x56, 0xef, 0x3d, 0x3d,
  0xd5, 0xe1, 0x76, 0x40, 0xe4, 0x36, 0xfe, 0xbe, 0x29, 0x1c, 0xe6, 0xbe,
  0xd9, 0xd1, 0xfb, 0xbd, 0xc9, 0x47, 0x39, 0xbf, 0xca, 0xfe, 0xff, 0xff,
  0x10, 0x00, 0x00, 0x00, 0x04, 0x00, 0x00, 0x00, 0x10, 0x00, 0x00, 0x00,
  0x44, 0x00, 0x00, 0x00, 0x01, 0x00, 0x00, 0x00, 0x10, 0x00, 0x00, 0x00,
  0x30, 0x00, 0x00, 0x00, 0x73, 0x65, 0x71, 0x75, 0x65, 0x6e, 0x74, 0x69,
  0x61, 0x6c, 0x2f, 0x64, 0x65, 0x6e, 0x73, 0x65, 0x2f, 0x42, 0x69, 0x61,
  0x73, 0x41, 0x64, 0x64, 0x2f, 0x52, 0x65, 0x61, 0x64, 0x56, 0x61, 0x72,
  0x69, 0x61, 0x62, 0x6c, 0x65, 0x4f, 0x70, 0x2f, 0x72, 0x65, 0x73, 0x6f,
  0x75, 0x72, 0x63, 0x65, 0x00, 0x00, 0x00, 0x00, 0x4c, 0xfe, 0xff, 0xff,
  0x56, 0xff, 0xff, 0xff, 0x04, 0x00, 0x00, 0x00, 0x40, 0x00, 0x00, 0x00,
  0xde, 0xff, 0x0c, 0x3e, 0x3a, 0x44, 0xf8, 0xbf, 0xdd, 0xf5, 0xbf, 0xbf,
  0x52, 0x9f, 0xbb, 0x3f, 0xf4, 0xb7, 0x74, 0xbf, 0x52, 0xa7, 0xcf, 0xbf,
  0xc4, 0xd4, 0xa1, 0xbe, 0xe9, 0x8b, 0xcb, 0x3e, 0x24, 0xc5, 0x61, 0x3f,
  0xfa, 0x36, 0x16, 0xc0, 0x64, 0xbb, 0xf9, 0xbf, 0xc4, 0xfb, 0xcb, 0x3f,
  0x5e, 0xf8, 0x8b, 0xbc, 0x21, 0xcc, 0x99, 0x3f, 0x15, 0x39, 0xb0, 0x3f,
  0x2d, 0xf1, 0x00, 0xbf, 0x6e, 0xff, 0xff, 0xff, 0x10, 0x00, 0x00, 0x00,
  0x03, 0x00, 0x00, 0x00, 0x10, 0x00, 0x00, 0x00, 0x48, 0x00, 0x00, 0x00,
  0x01, 0x00, 0x00, 0x00, 0x10, 0x00, 0x00, 0x00, 0x33, 0x00, 0x00, 0x00,
  0x73, 0x65, 0x71, 0x75, 0x65, 0x6e, 0x74, 0x69, 0x61, 0x6c, 0x2f, 0x63,
  0x6f, 0x6e, 0x76, 0x32, 0x64, 0x5f, 0x31, 0x2f, 0x42, 0x69, 0x61, 0x73,
  0x41, 0x64, 0x64, 0x2f, 0x52, 0x65, 0x61, 0x64, 0x56, 0x61, 0x72, 0x69,
  0x61, 0x62, 0x6c, 0x65, 0x4f, 0x70, 0x2f, 0x72, 0x65, 0x73, 0x6f, 0x75,
  0x72, 0x63, 0x65, 0x00, 0x04, 0x00, 0x06, 0x00, 0x04, 0x00, 0x00, 0x00,
  0x00, 0x00, 0x06, 0x00, 0x08, 0x00, 0x04, 0x00, 0x06, 0x00, 0x00, 0x00,
  0x04, 0x00, 0x00, 0x00, 0x20, 0x00, 0x00, 0x00, 0x52, 0x68, 0xa6, 0xbf,
  0xc8, 0xe3, 0x08, 0xc0, 0x1f, 0xb7, 0x3c, 0xbe, 0xee, 0x41, 0xbd, 0xbf,
  0x4f, 0xf0, 0x3c, 0xbf, 0x64, 0xd0, 0x2a, 0xbf, 0x32, 0x52, 0xf4, 0xbf,
  0xc4, 0xca, 0xec, 0xbe, 0x00, 0x00, 0x0e, 0x00, 0x14, 0x00, 0x04, 0x00,
  0x00, 0x00, 0x08, 0x00, 0x0c, 0x00, 0x10, 0x00, 0x0e, 0x00, 0x00, 0x00,
  0x10, 0x00, 0x00, 0x00, 0x02, 0x00, 0x00, 0x00, 0x10, 0x00, 0x00, 0x00,
  0x44, 0x00, 0x00, 0x00, 0x01, 0x00, 0x00, 0x00, 0x08, 0x00, 0x00, 0x00,
  0x31, 0x00, 0x00, 0x00, 0x73, 0x65, 0x71, 0x75, 0x65, 0x6e, 0x74, 0x69,
  0x61, 0x6c, 0x2f, 0x63, 0x6f, 0x6e, 0x76, 0x32, 0x64, 0x2f, 0x42, 0x69,
  0x61, 0x73, 0x41, 0x64, 0x64, 0x2f, 0x52, 0x65, 0x61, 0x64, 0x56, 0x61,
  0x72, 0x69, 0x61, 0x62, 0x6c, 0x65, 0x4f, 0x70, 0x2f, 0x72, 0x65, 0x73,
  0x6f, 0x75, 0x72, 0x63, 0x65, 0x00, 0x00, 0x00, 0x90, 0xff, 0xff, 0xff,
  0x14, 0x00, 0x18, 0x00, 0x04, 0x00, 0x00, 0x00, 0x08, 0x00, 0x0c, 0x00,
  0x10, 0x00, 0x00, 0x00, 0x00, 0x00, 0x14, 0x00, 0x14, 0x00, 0x00, 0x00,
  0x14, 0x00, 0x00, 0x00, 0x01, 0x00, 0x00, 0x00, 0x20, 0x00, 0x00, 0x00,
  0x44, 0x00, 0x00, 0x00, 0x2c, 0x00, 0x00, 0x00, 0x04, 0x00, 0x00, 0x00,
  0x01, 0x00, 0x00, 0x00, 0x40, 0x00, 0x00, 0x00, 0x03, 0x00, 0x00, 0x00,
  0x01, 0x00, 0x00, 0x00, 0x0c, 0x00, 0x00, 0x00, 0x63, 0x6f, 0x6e, 0x76,
  0x32, 0x64, 0x5f, 0x69, 0x6e, 0x70, 0x75, 0x74, 0x00, 0x00, 0x00, 0x00,
  0x04, 0x00, 0x00, 0x00, 0xff, 0xff, 0xff, 0xff, 0x40, 0x00, 0x00, 0x00,
  0x03, 0x00, 0x00, 0x00, 0x01, 0x00, 0x00, 0x00, 0xfc, 0xff, 0xff, 0xff,
  0x04, 0x00, 0x04, 0x00, 0x04, 0x00, 0x00, 0x00

};


unsigned int model_tflite_len = 13052;// Fill the int in `src/model.cc` here