#include "magic_wand_model_data.h"


// We need to keep the data array aligned on some architectures.

#ifdef __has_attribute

#define HAVE_ATTRIBUTE(x) __has_attribute(x)

#else

#define HAVE_ATTRIBUTE(x) 0

#endif

#if HAVE_ATTRIBUTE(aligned) || (defined(__GNUC__) && !defined(__clang__))

#define DATA_ALIGN_ATTRIBUTE __attribute__((aligned(4)))

#else

#define DATA_ALIGN_ATTRIBUTE

#endif


const unsigned char g_magic_wand_model_data[] DATA_ALIGN_ATTRIBUTE = {

  // Paste the data of the char array in `src/model.cc` here
  0x1c, 0x00, 0x00, 0x00, 0x54, 0x46, 0x4c, 0x33, 0x14, 0x00, 0x20, 0x00,
  0x04, 0x00, 0x08, 0x00, 0x0c, 0x00, 0x10, 0x00, 0x14, 0x00, 0x00, 0x00,
  0x18, 0x00, 0x1c, 0x00, 0x14, 0x00, 0x00, 0x00, 0x03, 0x00, 0x00, 0x00,
  0x18, 0x00, 0x00, 0x00, 0x2c, 0x00, 0x00, 0x00, 0xd8, 0x00, 0x00, 0x00,
  0x2c, 0x00, 0x00, 0x00, 0x80, 0x00, 0x00, 0x00, 0x78, 0x00, 0x00, 0x00,
  0x05, 0x00, 0x00, 0x00, 0x28, 0x07, 0x00, 0x00, 0x44, 0x06, 0x00, 0x00,
  0xbc, 0x03, 0x00, 0x00, 0xf8, 0x02, 0x00, 0x00, 0xac, 0x01, 0x00, 0x00,
  0x01, 0x00, 0x00, 0x00, 0xd0, 0x00, 0x00, 0x00, 0x14, 0x00, 0x00, 0x00,
  0xdc, 0x32, 0x00, 0x00, 0xd8, 0x32, 0x00, 0x00, 0xd0, 0x31, 0x00, 0x00,
  0x1c, 0x31, 0x00, 0x00, 0x74, 0x30, 0x00, 0x00, 0xfc, 0x2f, 0x00, 0x00,
  0x90, 0x2f, 0x00, 0x00, 0x40, 0x13, 0x00, 0x00, 0xec, 0x11, 0x00, 0x00,
  0x10, 0x10, 0x00, 0x00, 0xb4, 0x07, 0x00, 0x00, 0xb0, 0x32, 0x00, 0x00,
  0xac, 0x32, 0x00, 0x00, 0xa8, 0x32, 0x00, 0x00, 0xa4, 0x32, 0x00, 0x00,
  0xa0, 0x32, 0x00, 0x00, 0x9c, 0x32, 0x00, 0x00, 0x98, 0x32, 0x00, 0x00,
  0x94, 0x32, 0x00, 0x00, 0x3c, 0x00, 0x00, 0x00, 0x00, 0x00, 0x00, 0x00,
  0x01, 0x00, 0x00, 0x00, 0x0c, 0x00, 0x00, 0x00, 0x08, 0x00, 0x0c, 0x00,
  0x04, 0x00, 0x08, 0x00, 0x08, 0x00, 0x00, 0x00, 0x08, 0x00, 0x00, 0x00,
  0x13, 0x00, 0x00, 0x00, 0x13, 0x00, 0x00, 0x00, 0x6d, 0x69, 0x6e, 0x5f,
  0x72, 0x75, 0x6e, 0x74, 0x69, 0x6d, 0x65, 0x5f, 0x76, 0x65, 0x72, 0x73,
  0x69, 0x6f, 0x6e, 0x00, 0xb6, 0xce, 0xff, 0xff, 0x04, 0x00, 0x00, 0x00,
  0x10, 0x00, 0x00, 0x00, 0x31, 0x2e, 0x35, 0x2e, 0x30, 0x00, 0x00, 0x00,
  0x00, 0x00, 0x00, 0x00, 0x00, 0x00, 0x00, 0x00, 0x0f, 0x00, 0x00, 0x00,
  0x4d, 0x4c, 0x49, 0x52, 0x20, 0x43, 0x6f, 0x6e, 0x76, 0x65, 0x72, 0x74,
  0x65, 0x64, 0x2e, 0x00, 0x00, 0x00, 0x0e, 0x00, 0x18, 0x00, 0x04, 0x00,
  0x08, 0x00, 0x0c, 0x00, 0x10, 0x00, 0x14, 0x00, 0x0e, 0x00, 0x00, 0x00,
  0x14, 0x00, 0x00, 0x00, 0x5c, 0x00, 0x00, 0x00, 0x60, 0x00, 0x00, 0x00,
  0x64, 0x00, 0x00, 0x00, 0x84, 0x00, 0x00, 0x00, 0x12, 0x00, 0x00, 0x00,
  0x9c, 0x31, 0x00, 0x00, 0x2c, 0x31, 0x00, 0x00, 0x88, 0x30, 0x00, 0x00,
  0xe0, 0x2f, 0x00, 0x00, 0x38, 0x2f, 0x00, 0x00, 0xd4, 0x2e, 0x00, 0x00,
  0x6c, 0x2e, 0x00, 0x00, 0x18, 0x12, 0x00, 0x00, 0xbc, 0x10, 0x00, 0x00,
  0xe0, 0x0e, 0x00, 0x00, 0x0c, 0x06, 0x00, 0x00, 0x28, 0x05, 0x00, 0x00,
  0xe8, 0x03, 0x00, 0x00, 0x3c, 0x03, 0x00, 0x00, 0x98, 0x02, 0x00, 0x00,
  0xd4, 0x01, 0x00, 0x00, 0x10, 0x01, 0x00, 0x00, 0x84, 0x00, 0x00, 0x00,
  0x01, 0x00, 0x00, 0x00, 0x00, 0x00, 0x00, 0x00, 0x01, 0x00, 0x00, 0x00,
  0x11, 0x00, 0x00, 0x00, 0x08, 0x00, 0x00, 0x00, 0x74, 0x05, 0x00, 0x00,
  0x94, 0x04, 0x00, 0x00, 0x78, 0x03, 0x00, 0x00, 0xbc, 0x02, 0x00, 0x00,
  0x30, 0x02, 0x00, 0x00, 0x50, 0x01, 0x00, 0x00, 0xa8, 0x00, 0x00, 0x00,
  0x10, 0x00, 0x00, 0x00, 0x04, 0x00, 0x00, 0x00, 0x6d, 0x61, 0x69, 0x6e,
  0x00, 0x00, 0x00, 0x00, 0x7a, 0xff, 0xff, 0xff, 0x00, 0x00, 0x00, 0x09,
  0x04, 0x00, 0x00, 0x00, 0x1c, 0x00, 0x00, 0x00, 0x10, 0x00, 0x00, 0x00,
  0x04, 0x00, 0x00, 0x00, 0xb2, 0xcf, 0xff, 0xff, 0x00, 0x00, 0x80, 0x3f,
  0x01, 0x00, 0x00, 0x00, 0x11, 0x00, 0x00, 0x00, 0x01, 0x00, 0x00, 0x00,
  0x10, 0x00, 0x00, 0x00, 0xa0, 0xfa, 0xff, 0xff, 0x19, 0x00, 0x00, 0x00,
  0x00, 0x00, 0x00, 0x19, 0x01, 0x00, 0x00, 0x00, 0x40, 0xcf, 0xff, 0xff,
  0x14, 0x00, 0x00, 0x00, 0x12, 0x00, 0x00, 0x00, 0x18, 0x00, 0x00, 0x00,
  0x30, 0x00, 0x00, 0x00, 0x20, 0x00, 0x00, 0x00, 0x02, 0x00, 0x00, 0x00,
  0x01, 0x00, 0x00, 0x00, 0x04, 0x00, 0x00, 0x00, 0x08, 0x00, 0x00, 0x00,
  0x49, 0x64, 0x65, 0x6e, 0x74, 0x69, 0x74, 0x79, 0x00, 0x00, 0x00, 0x00,
  0x02, 0x00, 0x00, 0x00, 0xff, 0xff, 0xff, 0xff, 0x04, 0x00, 0x00, 0x00,
  0x24, 0xd0, 0xff, 0xff, 0x00, 0x00, 0x0e, 0x00, 0x18, 0x00, 0x08, 0x00,
  0x0c, 0x00, 0x10, 0x00, 0x07, 0x00, 0x14, 0x00, 0x0e, 0x00, 0x00, 0x00,
  0x00, 0x00, 0x00, 0x08, 0x03, 0x00, 0x00, 0x00, 0x18, 0x00, 0x00, 0x00,
  0x0c, 0x00, 0x00, 0x00, 0x04, 0x00, 0x00, 0x00, 0x40, 0xcf, 0xff, 0xff,
  0x01, 0x00, 0x00, 0x00, 0x10, 0x00, 0x00, 0x00, 0x03, 0x00, 0x00, 0x00,
  0x0f, 0x00, 0x00, 0x00, 0x07, 0x00, 0x00, 0x00, 0x04, 0x00, 0x00, 0x00,
  0xc8, 0xcf, 0xff, 0xff, 0x14, 0x00, 0x00, 0x00, 0x11, 0x00, 0x00, 0x00,
  0x18, 0x00, 0x00, 0x00, 0x5c, 0x00, 0x00, 0x00, 0x4c, 0x00, 0x00, 0x00,
  0x02, 0x00, 0x00, 0x00, 0x01, 0x00, 0x00, 0x00, 0x04, 0x00, 0x00, 0x00,
  0x34, 0x00, 0x00, 0x00, 0x73, 0x65, 0x71, 0x75, 0x65, 0x6e, 0x74, 0x69,
  0x61, 0x6c, 0x2f, 0x64, 0x65, 0x6e, 0x73, 0x65, 0x5f, 0x31, 0x2f, 0x4d,
  0x61, 0x74, 0x4d, 0x75, 0x6c, 0x3b, 0x73, 0x65, 0x71, 0x75, 0x65, 0x6e,
  0x74, 0x69, 0x61, 0x6c, 0x2f, 0x64, 0x65, 0x6e, 0x73, 0x65, 0x5f, 0x31,
  0x2f, 0x42, 0x69, 0x61, 0x73, 0x41, 0x64, 0x64, 0x00, 0x00, 0x00, 0x00,
  0x02, 0x00, 0x00, 0x00, 0xff, 0xff, 0xff, 0xff, 0x04, 0x00, 0x00, 0x00,
  0xc8, 0xcf, 0xff, 0xff, 0xda, 0xfc, 0xff, 0xff, 0x00, 0x00, 0x00, 0x08,
  0x03, 0x00, 0x00, 0x00, 0x24, 0x00, 0x00, 0x00, 0x18, 0x00, 0x00, 0x00,
  0x0c, 0x00, 0x00, 0x00, 0x00, 0x00, 0x06, 0x00, 0x08, 0x00, 0x07, 0x00,
  0x06, 0x00, 0x00, 0x00, 0x00, 0x00, 0x00, 0x01, 0x01, 0x00, 0x00, 0x00,
  0x0f, 0x00, 0x00, 0x00, 0x03, 0x00, 0x00, 0x00, 0x0e, 0x00, 0x00, 0x00,
  0x06, 0x00, 0x00, 0x00, 0x03, 0x00, 0x00, 0x00, 0xe8, 0xfb, 0xff, 0xff,
  0x09, 0x00, 0x00, 0x00, 0x00, 0x00, 0x00, 0x09, 0x01, 0x00, 0x00, 0x00,
  0x88, 0xd0, 0xff, 0xff, 0x14, 0x00, 0x00, 0x00, 0x10, 0x00, 0x00, 0x00,
  0x18, 0x00, 0x00, 0x00, 0x6c, 0x00, 0x00, 0x00, 0x5c, 0x00, 0x00, 0x00,
  0x02, 0x00, 0x00, 0x00, 0x01, 0x00, 0x00, 0x00, 0x10, 0x00, 0x00, 0x00,
  0x46, 0x00, 0x00, 0x00, 0x73, 0x65, 0x71, 0x75, 0x65, 0x6e, 0x74, 0x69,
  0x61, 0x6c, 0x2f, 0x64, 0x65, 0x6e, 0x73, 0x65, 0x2f, 0x4d, 0x61, 0x74,
  0x4d, 0x75, 0x6c, 0x3b, 0x73, 0x65, 0x71, 0x75, 0x65, 0x6e, 0x74, 0x69,
  0x61, 0x6c, 0x2f, 0x64, 0x65, 0x6e, 0x73, 0x65, 0x2f, 0x52, 0x65, 0x6c,
  0x75, 0x3b, 0x73, 0x65, 0x71, 0x75, 0x65, 0x6e, 0x74, 0x69, 0x61, 0x6c,
  0x2f, 0x64, 0x65, 0x6e, 0x73, 0x65, 0x2f, 0x42, 0x69, 0x61, 0x73, 0x41,
  0x64, 0x64, 0x00, 0x00, 0x02, 0x00, 0x00, 0x00, 0xff, 0xff, 0xff, 0xff,
  0x10, 0x00, 0x00, 0x00, 0xa8, 0xd1, 0xff, 0xff, 0x00, 0x00, 0x0a, 0x00,
  0x10, 0x00, 0x04, 0x00, 0x08, 0x00, 0x0c, 0x00, 0x0a, 0x00, 0x00, 0x00,
  0x02, 0x00, 0x00, 0x00, 0x10, 0x00, 0x00, 0x00, 0x04, 0x00, 0x00, 0x00,
  0x01, 0x00, 0x00, 0x00, 0x0e, 0x00, 0x00, 0x00, 0x02, 0x00, 0x00, 0x00,
  0x0d, 0x00, 0x00, 0x00, 0x05, 0x00, 0x00, 0x00, 0xa8, 0xfc, 0xff, 0xff,
  0x16, 0x00, 0x00, 0x00, 0x00, 0x00, 0x00, 0x16, 0x01, 0x00, 0x00, 0x00,
  0x48, 0xd1, 0xff, 0xff, 0x14, 0x00, 0x00, 0x00, 0x0f, 0x00, 0x00, 0x00,
  0x18, 0x00, 0x00, 0x00, 0x40, 0x00, 0x00, 0x00, 0x30, 0x00, 0x00, 0x00,
  0x02, 0x00, 0x00, 0x00, 0x01, 0x00, 0x00, 0x00, 0x70, 0x00, 0x00, 0x00,
  0x1a, 0x00, 0x00, 0x00, 0x73, 0x65, 0x71, 0x75, 0x65, 0x6e, 0x74, 0x69,
  0x61, 0x6c, 0x2f, 0x66, 0x6c, 0x61, 0x74, 0x74, 0x65, 0x6e, 0x2f, 0x52,
  0x65, 0x73, 0x68, 0x61, 0x70, 0x65, 0x00, 0x00, 0x02, 0x00, 0x00, 0x00,
  0xff, 0xff, 0xff, 0xff, 0x70, 0x00, 0x00, 0x00, 0x2c, 0xd1, 0xff, 0xff,
  0x3e, 0xfe, 0xff, 0xff, 0x00, 0x00, 0x00, 0x05, 0x01, 0x00, 0x00, 0x00,
  0x38, 0x00, 0x00, 0x00, 0x2c, 0x00, 0x00, 0x00, 0x14, 0x00, 0x00, 0x00,
  0x00, 0x00, 0x0e, 0x00, 0x14, 0x00, 0x00, 0x00, 0x10, 0x00, 0x0c, 0x00,
  0x08, 0x00, 0x04, 0x00, 0x0e, 0x00, 0x00, 0x00, 0x03, 0x00, 0x00, 0x00,
  0x01, 0x00, 0x00, 0x00, 0x03, 0x00, 0x00, 0x00, 0x01, 0x00, 0x00, 0x00,
  0x01, 0x00, 0x00, 0x00, 0x0d, 0x00, 0x00, 0x00, 0x01, 0x00, 0x00, 0x00,
  0x0c, 0x00, 0x00, 0x00, 0xe8, 0xd1, 0xff, 0xff, 0x14, 0x00, 0x00, 0x00,
  0x0e, 0x00, 0x00, 0x00, 0x20, 0x00, 0x00, 0x00, 0x58, 0x00, 0x00, 0x00,
  0x40, 0x00, 0x00, 0x00, 0x04, 0x00, 0x00, 0x00, 0x01, 0x00, 0x00, 0x00,
  0x07, 0x00, 0x00, 0x00, 0x01, 0x00, 0x00, 0x00, 0x10, 0x00, 0x00, 0x00,
  0x22, 0x00, 0x00, 0x00, 0x73, 0x65, 0x71, 0x75, 0x65, 0x6e, 0x74, 0x69,
  0x61, 0x6c, 0x2f, 0x6d, 0x61, 0x78, 0x5f, 0x70, 0x6f, 0x6f, 0x6c, 0x69,
  0x6e, 0x67, 0x32, 0x64, 0x5f, 0x31, 0x2f, 0x4d, 0x61, 0x78, 0x50, 0x6f,
  0x6f, 0x6c, 0x00, 0x00, 0x04, 0x00, 0x00, 0x00, 0xff, 0xff, 0xff, 0xff,
  0x07, 0x00, 0x00, 0x00, 0x01, 0x00, 0x00, 0x00, 0x10, 0x00, 0x00, 0x00,
  0xe4, 0xd1, 0xff, 0xff, 0x1a, 0xfe, 0xff, 0xff, 0x00, 0x00, 0x00, 0x01,
  0x24, 0x00, 0x00, 0x00, 0x18, 0x00, 0x00, 0x00, 0x04, 0x00, 0x00, 0x00,
  0x0c, 0xfe, 0xff, 0xff, 0x01, 0x00, 0x00, 0x00, 0x01, 0x00, 0x00, 0x00,
  0x00, 0x00, 0x00, 0x01, 0x01, 0x00, 0x00, 0x00, 0x0c, 0x00, 0x00, 0x00,
  0x03, 0x00, 0x00, 0x00, 0x0b, 0x00, 0x00, 0x00, 0x09, 0x00, 0x00, 0x00,
  0x02, 0x00, 0x00, 0x00, 0x90, 0xd2, 0xff, 0xff, 0x14, 0x00, 0x00, 0x00,
  0x0d, 0x00, 0x00, 0x00, 0x20, 0x00, 0x00, 0x00, 0xb8, 0x00, 0x00, 0x00,
  0xa0, 0x00, 0x00, 0x00, 0x04, 0x00, 0x00, 0x00, 0x01, 0x00, 0x00, 0x00,
  0x15, 0x00, 0x00, 0x00, 0x01, 0x00, 0x00, 0x00, 0x10, 0x00, 0x00, 0x00,
  0x83, 0x00, 0x00, 0x00, 0x73, 0x65, 0x71, 0x75, 0x65, 0x6e, 0x74, 0x69,
  0x61, 0x6c, 0x2f, 0x63, 0x6f, 0x6e, 0x76, 0x32, 0x64, 0x5f, 0x31, 0x2f,
  0x52, 0x65, 0x6c, 0x75, 0x3b, 0x73, 0x65, 0x71, 0x75, 0x65, 0x6e, 0x74,
  0x69, 0x61, 0x6c, 0x2f, 0x63, 0x6f, 0x6e, 0x76, 0x32, 0x64, 0x5f, 0x31,
  0x2f, 0x42, 0x69, 0x61, 0x73, 0x41, 0x64, 0x64, 0x3b, 0x73, 0x65, 0x71,
  0x75, 0x65, 0x6e, 0x74, 0x69, 0x61, 0x6c, 0x2f, 0x63, 0x6f, 0x6e, 0x76,
  0x32, 0x64, 0x5f, 0x31, 0x2f, 0x43, 0x6f, 0x6e, 0x76, 0x32, 0x44, 0x3b,
  0x73, 0x65, 0x71, 0x75, 0x65, 0x6e, 0x74, 0x69, 0x61, 0x6c, 0x2f, 0x63,
  0x6f, 0x6e, 0x76, 0x32, 0x64, 0x5f, 0x31, 0x2f, 0x42, 0x69, 0x61, 0x73,
  0x41, 0x64, 0x64, 0x2f, 0x52, 0x65, 0x61, 0x64, 0x56, 0x61, 0x72, 0x69,
  0x61, 0x62, 0x6c, 0x65, 0x4f, 0x70, 0x2f, 0x72, 0x65, 0x73, 0x6f, 0x75,
  0x72, 0x63, 0x65, 0x00, 0x04, 0x00, 0x00, 0x00, 0xff, 0xff, 0xff, 0xff,
  0x15, 0x00, 0x00, 0x00, 0x01, 0x00, 0x00, 0x00, 0x10, 0x00, 0x00, 0x00,
  0xfc, 0xd3, 0xff, 0xff, 0x00, 0x00, 0x0e, 0x00, 0x1a, 0x00, 0x08, 0x00,
  0x0c, 0x00, 0x10, 0x00, 0x07, 0x00, 0x14, 0x00, 0x0e, 0x00, 0x00, 0x00,
  0x00, 0x00, 0x00, 0x05, 0x01, 0x00, 0x00, 0x00, 0x3c, 0x00, 0x00, 0x00,
  0x30, 0x00, 0x00, 0x00, 0x14, 0x00, 0x00, 0x00, 0x00, 0x00, 0x0e, 0x00,
  0x18, 0x00, 0x17, 0x00, 0x10, 0x00, 0x0c, 0x00, 0x08, 0x00, 0x04, 0x00,
  0x0e, 0x00, 0x00, 0x00, 0x03, 0x00, 0x00, 0x00, 0x03, 0x00, 0x00, 0x00,
  0x03, 0x00, 0x00, 0x00, 0x03, 0x00, 0x00, 0x00, 0x00, 0x00, 0x00, 0x01,
  0x01, 0x00, 0x00, 0x00, 0x0b, 0x00, 0x00, 0x00, 0x01, 0x00, 0x00, 0x00,
  0x0a, 0x00, 0x00, 0x00, 0x2c, 0xff, 0xff, 0xff, 0x11, 0x00, 0x00, 0x00,
  0x00, 0x00, 0x00, 0x11, 0x01, 0x00, 0x00, 0x00, 0xcc, 0xd3, 0xff, 0xff,
  0x14, 0x00, 0x00, 0x00, 0x0c, 0x00, 0x00, 0x00, 0x20, 0x00, 0x00, 0x00,
  0x58, 0x00, 0x00, 0x00, 0x40, 0x00, 0x00, 0x00, 0x04, 0x00, 0x00, 0x00,
  0x01, 0x00, 0x00, 0x00, 0x15, 0x00, 0x00, 0x00, 0x01, 0x00, 0x00, 0x00,
  0x08, 0x00, 0x00, 0x00, 0x20, 0x00, 0x00, 0x00, 0x73, 0x65, 0x71, 0x75,
  0x65, 0x6e, 0x74, 0x69, 0x61, 0x6c, 0x2f, 0x6d, 0x61, 0x78, 0x5f, 0x70,
  0x6f, 0x6f, 0x6c, 0x69, 0x6e, 0x67, 0x32, 0x64, 0x2f, 0x4d, 0x61, 0x78,
  0x50, 0x6f, 0x6f, 0x6c, 0x00, 0x00, 0x00, 0x00, 0x04, 0x00, 0x00, 0x00,
  0xff, 0xff, 0xff, 0xff, 0x15, 0x00, 0x00, 0x00, 0x01, 0x00, 0x00, 0x00,
  0x08, 0x00, 0x00, 0x00, 0xd8, 0xd4, 0xff, 0xff, 0x00, 0x00, 0x0e, 0x00,
  0x14, 0x00, 0x00, 0x00, 0x08, 0x00, 0x0c, 0x00, 0x07, 0x00, 0x10, 0x00,
  0x0e, 0x00, 0x00, 0x00, 0x00, 0x00, 0x00, 0x01, 0x30, 0x00, 0x00, 0x00,
  0x24, 0x00, 0x00, 0x00, 0x10, 0x00, 0x00, 0x00, 0x0c, 0x00, 0x10, 0x00,
  0x00, 0x00, 0x04, 0x00, 0x08, 0x00, 0x0f, 0x00, 0x0c, 0x00, 0x00, 0x00,
  0x01, 0x00, 0x00, 0x00, 0x01, 0x00, 0x00, 0x00, 0x00, 0x00, 0x00, 0x01,
  0x01, 0x00, 0x00, 0x00, 0x0a, 0x00, 0x00, 0x00, 0x03, 0x00, 0x00, 0x00,
  0x00, 0x00, 0x00, 0x00, 0x08, 0x00, 0x00, 0x00, 0x01, 0x00, 0x00, 0x00,
  0x0c, 0x00, 0x10, 0x00, 0x0b, 0x00, 0x00, 0x00, 0x0c, 0x00, 0x04, 0x00,
  0x0c, 0x00, 0x00, 0x00, 0x03, 0x00, 0x00, 0x00, 0x00, 0x00, 0x00, 0x03,
  0x01, 0x00, 0x00, 0x00, 0xac, 0xd4, 0xff, 0xff, 0x14, 0x00, 0x00, 0x00,
  0x0b, 0x00, 0x00, 0x00, 0x20, 0x00, 0x00, 0x00, 0xb0, 0x00, 0x00, 0x00,
  0x98, 0x00, 0x00, 0x00, 0x04, 0x00, 0x00, 0x00, 0x01, 0x00, 0x00, 0x00,
  0x40, 0x00, 0x00, 0x00, 0x03, 0x00, 0x00, 0x00, 0x08, 0x00, 0x00, 0x00,
  0x7b, 0x00, 0x00, 0x00, 0x73, 0x65, 0x71, 0x75, 0x65, 0x6e, 0x74, 0x69,
  0x61, 0x6c, 0x2f, 0x63, 0x6f, 0x6e, 0x76, 0x32, 0x64, 0x2f, 0x52, 0x65,
  0x6c, 0x75, 0x3b, 0x73, 0x65, 0x71, 0x75, 0x65, 0x6e, 0x74, 0x69, 0x61,
  0x6c, 0x2f, 0x63, 0x6f, 0x6e, 0x76, 0x32, 0x64, 0x2f, 0x42, 0x69, 0x61,
  0x73, 0x41, 0x64, 0x64, 0x3b, 0x73, 0x65, 0x71, 0x75, 0x65, 0x6e, 0x74,
  0x69, 0x61, 0x6c, 0x2f, 0x63, 0x6f, 0x6e, 0x76, 0x32, 0x64, 0x2f, 0x43,
  0x6f, 0x6e, 0x76, 0x32, 0x44, 0x3b, 0x73, 0x65, 0x71, 0x75, 0x65, 0x6e,
  0x74, 0x69, 0x61, 0x6c, 0x2f, 0x63, 0x6f, 0x6e, 0x76, 0x32, 0x64, 0x2f,
  0x42, 0x69, 0x61, 0x73, 0x41, 0x64, 0x64, 0x2f, 0x52, 0x65, 0x61, 0x64,
  0x56, 0x61, 0x72, 0x69, 0x61, 0x62, 0x6c, 0x65, 0x4f, 0x70, 0x2f, 0x72,
  0x65, 0x73, 0x6f, 0x75, 0x72, 0x63, 0x65, 0x00, 0x04, 0x00, 0x00, 0x00,
  0xff, 0xff, 0xff, 0xff, 0x40, 0x00, 0x00, 0x00, 0x03, 0x00, 0x00, 0x00,
  0x08, 0x00, 0x00, 0x00, 0x00, 0xd5, 0xff, 0xff, 0x0a, 0xd6, 0xff, 0xff,
  0x04, 0x00, 0x00, 0x00, 0x00, 0x08, 0x00, 0x00, 0x09, 0x37, 0xb2, 0x3e,
  0xa8, 0x92, 0xb1, 0xbd, 0x45, 0xb8, 0x18, 0xbe, 0x00, 0xa1, 0x83, 0xbe,
  0x89, 0x44, 0x0e, 0x3f, 0xcf, 0x34, 0x9f, 0xbd, 0x4e, 0x7d, 0x96, 0x3e,
  0x0b, 0xbc, 0x53, 0xbe, 0x39, 0x82, 0xbc, 0xbd, 0xfc, 0x06, 0x9b, 0xbd,
  0xc8, 0xd6, 0xfb, 0xbd, 0x2e, 0xda, 0xd4, 0xbe, 0xcb, 0x90, 0x1a, 0x3e,
  0x51, 0xa5, 0xb4, 0xbe, 0xd9, 0xb3, 0x30, 0xbe, 0xa0, 0xe7, 0xc9, 0xbe,
  0xc8, 0x6c, 0x7e, 0xbd, 0xcf, 0x68, 0x17, 0xbd, 0x31, 0xa4, 0x70, 0xbc,
  0x14, 0x87, 0x35, 0xbe, 0x96, 0x26, 0xc1, 0x3e, 0x9a, 0x1a, 0x79, 0xbe,
  0x43, 0x64, 0x5c, 0xbe, 0x93, 0x0d, 0x55, 0xbe, 0x21, 0xe1, 0x3b, 0xbe,
  0xa4, 0xc5, 0xc2, 0x3d, 0x7a, 0xf2, 0x38, 0x3e, 0xee, 0x69, 0xb2, 0x3d,
  0x9d, 0xd2, 0xa4, 0x3e, 0xe9, 0xd9, 0xf6, 0xbd, 0x3e, 0xb3, 0x88, 0xbe,
  0x84, 0x80, 0x15, 0x3d, 0x91, 0xe9, 0xb3, 0xbe, 0xf4, 0xe1, 0xca, 0xbe,
  0x04, 0x6e, 0x63, 0xbe, 0xd7, 0x45, 0x65, 0xbd, 0x09, 0x1b, 0x77, 0xbe,
  0x44, 0xfd, 0xb5, 0x3d, 0xb7, 0xb7, 0xdf, 0xbd, 0x1c, 0x67, 0xc0, 0xbe,
  0x47, 0x69, 0x39, 0xbe, 0xe7, 0xb4, 0xb1, 0xbd, 0x26, 0xe1, 0x2a, 0xbd,
  0x32, 0xde, 0x4e, 0xbd, 0x6b, 0x82, 0x80, 0x3e, 0x72, 0xc5, 0x2b, 0xbe,
  0xa8, 0xbb, 0x11, 0xbd, 0x84, 0x52, 0x49, 0x3e, 0x3e, 0x26, 0x4f, 0xbd,
  0xfb, 0x62, 0x77, 0xbd, 0x1c, 0x40, 0x9f, 0x3b, 0x7d, 0xcc, 0x8b, 0xbe,
  0xf3, 0x01, 0xc4, 0xbe, 0xad, 0x6e, 0x08, 0xbe, 0x4c, 0xdf, 0x1f, 0x3c,
  0xc8, 0x95, 0xed, 0xbd, 0xae, 0x1a, 0x29, 0x3e, 0x68, 0x52, 0x8e, 0x3d,
  0x08, 0xec, 0x69, 0x3e, 0x53, 0xa5, 0xbe, 0x3c, 0x83, 0xd3, 0x3f, 0xbd,
  0x0a, 0x7e, 0xa9, 0x38, 0x86, 0x70, 0x68, 0x3d, 0x4b, 0x0d, 0xc3, 0xbd,
  0xf5, 0x45, 0xcc, 0xbe, 0x74, 0x87, 0xc3, 0xbe, 0x6f, 0xd1, 0xca, 0xbd,
  0x74, 0xd5, 0xb2, 0x3e, 0x2d, 0x67, 0xf2, 0x3e, 0x5a, 0x65, 0xd7, 0xbc,
  0x71, 0xd5, 0x32, 0xbd, 0xf8, 0x9f, 0x57, 0xbe, 0xdd, 0xf1, 0x54, 0xbd,
  0xb5, 0x7f, 0xcc, 0xbe, 0x21, 0x2a, 0xd4, 0xbd, 0x3d, 0x70, 0xbb, 0x3d,
  0x76, 0x7f, 0x97, 0x3e, 0x9d, 0x66, 0x79, 0x3e, 0x80, 0xe7, 0x65, 0x3d,
  0x19, 0x4c, 0x3b, 0xbc, 0x87, 0xf0, 0x5c, 0x3e, 0xd1, 0x5a, 0xb5, 0xbe,
  0x9e, 0x35, 0x23, 0xbe, 0x4c, 0x02, 0x19, 0x3d, 0xd4, 0xed, 0x91, 0x3b,
  0xc0, 0x93, 0xea, 0xbc, 0x24, 0xbc, 0xf7, 0xbd, 0xe8, 0x9d, 0x50, 0xbd,
  0x59, 0x1f, 0x1a, 0xbe, 0x57, 0xb9, 0x17, 0xbe, 0x9e, 0x3b, 0x6b, 0xbd,
  0x83, 0x47, 0x2d, 0x3d, 0x84, 0x77, 0x3e, 0x3d, 0x99, 0x39, 0x45, 0x3d,
  0x49, 0xff, 0x3a, 0x3e, 0x30, 0xe0, 0xce, 0x3d, 0x55, 0x8e, 0x9f, 0x3d,
  0xe1, 0x0c, 0xb4, 0xbe, 0x42, 0x32, 0xf5, 0xbe, 0xaf, 0xec, 0x85, 0xbe,
  0x46, 0x3f, 0xf9, 0xbd, 0x0e, 0x9a, 0x7d, 0xbe, 0xbd, 0xf1, 0x39, 0xbe,
  0x54, 0x03, 0x17, 0xbe, 0x6b, 0x7b, 0x29, 0xbd, 0x9f, 0x69, 0x02, 0xbe,
  0x4f, 0x4a, 0xd6, 0xbc, 0x99, 0x34, 0xce, 0x3d, 0x0b, 0xf0, 0xee, 0x3d,
  0xb0, 0xa7, 0x99, 0x3d, 0xc5, 0x41, 0xb3, 0x3d, 0xb0, 0x71, 0xae, 0xbe,
  0x7e, 0x95, 0xf6, 0xbc, 0x62, 0x76, 0x26, 0xbc, 0x2c, 0xab, 0xb5, 0x3c,
  0xf3, 0x98, 0xaf, 0xbe, 0xed, 0x07, 0x70, 0xbe, 0x38, 0x74, 0xc6, 0x3c,
  0x81, 0x41, 0x1c, 0xbe, 0x9f, 0x1e, 0x2d, 0xbf, 0xda, 0xe6, 0x7e, 0xbe,
  0xd6, 0x59, 0xee, 0x3d, 0x85, 0x68, 0x6b, 0x3e, 0xe3, 0xd4, 0x6e, 0xbc,
  0xf2, 0x27, 0x89, 0x3d, 0x80, 0xa1, 0xa8, 0xbd, 0x7c, 0x90, 0xc0, 0xbd,
  0xc0, 0xbf, 0x99, 0xbe, 0x00, 0xbe, 0x83, 0x3d, 0x83, 0x19, 0xe6, 0xbd,
  0x2e, 0xe0, 0xec, 0xbd, 0xca, 0xaa, 0x4c, 0xbe, 0x4f, 0x92, 0x04, 0xbe,
  0xcb, 0x15, 0xed, 0x3d, 0xfa, 0x36, 0x33, 0x3e, 0x44, 0xde, 0x82, 0xbe,
  0x01, 0x9e, 0xbc, 0xbc, 0xd5, 0x84, 0x80, 0xbd, 0x4f, 0x35, 0x94, 0xbc,
  0xc3, 0x80, 0x1a, 0xbe, 0x24, 0x62, 0xff, 0xbd, 0x2d, 0x1d, 0x02, 0xbd,
  0x47, 0xc1, 0xdb, 0xbd, 0xf2, 0x42, 0xb9, 0xbe, 0xb0, 0xe6, 0xbf, 0x3d,
  0x58, 0xef, 0x71, 0xbe, 0xa9, 0x6a, 0x1a, 0xbe, 0x51, 0xb8, 0x87, 0xbd,
  0xad, 0xd7, 0x5d, 0xbd, 0xd6, 0x8d, 0x39, 0xbd, 0xb0, 0x35, 0xb0, 0x3d,
  0x0a, 0x89, 0x02, 0xbf, 0x08, 0xda, 0xc5, 0x3d, 0xe3, 0x20, 0xf9, 0xbd,
  0x31, 0x39, 0x5a, 0xbd, 0x61, 0x1c, 0x8b, 0xbd, 0xf2, 0x22, 0x89, 0x3d,
  0x61, 0xce, 0x15, 0xbe, 0x57, 0x0a, 0x8f, 0xbd, 0xd0, 0x43, 0x83, 0xbe,
  0x5a, 0xf2, 0x80, 0xbe, 0x23, 0x5d, 0x1e, 0xbd, 0xeb, 0xb7, 0x1a, 0x3c,
  0x8b, 0xa6, 0x81, 0xbe, 0x5e, 0x81, 0x98, 0xbe, 0xb9, 0xec, 0xee, 0x3d,
  0x17, 0x47, 0x80, 0xbe, 0x3b, 0x4f, 0x0a, 0xbf, 0xcd, 0x3c, 0x0e, 0xbe,
  0x9a, 0x28, 0xd3, 0xbc, 0xad, 0x90, 0x4c, 0xbe, 0xc4, 0x8c, 0x44, 0xbe,
  0x8e, 0x2e, 0x26, 0xbd, 0xf3, 0x6d, 0x9a, 0x3d, 0x2e, 0x7a, 0x91, 0xbe,
  0xf4, 0x94, 0x9f, 0xbe, 0x41, 0x26, 0xec, 0xbe, 0x1d, 0x69, 0x19, 0x3e,
  0x2f, 0x90, 0x83, 0x3d, 0x46, 0x37, 0x3c, 0xbe, 0x61, 0x66, 0xa8, 0x3d,
  0x13, 0x7a, 0xab, 0xbd, 0xb9, 0xf8, 0xe9, 0xbe, 0x5c, 0x9c, 0x10, 0xbe,
  0x60, 0xa3, 0x24, 0xbf, 0x52, 0xd8, 0xc6, 0xbc, 0x35, 0x40, 0x29, 0x3e,
  0x9c, 0xb1, 0xb5, 0xbd, 0xd5, 0x64, 0x43, 0x3e, 0x3d, 0x7f, 0x70, 0x3e,
  0x44, 0x36, 0xfa, 0xbe, 0xf3, 0x14, 0x82, 0xbe, 0x76, 0xac, 0x62, 0x3c,
  0x12, 0x8d, 0xae, 0xbd, 0xdc, 0x2f, 0x42, 0xbe, 0x47, 0x8e, 0x05, 0xbe,
  0x3c, 0x31, 0x96, 0xbe, 0x70, 0x31, 0x8c, 0xbe, 0x95, 0xc6, 0x0f, 0xbf,
  0x31, 0x48, 0x07, 0x3e, 0xea, 0x17, 0x35, 0xbd, 0xf2, 0xc7, 0x80, 0xbe,
  0x58, 0xd2, 0x37, 0xbe, 0xfc, 0x1d, 0x0d, 0x3b, 0x59, 0x5e, 0x6c, 0x3e,
  0x5b, 0xd5, 0x03, 0x3e, 0x69, 0x6a, 0x29, 0xbd, 0x02, 0xa7, 0x96, 0x3e,
  0x41, 0x04, 0x27, 0xbd, 0x6b, 0x79, 0x9c, 0xbe, 0xc5, 0x14, 0x3e, 0xbd,
  0xdf, 0x5b, 0x78, 0xbe, 0xed, 0xbc, 0xd4, 0xbd, 0xe1, 0xbd, 0x13, 0xbc,
  0x86, 0xe2, 0xb9, 0xbd, 0x43, 0x9f, 0xfe, 0xbd, 0x52, 0x8e, 0x78, 0x3d,
  0xf6, 0x64, 0x84, 0xbe, 0x7d, 0xaa, 0x92, 0xbd, 0x27, 0x98, 0xac, 0x3d,
  0x25, 0x48, 0xad, 0x3e, 0x5d, 0x16, 0x34, 0x3e, 0xa0, 0x5b, 0x13, 0x3c,
  0x47, 0x27, 0x67, 0x3e, 0x0e, 0x4f, 0xc4, 0xbd, 0xc7, 0x01, 0xcd, 0xbd,
  0x35, 0xed, 0xe1, 0xbd, 0xca, 0xbe, 0xac, 0x3e, 0x35, 0x15, 0xb6, 0x3e,
  0x7d, 0x60, 0xac, 0x3e, 0x04, 0xcd, 0x48, 0x3e, 0x2d, 0x7a, 0xf5, 0x3d,
  0x89, 0xfc, 0xd0, 0xbd, 0x6d, 0x0e, 0x1f, 0xbe, 0xcb, 0x5b, 0x26, 0xbe,
  0x46, 0x8b, 0xc0, 0xbd, 0xb8, 0xc6, 0xa2, 0x3e, 0xd8, 0x2b, 0xa4, 0xbd,
  0x07, 0x6a, 0xcb, 0xbd, 0x48, 0x07, 0x51, 0xbe, 0xe3, 0x5f, 0x93, 0x3d,
  0xe4, 0xf6, 0xaf, 0xbd, 0x56, 0x4c, 0xbb, 0xbd, 0x31, 0x83, 0xae, 0xbd,
  0xf8, 0x7d, 0xbe, 0x3e, 0x8d, 0x62, 0x0e, 0xbe, 0xb2, 0xfc, 0xbf, 0xbd,
  0x16, 0xcb, 0x35, 0xbe, 0xea, 0x58, 0x2c, 0xbd, 0x17, 0xde, 0x26, 0x3d,
  0xcc, 0x86, 0xa5, 0x3d, 0xcf, 0xee, 0x41, 0xbd, 0xe3, 0xed, 0x1e, 0x3e,
  0x0b, 0xd3, 0x89, 0xbe, 0xbd, 0x8e, 0x4b, 0xbe, 0x2b, 0x29, 0x66, 0xbe,
  0xa8, 0x16, 0xae, 0xbc, 0x76, 0x56, 0x8a, 0xbc, 0xdb, 0xdb, 0x0f, 0x3e,
  0xd1, 0x3c, 0xac, 0xbe, 0xf3, 0x88, 0xcd, 0x3d, 0x6b, 0x8b, 0xf1, 0xbe,
  0xdd, 0x95, 0x0e, 0xbe, 0xe2, 0x54, 0x12, 0xbe, 0x6a, 0xcf, 0x8f, 0xbe,
  0x20, 0x66, 0xd5, 0xbd, 0xbd, 0x16, 0xeb, 0xbc, 0xb0, 0xfb, 0xd6, 0xbd,
  0x09, 0xd4, 0xc2, 0x3e, 0xba, 0x66, 0x16, 0xbe, 0xbf, 0x46, 0x9e, 0xbe,
  0xf0, 0xaa, 0x2b, 0x3c, 0x7d, 0x39, 0x28, 0x3c, 0x8d, 0xae, 0x89, 0x3d,
  0xc2, 0xc3, 0xa8, 0xbd, 0x3b, 0xfe, 0x3f, 0x3e, 0x9d, 0x55, 0xc1, 0xbe,
  0x04, 0xd6, 0x99, 0xbe, 0xe5, 0x75, 0xe2, 0xbb, 0xda, 0xa2, 0x2d, 0xbe,
  0xb2, 0x58, 0x0c, 0x3d, 0x02, 0xa2, 0x0c, 0x3d, 0x2a, 0xc6, 0x9c, 0xbd,
  0x21, 0x1f, 0x92, 0x3e, 0xbf, 0xd6, 0x65, 0x3d, 0xdf, 0xea, 0xf8, 0xbe,
  0xe5, 0x10, 0x14, 0x3e, 0xe2, 0xdc, 0x18, 0x3e, 0x0a, 0xf0, 0x25, 0xbe,
  0xba, 0x04, 0xba, 0x3d, 0x1a, 0xb9, 0x1f, 0x3d, 0x8d, 0xc9, 0xc3, 0xbe,
  0x89, 0xbf, 0x23, 0x3f, 0x20, 0xc3, 0x22, 0xbe, 0xf3, 0xdc, 0xab, 0xbe,
  0x94, 0xd3, 0xb3, 0xbe, 0x2e, 0x02, 0xd0, 0xbe, 0x85, 0x95, 0x09, 0xbf,
  0xca, 0x99, 0x4f, 0xbe, 0x9b, 0x64, 0x73, 0x3e, 0x09, 0x5a, 0x25, 0x3e,
  0x81, 0xb6, 0x65, 0xbd, 0xb2, 0x61, 0xab, 0xbf, 0x77, 0x1f, 0x41, 0xbd,
  0xa6, 0xc5, 0xf5, 0xbc, 0x7d, 0xae, 0xd6, 0xbb, 0x17, 0x36, 0x2a, 0xbe,
  0x5a, 0xce, 0x40, 0x3e, 0xc9, 0x37, 0x31, 0xbf, 0x56, 0x7b, 0x10, 0xbe,
  0x79, 0x64, 0xf5, 0xbd, 0xaf, 0x3d, 0x0a, 0x3e, 0x18, 0xb7, 0xae, 0x3d,
  0x0d, 0xb7, 0x74, 0x3d, 0x64, 0xf3, 0x91, 0xbd, 0xfa, 0xc8, 0xf7, 0xbd,
  0x7e, 0x8c, 0xfe, 0x3d, 0x23, 0xff, 0x9d, 0xbe, 0xb6, 0x5e, 0xc1, 0x3d,
  0x08, 0xef, 0xc2, 0x3b, 0x9a, 0xaa, 0xe5, 0xbc, 0xd0, 0x0a, 0x0a, 0x3d,
  0xaa, 0x16, 0xf4, 0xbb, 0x8c, 0x4e, 0x8f, 0xbe, 0x88, 0xcf, 0x20, 0xbf,
  0x1f, 0xd9, 0x8b, 0xbe, 0x39, 0x46, 0x79, 0xbc, 0xa9, 0xf3, 0xf7, 0xbd,
  0x86, 0xe1, 0x47, 0x3c, 0x24, 0xb4, 0x04, 0x3d, 0x48, 0x96, 0x37, 0x3c,
  0xaf, 0xf4, 0x7f, 0xbe, 0xc2, 0x2c, 0xf5, 0xbd, 0x8b, 0x70, 0x9e, 0xbe,
  0x92, 0xca, 0x37, 0xbd, 0xd5, 0xc6, 0x2f, 0xbe, 0x85, 0xcc, 0x33, 0xbe,
  0xd7, 0xf2, 0xc0, 0xbc, 0xd0, 0x8e, 0xcd, 0x3c, 0xed, 0x6d, 0x8a, 0xbe,
  0x3f, 0xc8, 0xa9, 0x3e, 0xa8, 0x9f, 0x30, 0xbd, 0x74, 0x55, 0xf4, 0xbd,
  0x06, 0x36, 0xe8, 0xbd, 0x41, 0x71, 0x09, 0xbe, 0xe8, 0xe2, 0x45, 0xbd,
  0x72, 0x1f, 0xbd, 0xbc, 0xf3, 0x56, 0xf0, 0x3d, 0xea, 0x5f, 0x17, 0x3f,
  0x74, 0xdb, 0x8c, 0x3d, 0xe6, 0xe7, 0x46, 0xbe, 0x50, 0x84, 0x94, 0x3d,
  0x81, 0x7c, 0x26, 0xbf, 0x7b, 0xd4, 0x0a, 0xbf, 0x9c, 0x8e, 0x6b, 0xbe,
  0x39, 0x06, 0xf0, 0x3d, 0xbe, 0x08, 0x53, 0xbe, 0xd5, 0x47, 0x7d, 0xbd,
  0x21, 0x74, 0x63, 0xbd, 0x69, 0x0b, 0xc7, 0xbe, 0x66, 0x47, 0xb8, 0xbe,
  0xb5, 0xf5, 0x08, 0xbf, 0x9c, 0xae, 0x71, 0xbe, 0x40, 0x8c, 0xac, 0xbd,
  0x6d, 0x13, 0x14, 0x3b, 0xcc, 0x13, 0x0c, 0xbc, 0xce, 0x1f, 0xa8, 0xbd,
  0x78, 0xd5, 0xc6, 0xbe, 0x94, 0x9d, 0xe6, 0x3d, 0xfb, 0x24, 0x58, 0xbe,
  0x37, 0xeb, 0xaa, 0xbd, 0x87, 0x0e, 0x19, 0x3e, 0x5a, 0x1a, 0x5f, 0x3e,
  0xd6, 0x2d, 0xe4, 0xbb, 0x59, 0x3f, 0xe7, 0xbd, 0xc1, 0xba, 0x9f, 0x3c,
  0xa5, 0x77, 0xfa, 0x3e, 0x21, 0xf6, 0xdb, 0x3d, 0x0a, 0xdf, 0x93, 0x3e,
  0xc2, 0x30, 0xeb, 0x3d, 0xb8, 0xd3, 0x74, 0x3d, 0x36, 0x4a, 0x11, 0xbd,
  0x49, 0xc9, 0x97, 0xbd, 0xcc, 0xd3, 0x38, 0xbd, 0x77, 0x8c, 0x8e, 0xbd,
  0xd3, 0x2c, 0xe0, 0xbc, 0x8c, 0x95, 0xe9, 0xbc, 0x0c, 0x54, 0xd0, 0xbd,
  0xcc, 0x4d, 0x39, 0xbc, 0x4b, 0x69, 0xca, 0xbe, 0x7b, 0x3e, 0x90, 0xbd,
  0xf6, 0x60, 0xc5, 0xbd, 0x67, 0xdd, 0x95, 0xbd, 0x2b, 0x6e, 0x26, 0xbd,
  0x93, 0xd9, 0x25, 0xbd, 0x42, 0xc7, 0x4d, 0xbb, 0xe8, 0x4c, 0xfc, 0xbd,
  0x09, 0xa4, 0x9d, 0xbe, 0xbb, 0x86, 0x48, 0xbd, 0x54, 0xed, 0xc5, 0xbd,
  0xd1, 0x28, 0x71, 0xbd, 0x49, 0x00, 0x09, 0xbd, 0x15, 0xb4, 0x6a, 0xbd,
  0x12, 0x93, 0x70, 0x3d, 0xb1, 0x50, 0xcf, 0x3b, 0x4a, 0xb1, 0x6f, 0xbd,
  0xed, 0x1c, 0x7f, 0xbd, 0x4a, 0x67, 0x55, 0x3f, 0xce, 0x67, 0x7a, 0xbd,
  0xbb, 0x5b, 0xec, 0xbc, 0x75, 0x6b, 0x37, 0xbd, 0x12, 0x60, 0xf1, 0x3d,
  0x21, 0x5c, 0x1a, 0x3e, 0x65, 0x7c, 0x12, 0x3e, 0x36, 0xa5, 0x7e, 0xbc,
  0x47, 0x54, 0xaf, 0xbd, 0x79, 0x41, 0x52, 0xbe, 0xfb, 0xdb, 0xcb, 0x3d,
  0x1e, 0xa6, 0x4f, 0x3c, 0x2b, 0xbc, 0x0e, 0xbf, 0xe8, 0xc2, 0x19, 0x3d,
  0xab, 0x84, 0x08, 0xbe, 0x6d, 0xc9, 0xe5, 0xbe, 0xc9, 0x99, 0x09, 0xbf,
  0xe1, 0xd5, 0x0c, 0xbf, 0x25, 0x41, 0x9d, 0xbe, 0xda, 0x98, 0x29, 0xbe,
  0xfa, 0x2f, 0x46, 0xbd, 0x29, 0x4f, 0x29, 0x3f, 0x18, 0xc1, 0x29, 0xbd,
  0xc1, 0x02, 0x8c, 0xbf, 0xdd, 0x62, 0x87, 0xbd, 0x0a, 0x41, 0x5d, 0x3d,
  0x3a, 0x8c, 0x9f, 0xbd, 0xa0, 0x1b, 0x18, 0xbe, 0x9d, 0x6c, 0x02, 0x3e,
  0xa5, 0xa5, 0xfb, 0xbe, 0x72, 0xb2, 0x91, 0xbe, 0x91, 0x24, 0x26, 0xbe,
  0x70, 0x00, 0x4d, 0x3e, 0x53, 0xa5, 0xbe, 0x3d, 0x00, 0xd7, 0x47, 0x3d,
  0xd0, 0x8d, 0xd3, 0xbd, 0x46, 0x42, 0x1c, 0x3e, 0xe6, 0x6e, 0x4a, 0xbe,
  0x94, 0x57, 0xaf, 0xbe, 0x70, 0x71, 0x67, 0x3e, 0xcc, 0x34, 0x91, 0x3d,
  0x02, 0xec, 0x35, 0x3e, 0x39, 0x64, 0xaa, 0xbe, 0xdc, 0x2e, 0x8a, 0xbe,
  0x83, 0x3a, 0xdf, 0x3b, 0x7f, 0xac, 0x91, 0x3e, 0x4f, 0xb9, 0xa6, 0xbe,
  0x09, 0x80, 0x8c, 0xbe, 0x49, 0xe0, 0x48, 0x3e, 0x58, 0x99, 0x3d, 0xbe,
  0x2e, 0xa0, 0xc4, 0xbe, 0x5b, 0xcd, 0xaf, 0xbe, 0x68, 0x10, 0xbe, 0x3e,
  0x81, 0x8e, 0x02, 0x3f, 0xc3, 0xd7, 0x58, 0xbe, 0x5f, 0xcc, 0xea, 0xbe,
  0xf5, 0x59, 0xad, 0x3c, 0x51, 0xa4, 0x50, 0x3d, 0xa5, 0x3d, 0x19, 0xbe,
  0x3f, 0xb1, 0x4b, 0xbe, 0x8f, 0x42, 0x27, 0x3e, 0x89, 0xba, 0x06, 0x3e,
  0xca, 0x42, 0xa7, 0xbe, 0x5e, 0x14, 0x2d, 0xbe, 0x47, 0x2a, 0xe6, 0x3e,
  0x34, 0x5b, 0x1a, 0xbe, 0xda, 0xaa, 0x8e, 0xbd, 0x72, 0xe6, 0x31, 0xbe,
  0x4e, 0x00, 0x48, 0x3d, 0x5a, 0x00, 0xb5, 0x3e, 0x80, 0x43, 0xc9, 0xbe,
  0x43, 0x7e, 0x37, 0xbe, 0x59, 0xad, 0x4a, 0x3e, 0x8f, 0x9b, 0x20, 0xbe,
  0xf4, 0xff, 0x48, 0x3e, 0x63, 0xe2, 0xcd, 0xbc, 0x7a, 0xac, 0xf8, 0x3d,
  0x36, 0x94, 0x09, 0x3f, 0xb9, 0x3b, 0x1b, 0xbe, 0x4d, 0x7f, 0x80, 0xbc,
  0xf3, 0x2d, 0x07, 0xbd, 0x21, 0xab, 0x99, 0xbe, 0x83, 0x63, 0x2b, 0xbe,
  0x1b, 0x45, 0xc8, 0xbd, 0x74, 0x8f, 0x3c, 0x3e, 0x70, 0xaa, 0x7b, 0x3e,
  0x9b, 0x66, 0xa6, 0x3d, 0x7e, 0xdf, 0xe4, 0xbd, 0xf6, 0x3a, 0xb0, 0xbe,
  0xa8, 0xa0, 0x54, 0xbe, 0x37, 0x80, 0xf1, 0xbe, 0xf7, 0x99, 0x9d, 0xbd,
  0xcb, 0x80, 0x8b, 0x3e, 0xb4, 0x26, 0x4e, 0x3e, 0x4b, 0x7f, 0xd5, 0xbc,
  0xbb, 0x81, 0x73, 0x3d, 0x79, 0x4c, 0x99, 0xbe, 0x0b, 0xbb, 0xdf, 0x3e,
  0x19, 0x8c, 0x42, 0xbe, 0xe6, 0x50, 0x2a, 0xbd, 0x2a, 0x07, 0x0d, 0x3d,
  0xd0, 0x4c, 0xa0, 0xbe, 0x10, 0x30, 0x1c, 0x3c, 0xf8, 0x34, 0x4b, 0x3c,
  0x46, 0xbb, 0xa0, 0x3d, 0xe2, 0xdd, 0xff, 0xff, 0x10, 0x00, 0x00, 0x00,
  0x0a, 0x00, 0x00, 0x00, 0x1c, 0x00, 0x00, 0x00, 0x38, 0x00, 0x00, 0x00,
  0x04, 0x00, 0x00, 0x00, 0x10, 0x00, 0x00, 0x00, 0x04, 0x00, 0x00, 0x00,
  0x01, 0x00, 0x00, 0x00, 0x08, 0x00, 0x00, 0x00, 0x1a, 0x00, 0x00, 0x00,
  0x73, 0x65, 0x71, 0x75, 0x65, 0x6e, 0x74, 0x69, 0x61, 0x6c, 0x2f, 0x63,
  0x6f, 0x6e, 0x76, 0x32, 0x64, 0x5f, 0x31, 0x2f, 0x43, 0x6f, 0x6e, 0x76,
  0x32, 0x44, 0x00, 0x00, 0x58, 0xdd, 0xff, 0xff, 0x62, 0xde, 0xff, 0xff,
  0x04, 0x00, 0x00, 0x00, 0x80, 0x01, 0x00, 0x00, 0x48, 0x7a, 0x05, 0xbe,
  0x25, 0x18, 0x37, 0xbe, 0xea, 0x00, 0xaa, 0x3e, 0x72, 0xd8, 0x67, 0x3d,
  0x59, 0xeb, 0x2a, 0xbe, 0x1f, 0x05, 0x1b, 0xbe, 0x82, 0x5b, 0x8b, 0x3d,
  0xfd, 0x66, 0x1d, 0xbd, 0x4c, 0x74, 0x6d, 0xbe, 0x86, 0xd6, 0xf8, 0xbd,
  0xa3, 0x8c, 0xa5, 0x3d, 0xd5, 0x01, 0x8e, 0xbe, 0x95, 0xd4, 0x00, 0xbe,
  0x25, 0x88, 0x16, 0xbd, 0x92, 0xc1, 0x26, 0xbe, 0x33, 0xa3, 0x02, 0xbe,
  0x31, 0xa8, 0x49, 0xbd, 0x8b, 0xd3, 0x49, 0xbe, 0x5a, 0xf0, 0xd5, 0xbd,
  0x08, 0x98, 0xc6, 0x3d, 0x7e, 0x49, 0x2c, 0xbe, 0x91, 0x55, 0xab, 0xbd,
  0xd1, 0x6e, 0x04, 0x3d, 0x35, 0xd1, 0x3b, 0xbe, 0x5c, 0x14, 0x95, 0xbb,
  0xf8, 0x21, 0xc5, 0xbc, 0x2b, 0x6a, 0x1a, 0xbe, 0x94, 0x6e, 0x10, 0xbe,
  0x7e, 0x95, 0xe4, 0x3d, 0x4c, 0x99, 0xa9, 0xbd, 0x03, 0x20, 0x89, 0xbc,
  0x54, 0x49, 0x3b, 0x3d, 0x83, 0x61, 0x8e, 0xbd, 0xfe, 0x7e, 0x90, 0xbd,
  0xe3, 0xa9, 0xf9, 0x3d, 0x97, 0xf4, 0x98, 0xbe, 0x9a, 0xc3, 0xa9, 0x3e,
  0xe0, 0x98, 0x60, 0x3e, 0x79, 0xd5, 0x95, 0xbe, 0x98, 0xa1, 0xc2, 0x3c,
  0x96, 0xfc, 0xba, 0x3e, 0x76, 0x21, 0x82, 0x3d, 0x23, 0xd4, 0x4c, 0xbe,
  0xcf, 0x2b, 0xa4, 0xbe, 0x16, 0x79, 0x46, 0xbd, 0x9f, 0x3d, 0x40, 0xbe,
  0xeb, 0x04, 0xa7, 0xbe, 0xbe, 0x2c, 0x2f, 0x3e, 0x89, 0x11, 0x88, 0xbd,
  0x51, 0xdd, 0x47, 0xbe, 0x6e, 0x1f, 0xfa, 0xbd, 0xd7, 0x99, 0x8b, 0xbd,
  0xc7, 0x67, 0xc5, 0xbe, 0x2c, 0x13, 0xe5, 0xbe, 0xaf, 0x16, 0xec, 0x3d,
  0x34, 0x79, 0xf8, 0x3e, 0xed, 0x3f, 0xb0, 0x3e, 0x8e, 0xfe, 0xbb, 0x3b,
  0xb4, 0x1f, 0x9c, 0x3d, 0x8d, 0xb9, 0x2c, 0x3e, 0xec, 0xd3, 0x89, 0xbc,
  0x75, 0xa3, 0xab, 0xbc, 0x92, 0xf7, 0x05, 0x3d, 0xd8, 0x6d, 0x9f, 0xb9,
  0x76, 0x49, 0x2a, 0x3d, 0x31, 0x2a, 0x6d, 0x3d, 0xd9, 0x66, 0x8d, 0x3c,
  0x0c, 0x9a, 0xa9, 0x3d, 0x7b, 0xf2, 0x63, 0x39, 0xf7, 0x65, 0xba, 0x3d,
  0x17, 0x76, 0x3d, 0x3d, 0x71, 0x74, 0x82, 0xbb, 0xa1, 0x6b, 0x0e, 0xbd,
  0x5c, 0x4d, 0x24, 0xbe, 0xa0, 0xd0, 0x3b, 0xbe, 0x9c, 0xf1, 0x28, 0xbd,
  0x6f, 0xe1, 0x2c, 0xbe, 0xb6, 0x94, 0x09, 0xbc, 0x70, 0xd6, 0x51, 0xbd,
  0xe0, 0x6e, 0x1b, 0xbd, 0x04, 0x38, 0xba, 0x3d, 0xcc, 0xb3, 0xc1, 0xbd,
  0xcd, 0x07, 0xce, 0xbc, 0xc7, 0xc7, 0x44, 0xbd, 0x87, 0xf5, 0x5b, 0x3e,
  0xcf, 0x2a, 0x0a, 0x3f, 0x60, 0xf7, 0xe6, 0x3d, 0x76, 0xd0, 0x95, 0xbe,
  0xfd, 0xe9, 0x96, 0xbd, 0x5c, 0x8d, 0x5e, 0xbd, 0x21, 0x9b, 0x03, 0x3e,
  0x9d, 0xda, 0xe0, 0xbe, 0x52, 0x1f, 0x91, 0xbe, 0xc6, 0xe4, 0xc3, 0xbd,
  0xb6, 0x76, 0x19, 0xbe, 0x87, 0x80, 0x5b, 0xbd, 0xba, 0xdf, 0xff, 0xff,
  0x10, 0x00, 0x00, 0x00, 0x09, 0x00, 0x00, 0x00, 0x1c, 0x00, 0x00, 0x00,
  0x38, 0x00, 0x00, 0x00, 0x04, 0x00, 0x00, 0x00, 0x08, 0x00, 0x00, 0x00,
  0x04, 0x00, 0x00, 0x00, 0x03, 0x00, 0x00, 0x00, 0x01, 0x00, 0x00, 0x00,
  0x18, 0x00, 0x00, 0x00, 0x73, 0x65, 0x71, 0x75, 0x65, 0x6e, 0x74, 0x69,
  0x61, 0x6c, 0x2f, 0x63, 0x6f, 0x6e, 0x76, 0x32, 0x64, 0x2f, 0x43, 0x6f,
  0x6e, 0x76, 0x32, 0x44, 0x00, 0x00, 0x00, 0x00, 0x30, 0xdf, 0xff, 0xff,
  0x3a, 0xe0, 0xff, 0xff, 0x04, 0x00, 0x00, 0x00, 0x00, 0x01, 0x00, 0x00,
  0x02, 0xc3, 0x9f, 0x3e, 0x92, 0x0d, 0x88, 0x3e, 0x7f, 0xd7, 0x08, 0xbe,
  0xa0, 0x7e, 0xb0, 0x3c, 0xc9, 0x40, 0xa5, 0x3d, 0x5c, 0x3c, 0xc3, 0xbe,
  0x74, 0x82, 0x4d, 0xbe, 0x4a, 0xe6, 0x73, 0x3d, 0x7a, 0x17, 0xf3, 0x3d,
  0x22, 0xd1, 0xee, 0xbd, 0x2e, 0x7b, 0x44, 0x3d, 0x74, 0xd4, 0x62, 0x3d,
  0x9a, 0x0a, 0x61, 0xbe, 0x4a, 0xf3, 0x25, 0xbd, 0xbe, 0x31, 0xc2, 0xbe,
  0x98, 0x06, 0xd5, 0x3c, 0x17, 0x1c, 0xb2, 0x3e, 0x53, 0x0c, 0xa3, 0x3e,
  0x6e, 0xe2, 0x26, 0xbe, 0xd0, 0x7b, 0x09, 0xbc, 0x5d, 0x33, 0x77, 0x3e,
  0xba, 0x88, 0x97, 0xbe, 0x3c, 0x89, 0x4f, 0xbd, 0xfb, 0x68, 0xad, 0x3d,
  0x88, 0x32, 0xea, 0x3d, 0x84, 0xb3, 0x01, 0xbe, 0xf1, 0x87, 0x08, 0xbc,
  0x88, 0x89, 0xf5, 0x3d, 0x6d, 0xb9, 0x52, 0x3e, 0x00, 0x17, 0x26, 0xbc,
  0xc4, 0x74, 0xac, 0xbe, 0x68, 0x1e, 0xd6, 0x3d, 0xb4, 0x1d, 0x9b, 0x3e,
  0x02, 0x9a, 0x63, 0x3e, 0xd9, 0xb4, 0x15, 0xbe, 0xa2, 0xb0, 0xf8, 0xbd,
  0xf2, 0xe5, 0x15, 0x3e, 0x4a, 0xd5, 0xc1, 0xbe, 0x99, 0x0f, 0xda, 0x3c,
  0xf1, 0x0d, 0x01, 0x3e, 0x37, 0x35, 0x25, 0x3e, 0x90, 0x2e, 0x32, 0xbe,
  0x48, 0xca, 0x77, 0xbc, 0x61, 0x83, 0xa6, 0x3b, 0xde, 0x09, 0x25, 0x3e,
  0x7d, 0xa2, 0x54, 0x3c, 0x4a, 0xeb, 0xb2, 0xbe, 0x9d, 0xbf, 0xcb, 0xbe,
  0x5c, 0x5b, 0x6f, 0x3e, 0xeb, 0xba, 0x71, 0x3e, 0x11, 0xdf, 0x53, 0xbe,
  0x4f, 0x57, 0xfc, 0xbc, 0x24, 0x57, 0x91, 0x3e, 0xaa, 0x89, 0x8c, 0xbe,
  0xc7, 0xd1, 0xaf, 0xbc, 0x39, 0x55, 0x57, 0x3d, 0xe9, 0xe6, 0x58, 0x3d,
  0xda, 0x1a, 0x42, 0xbe, 0xf4, 0x58, 0x8c, 0xbc, 0x51, 0x21, 0x13, 0x3e,
  0x72, 0x3e, 0x5a, 0x3e, 0x86, 0xfa, 0x8a, 0xbd, 0xe7, 0xb3, 0xda, 0xbe,
  0x9b, 0x3e, 0xef, 0xbd, 0x12, 0xe1, 0xff, 0xff, 0x10, 0x00, 0x00, 0x00,
  0x08, 0x00, 0x00, 0x00, 0x14, 0x00, 0x00, 0x00, 0x30, 0x00, 0x00, 0x00,
  0x02, 0x00, 0x00, 0x00, 0x04, 0x00, 0x00, 0x00, 0x10, 0x00, 0x00, 0x00,
  0x19, 0x00, 0x00, 0x00, 0x73, 0x65, 0x71, 0x75, 0x65, 0x6e, 0x74, 0x69,
  0x61, 0x6c, 0x2f, 0x64, 0x65, 0x6e, 0x73, 0x65, 0x5f, 0x31, 0x2f, 0x4d,
  0x61, 0x74, 0x4d, 0x75, 0x6c, 0x00, 0x00, 0x00, 0x80, 0xe0, 0xff, 0xff,
  0x8a, 0xe1, 0xff, 0xff, 0x04, 0x00, 0x00, 0x00, 0x00, 0x1c, 0x00, 0x00,
  0x7d, 0xd3, 0xc9, 0x3d, 0xed, 0x92, 0xee, 0x3c, 0xf4, 0xe9, 0x40, 0x3c,
  0xf0, 0xf6, 0x3d, 0xbd, 0x75, 0xdf, 0x68, 0xbe, 0xb4, 0xbd, 0xa7, 0xbd,
  0x17, 0x1d, 0x64, 0xbd, 0xf9, 0xf8, 0x8d, 0xbb, 0x96, 0x48, 0x09, 0x3e,
  0xfa, 0x3d, 0x1b, 0x3e, 0x97, 0xb3, 0x31, 0xbd, 0x04, 0x25, 0x15, 0x3d,
  0xb4, 0x64, 0x3f, 0x3d, 0x0a, 0x3d, 0x12, 0x3e, 0xfe, 0xcd, 0xbb, 0x3d,
  0xa2, 0x0c, 0x02, 0x3e, 0x58, 0x86, 0xb5, 0x3d, 0xc7, 0x9f, 0x15, 0xbe,
  0x56, 0x67, 0x70, 0xbe, 0xf0, 0x40, 0xc0, 0x3d, 0x37, 0x37, 0x8a, 0xbe,
  0x28, 0x96, 0x19, 0x3c, 0x52, 0x0f, 0x10, 0xbe, 0x2f, 0x9d, 0xa3, 0x3d,
  0x47, 0x51, 0xce, 0xbd, 0xf8, 0xc3, 0x51, 0x3e, 0x5b, 0x33, 0xa7, 0xbe,
  0x71, 0x18, 0x62, 0xba, 0xe9, 0x06, 0x79, 0x3d, 0xce, 0x6d, 0xb7, 0x3e,
  0x61, 0x44, 0x13, 0xbe, 0x80, 0x41, 0x6d, 0xbe, 0x5a, 0x26, 0xcf, 0x3d,
  0x57, 0xb2, 0xaa, 0xbc, 0x38, 0x7f, 0x5e, 0xbe, 0x3d, 0xe5, 0xeb, 0x3d,
  0xd7, 0x52, 0x92, 0xbe, 0x01, 0xd7, 0x70, 0xbc, 0xe6, 0xb0, 0x35, 0x3c,
  0x23, 0x28, 0x34, 0xbe, 0x49, 0xe0, 0xf2, 0xbc, 0xa2, 0x03, 0x59, 0xbe,
  0x5e, 0xa9, 0xf4, 0xbd, 0x48, 0x80, 0x53, 0xbc, 0x83, 0x46, 0x8f, 0xbd,
  0xdb, 0xd8, 0x8a, 0xbe, 0x63, 0x5e, 0xb9, 0xbe, 0x14, 0xf1, 0xd6, 0xbe,
  0x70, 0xaf, 0x95, 0xbc, 0x4b, 0x97, 0x0d, 0xbd, 0x7e, 0xd9, 0x8c, 0xbe,
  0x7e, 0xaf, 0x15, 0x3e, 0xf0, 0x25, 0x9b, 0xbe, 0x54, 0x01, 0xde, 0xbb,
  0x8a, 0xc2, 0x0b, 0x3e, 0xdd, 0x79, 0x99, 0xbe, 0x80, 0x64, 0x1f, 0xbd,
  0x64, 0x70, 0xeb, 0xbe, 0xfd, 0x78, 0x56, 0xbe, 0x34, 0x60, 0x67, 0xbe,
  0x82, 0x98, 0xdf, 0xbc, 0xaf, 0xe0, 0x6f, 0xbd, 0x0d, 0xed, 0x24, 0xbf,
  0x4a, 0x6c, 0xfc, 0xbe, 0x9f, 0x9b, 0xd5, 0x3c, 0x4a, 0x21, 0x8e, 0xbd,
  0x1c, 0xf5, 0x28, 0xbe, 0x72, 0x6a, 0x37, 0x3d, 0xe5, 0x30, 0xd9, 0xbb,
  0x85, 0xd9, 0xbb, 0xbc, 0xe0, 0xf2, 0x03, 0x3e, 0xab, 0x14, 0xc9, 0xbd,
  0x8a, 0xca, 0x68, 0x3c, 0xe2, 0xc8, 0x68, 0x3e, 0xe8, 0xa1, 0x39, 0x3e,
  0x1e, 0x48, 0x71, 0x3e, 0x31, 0xb1, 0x03, 0x3d, 0xea, 0x53, 0xb3, 0x3e,
  0x56, 0xe0, 0x0e, 0xbe, 0x63, 0x26, 0x52, 0xbe, 0x13, 0xc4, 0x07, 0x3d,
  0x73, 0x5b, 0x83, 0xbd, 0x45, 0x93, 0xda, 0xbd, 0xce, 0x52, 0x3d, 0x3d,
  0xe9, 0xe0, 0x41, 0xbe, 0x00, 0x77, 0xf1, 0xbb, 0x04, 0xb6, 0x4c, 0x3e,
  0x8d, 0x46, 0x2a, 0xbc, 0x42, 0x3d, 0xb9, 0x3d, 0x7d, 0x27, 0xa5, 0x3d,
  0xcf, 0xa2, 0x1d, 0x3d, 0x4c, 0xd9, 0x29, 0x3d, 0x78, 0x0a, 0x47, 0x3d,
  0xed, 0x0a, 0x80, 0x3e, 0x72, 0x75, 0x0b, 0xbd, 0xcb, 0xcd, 0x1e, 0xbd,
  0xe1, 0xc1, 0x5b, 0x3c, 0x2b, 0x87, 0x3f, 0x3d, 0x1c, 0xcd, 0x89, 0x3c,
  0x61, 0xc8, 0x31, 0xbc, 0x37, 0x2c, 0x53, 0xbd, 0x27, 0xf7, 0x3a, 0x3d,
  0x7d, 0x98, 0x2b, 0x3e, 0xba, 0x10, 0x26, 0x3d, 0x0e, 0xcc, 0x02, 0x3e,
  0xfb, 0xe7, 0xae, 0xbd, 0x0d, 0x97, 0x60, 0x3e, 0xcc, 0xc3, 0xe5, 0xbc,
  0xf8, 0xfa, 0xd7, 0x3d, 0xad, 0x00, 0xc4, 0x3e, 0x86, 0x5c, 0xc9, 0xbd,
  0xbd, 0xb2, 0x5b, 0x3d, 0x7f, 0xe7, 0xa2, 0x3d, 0x3e, 0xb3, 0x76, 0xbd,
  0x13, 0x8f, 0x27, 0x3d, 0x71, 0x9d, 0x66, 0xbe, 0xe1, 0xbf, 0x8b, 0xbd,
  0x2e, 0x47, 0x4b, 0xbe, 0x36, 0x60, 0x36, 0x3d, 0xbe, 0x7c, 0xc5, 0xbd,
  0x42, 0x1d, 0x82, 0x3e, 0x83, 0x55, 0xc0, 0x3e, 0x73, 0x93, 0x48, 0x3e,
  0xff, 0x66, 0x10, 0x3e, 0xa7, 0x84, 0x8a, 0x3d, 0xd5, 0x7a, 0x3b, 0x3e,
  0x89, 0x27, 0xe2, 0x3d, 0x38, 0xf2, 0x06, 0xbc, 0x6d, 0x87, 0x31, 0x3b,
  0x26, 0xa1, 0x75, 0x3a, 0xa0, 0x80, 0xea, 0xbd, 0xd5, 0x20, 0xa8, 0xbd,
  0x27, 0xe9, 0xb0, 0xbd, 0x8f, 0x27, 0xff, 0x3d, 0x0d, 0xb4, 0x46, 0xbe,
  0xde, 0x6b, 0xc1, 0xbd, 0x92, 0xa9, 0x41, 0xbd, 0xba, 0x74, 0xbf, 0xbd,
  0x8c, 0xdf, 0xe4, 0xbe, 0xe8, 0xc9, 0xab, 0xbe, 0x18, 0xb7, 0xa3, 0xbe,
  0x35, 0xf7, 0xf3, 0x3d, 0xd6, 0x7a, 0x80, 0x3c, 0xee, 0xd6, 0xee, 0xbe,
  0x2b, 0x1e, 0xbc, 0xbd, 0x70, 0x85, 0xdb, 0x3d, 0x64, 0x75, 0x91, 0xbd,
  0xdd, 0x9e, 0xaa, 0x3d, 0x1e, 0x5f, 0x21, 0x3e, 0x22, 0x96, 0x32, 0x3d,
  0xc4, 0x19, 0x37, 0xbd, 0xd7, 0x6c, 0x52, 0xbe, 0xba, 0x83, 0x48, 0xbe,
  0x7f, 0x23, 0x38, 0xbf, 0x8a, 0x70, 0xf0, 0xbe, 0x94, 0xd3, 0x91, 0xbe,
  0xda, 0x67, 0x26, 0xbf, 0xfd, 0x5b, 0xb1, 0xbc, 0xe6, 0x7d, 0x06, 0xbe,
  0x4d, 0xaa, 0x0e, 0xbf, 0x3d, 0x30, 0x66, 0x3e, 0xec, 0x0d, 0xcf, 0x3d,
  0x6b, 0x24, 0x0e, 0xbd, 0x5b, 0x82, 0xb9, 0x3b, 0x6e, 0x9e, 0x78, 0x3d,
  0x98, 0x6f, 0xf4, 0x3c, 0x82, 0x8f, 0x25, 0xbe, 0x6d, 0xfa, 0x90, 0xbe,
  0xf8, 0x3f, 0xf8, 0xbd, 0x21, 0xf3, 0x9c, 0xbe, 0x5c, 0xda, 0x44, 0xbe,
  0xd7, 0x9b, 0xba, 0xbe, 0x0f, 0xa1, 0x3b, 0xbf, 0x84, 0x73, 0x4e, 0xbd,
  0x88, 0x66, 0x65, 0xbe, 0x9d, 0xe6, 0xb5, 0xbe, 0x74, 0xd5, 0x87, 0x3d,
  0x0c, 0x37, 0xa1, 0xbc, 0xbc, 0x50, 0xa7, 0xbd, 0x8f, 0x22, 0x5a, 0x3e,
  0x41, 0x54, 0x19, 0xba, 0xe3, 0x06, 0x89, 0x3d, 0xd5, 0x55, 0xaf, 0x3d,
  0x8a, 0x3f, 0x05, 0xbf, 0x06, 0x97, 0x4e, 0x3d, 0xf4, 0xb1, 0x84, 0xbc,
  0x1b, 0xa6, 0x93, 0x3e, 0x60, 0xa0, 0x3f, 0x3d, 0x66, 0x4a, 0x20, 0xbe,
  0x4b, 0x6a, 0xb0, 0x3e, 0xe2, 0x22, 0x2e, 0x3e, 0x63, 0x6b, 0x78, 0xbe,
  0xe4, 0xd0, 0x56, 0xbe, 0x40, 0x08, 0x5b, 0x3d, 0x4d, 0x42, 0x06, 0xbe,
  0x46, 0xf8, 0x83, 0x3d, 0x2d, 0x08, 0x03, 0xbd, 0xe6, 0x6b, 0x61, 0x3c,
  0x97, 0x8b, 0x35, 0x3d, 0x56, 0x9c, 0x0f, 0xbf, 0x60, 0xae, 0x8a, 0x3d,
  0xdd, 0x92, 0x97, 0x3e, 0x93, 0xac, 0x0c, 0x3d, 0x0a, 0x5e, 0x37, 0x3d,
  0x9d, 0x86, 0x15, 0xbd, 0x36, 0x58, 0x95, 0x3e, 0xed, 0xca, 0x40, 0x3e,
  0xec, 0xfd, 0x80, 0xbd, 0x9c, 0x15, 0x43, 0x3d, 0x7a, 0x2f, 0xf8, 0x3d,
  0x4e, 0x0d, 0xfd, 0xbd, 0x57, 0x21, 0x12, 0xbe, 0x35, 0x6f, 0xbf, 0x3c,
  0x94, 0x00, 0xb8, 0x3d, 0x3b, 0xed, 0x42, 0x3d, 0x87, 0x93, 0xd3, 0xbd,
  0x1d, 0xcf, 0x1f, 0x3e, 0xfc, 0x72, 0x46, 0x3e, 0x50, 0xa6, 0xfd, 0x3e,
  0xcc, 0x9f, 0x80, 0x3d, 0x30, 0xfc, 0x28, 0x3d, 0x8b, 0x1e, 0xee, 0x3e,
  0xbe, 0x1e, 0x98, 0x3d, 0x70, 0x56, 0xc0, 0xbd, 0x58, 0x7a, 0x3f, 0x3e,
  0xef, 0x87, 0xa6, 0xbd, 0x3e, 0x4f, 0xde, 0x3c, 0x1f, 0x3b, 0xb0, 0xbe,
  0xa8, 0x33, 0x55, 0x3d, 0x4e, 0xbf, 0x69, 0xbe, 0x4e, 0x39, 0xb6, 0xbe,
  0x11, 0x9b, 0x41, 0x3d, 0xf1, 0x3e, 0x83, 0xbe, 0xd1, 0x3f, 0xa4, 0xbe,
  0x55, 0xdf, 0xde, 0x3d, 0x3f, 0x7d, 0xbd, 0xbe, 0x1e, 0xe3, 0x4a, 0x3d,
  0xc7, 0x79, 0xd2, 0xbe, 0xb9, 0x89, 0xf2, 0xbd, 0x29, 0x7f, 0xa2, 0x3d,
  0x54, 0x70, 0x25, 0x3d, 0xf2, 0x1d, 0xbe, 0xbd, 0xf6, 0xe6, 0x97, 0x3c,
  0x5d, 0x21, 0x22, 0xbe, 0x85, 0x2a, 0xd6, 0x3d, 0x96, 0x54, 0x7b, 0xbe,
  0x12, 0xfb, 0x24, 0xbe, 0x83, 0x5d, 0xc4, 0x3d, 0x1e, 0xaf, 0x81, 0x3d,
  0x3d, 0x31, 0xd3, 0x3c, 0x13, 0xda, 0x3a, 0x3e, 0x0b, 0xf7, 0x0d, 0xbe,
  0x19, 0xf2, 0x67, 0xbd, 0x5d, 0x04, 0xf5, 0x3d, 0x9c, 0xb1, 0x6f, 0xbe,
  0x62, 0x48, 0x81, 0xbc, 0xea, 0x62, 0xf6, 0x3d, 0xe3, 0x46, 0xcc, 0xbd,
  0x7f, 0x06, 0x05, 0xbf, 0xe8, 0xcf, 0xa4, 0xbc, 0x85, 0x41, 0xb3, 0xbe,
  0x9d, 0x8e, 0xb4, 0xbd, 0x93, 0xfc, 0x88, 0xbe, 0xae, 0xbe, 0xeb, 0x3d,
  0x54, 0xdd, 0x2f, 0x3e, 0x92, 0x11, 0x6d, 0x3d, 0xf5, 0x37, 0x9e, 0x3e,
  0xc7, 0x88, 0x89, 0xbd, 0xad, 0x05, 0x97, 0x3e, 0x86, 0x72, 0x4d, 0x3e,
  0x60, 0xa7, 0xd4, 0xbe, 0x18, 0x3c, 0x87, 0xbe, 0x88, 0xcc, 0x0b, 0x3e,
  0x9c, 0x73, 0x22, 0xbe, 0xf9, 0xba, 0x86, 0xbe, 0x24, 0x00, 0x98, 0xbd,
  0xc6, 0xbb, 0x90, 0xbe, 0x6a, 0x69, 0xae, 0x3c, 0xf9, 0x76, 0x37, 0x3d,
  0x18, 0x8b, 0xe7, 0xbc, 0x04, 0x03, 0xbc, 0x3c, 0xf5, 0xbd, 0xb0, 0xbe,
  0x87, 0x17, 0x99, 0x3e, 0xb1, 0x25, 0x3d, 0xbe, 0x1c, 0x60, 0x92, 0x3e,
  0x5f, 0xc1, 0xc6, 0x3d, 0xca, 0x17, 0xfb, 0xbe, 0xed, 0x95, 0x73, 0x3d,
  0x59, 0xcf, 0x58, 0xbd, 0xfa, 0x70, 0x80, 0xbe, 0xe4, 0xb5, 0x17, 0x3d,
  0x3d, 0xb4, 0xb0, 0xbd, 0x31, 0x95, 0x0e, 0xbe, 0x9a, 0x42, 0x0e, 0xbd,
  0xbc, 0xd6, 0x57, 0xbe, 0x3a, 0xf2, 0x16, 0x3e, 0xf9, 0x45, 0xab, 0x3d,
  0x6e, 0xef, 0xb6, 0xbe, 0xd3, 0xfc, 0xfc, 0xbe, 0x78, 0x0b, 0x11, 0xbe,
  0x71, 0x42, 0xee, 0x3d, 0xfe, 0xed, 0xd0, 0xbd, 0x3d, 0x9a, 0xb5, 0xbe,
  0x30, 0xe9, 0x63, 0xbd, 0xfb, 0x66, 0x15, 0x3e, 0xfa, 0xc1, 0x35, 0xbe,
  0xdf, 0x09, 0x0a, 0xbf, 0x66, 0x27, 0x48, 0xbe, 0x8d, 0x3b, 0x3a, 0xbe,
  0x71, 0xa6, 0x90, 0xbb, 0x38, 0xd1, 0xb0, 0xbd, 0xb4, 0xf9, 0x0e, 0x3e,
  0x98, 0x89, 0x05, 0x3e, 0x6f, 0x4d, 0xb7, 0xbe, 0xd0, 0xb3, 0x11, 0x3d,
  0x05, 0x3c, 0xd8, 0xbe, 0xaf, 0xfa, 0xf9, 0x3d, 0x57, 0x2a, 0xda, 0xbd,
  0x4b, 0x77, 0x64, 0xbe, 0x5e, 0x94, 0xd0, 0xbe, 0xd3, 0x0b, 0x92, 0x3d,
  0x99, 0xc3, 0x81, 0xbd, 0xca, 0x80, 0x82, 0xbd, 0x66, 0x8e, 0xaa, 0xbd,
  0x51, 0xbf, 0x89, 0xbd, 0x46, 0xa4, 0xfb, 0xbc, 0x7b, 0x30, 0xb2, 0xbe,
  0xd2, 0x44, 0x86, 0x3d, 0x2c, 0xad, 0xf8, 0x3c, 0xd4, 0x35, 0x07, 0xbe,
  0x01, 0xea, 0x0a, 0xbe, 0x46, 0xb3, 0x30, 0xbe, 0x61, 0x25, 0xc7, 0x3d,
  0x4a, 0x65, 0x14, 0xbe, 0x0a, 0x09, 0x17, 0xbe, 0xe5, 0x33, 0xf9, 0x3c,
  0x36, 0xc3, 0xfc, 0x3d, 0x0a, 0xe5, 0x04, 0xbe, 0x14, 0x0e, 0xa4, 0xbe,
  0xd5, 0xfb, 0x87, 0xbd, 0x2d, 0x0b, 0xb4, 0x3d, 0x1f, 0x59, 0x64, 0xbd,
  0x81, 0x90, 0x09, 0x3e, 0x93, 0x19, 0xbd, 0x3d, 0xc7, 0x6c, 0x4a, 0xbe,
  0x0c, 0x75, 0x34, 0xbd, 0xbf, 0x30, 0x7f, 0x3d, 0x34, 0xbb, 0x06, 0xbe,
  0x51, 0xd8, 0xb1, 0x3c, 0x53, 0x47, 0x19, 0xbe, 0xe5, 0xd0, 0x38, 0xbe,
  0x97, 0x73, 0xaa, 0xbd, 0x45, 0x37, 0x03, 0x3e, 0x5f, 0x46, 0x3e, 0xbd,
  0x7f, 0x9c, 0x76, 0xbe, 0x69, 0x1e, 0x8f, 0x3d, 0x25, 0x4f, 0x27, 0x3e,
  0xc6, 0x26, 0xa3, 0xbe, 0x25, 0x36, 0x52, 0x3e, 0x1b, 0x07, 0xa3, 0x3d,
  0x2b, 0xcf, 0x18, 0x3e, 0x19, 0x99, 0x31, 0x3e, 0xd4, 0x6f, 0x11, 0x3d,
  0x39, 0xd5, 0xa1, 0xba, 0x4b, 0xce, 0x09, 0x3e, 0xd8, 0x78, 0x10, 0x3e,
  0x9f, 0xb1, 0x60, 0xbe, 0x63, 0x28, 0xcc, 0xbd, 0x4b, 0x75, 0x3f, 0x3e,
  0x5b, 0x73, 0x9e, 0xbe, 0x2a, 0xe4, 0xf0, 0xbd, 0x5e, 0x24, 0x3e, 0x3e,
  0xff, 0x35, 0x7a, 0x3c, 0x98, 0x6f, 0xe3, 0xbd, 0x00, 0x7c, 0x5f, 0x3d,
  0xc1, 0xa3, 0x04, 0x3d, 0x69, 0x84, 0x2a, 0x3e, 0xe9, 0xc1, 0x1c, 0x3e,
  0x29, 0x5f, 0x67, 0x3e, 0xeb, 0xf4, 0xd6, 0x3d, 0x23, 0x65, 0x86, 0x3e,
  0xf6, 0x65, 0xc7, 0xbc, 0xb6, 0x57, 0xe7, 0xbd, 0x5c, 0x38, 0x51, 0xbe,
  0x88, 0x78, 0x96, 0x3d, 0x2d, 0xb7, 0x89, 0xbe, 0x73, 0x93, 0x4d, 0xbe,
  0x8b, 0x18, 0xf1, 0xbc, 0x89, 0x83, 0x03, 0x3c, 0x3e, 0x5c, 0x38, 0xbe,
  0x33, 0x0a, 0x88, 0x3e, 0x7c, 0xd5, 0x8f, 0x3d, 0x7b, 0x9b, 0x88, 0x3e,
  0xf6, 0x0d, 0x16, 0x3b, 0x7e, 0xf9, 0x70, 0xbe, 0xbb, 0x66, 0x8b, 0xbd,
  0x56, 0x5d, 0x74, 0x3e, 0x0d, 0x9e, 0xf2, 0xbc, 0x43, 0x1d, 0xdb, 0xbe,
  0x1a, 0xab, 0x62, 0xbe, 0x72, 0x2b, 0xfa, 0x3d, 0x85, 0x4e, 0x85, 0xbe,
  0x7d, 0xa3, 0x4a, 0xbe, 0x2a, 0x2b, 0x13, 0x3e, 0xfb, 0xd2, 0xe8, 0x3d,
  0x29, 0xad, 0x3f, 0xbc, 0x30, 0x99, 0xa0, 0x3d, 0x1d, 0x71, 0xe3, 0x3c,
  0x3e, 0xe4, 0x9f, 0x3e, 0xb8, 0xc5, 0xa0, 0x3d, 0x3c, 0x6b, 0x94, 0xbd,
  0x68, 0x21, 0x9a, 0x3d, 0x24, 0xe9, 0x3e, 0x3c, 0xcc, 0xac, 0xd5, 0xbd,
  0xba, 0x28, 0x4d, 0xbd, 0x9a, 0xbc, 0x73, 0xbe, 0x9a, 0xc4, 0xc2, 0x3d,
  0x92, 0x07, 0x59, 0xbe, 0x8a, 0xc8, 0x88, 0xbe, 0x52, 0x7b, 0x99, 0x3e,
  0x0e, 0x52, 0xa1, 0xbc, 0x9d, 0x19, 0x74, 0x3d, 0x9c, 0x42, 0x49, 0xbd,
  0xf8, 0x4f, 0x8d, 0xbd, 0x38, 0xfc, 0x84, 0x3d, 0x0d, 0x5b, 0x78, 0xbd,
  0x8e, 0xb2, 0x20, 0xbe, 0x2d, 0x6f, 0x06, 0x3c, 0x81, 0xc2, 0x35, 0x3e,
  0x3e, 0x9d, 0xcf, 0xbd, 0xe5, 0xd3, 0x71, 0xbe, 0x22, 0xb7, 0xe2, 0xbd,
  0xa6, 0x61, 0x8a, 0xbc, 0x54, 0xd7, 0x7a, 0xbe, 0x1b, 0x64, 0x97, 0xbe,
  0x37, 0x14, 0x59, 0x3e, 0x28, 0x41, 0x33, 0xbd, 0x0e, 0xcf, 0x76, 0x3d,
  0x9b, 0xb3, 0xb5, 0x3c, 0x62, 0x22, 0x63, 0xbe, 0x5f, 0xe5, 0x9c, 0xbc,
  0xdc, 0x9b, 0x83, 0xbd, 0xf2, 0x62, 0x27, 0xbd, 0x4e, 0x4c, 0x59, 0x3c,
  0x2c, 0xba, 0x56, 0x3d, 0xb5, 0x06, 0x46, 0xbe, 0x15, 0xdf, 0x99, 0xbe,
  0xba, 0xe5, 0xa9, 0xbe, 0x9f, 0xc2, 0x48, 0xbe, 0x8d, 0x6f, 0x45, 0x3d,
  0xd7, 0xd5, 0x48, 0xbd, 0xf6, 0xd5, 0x28, 0x3e, 0x02, 0x7e, 0x43, 0x3e,
  0xd7, 0xcd, 0xf6, 0xbd, 0x9c, 0xf8, 0xf4, 0x3d, 0x54, 0xc3, 0xd5, 0xbd,
  0xba, 0xfb, 0x08, 0x3d, 0xfe, 0x28, 0x9c, 0xbe, 0xa9, 0x60, 0xf2, 0x3c,
  0x99, 0x51, 0x22, 0xbd, 0x24, 0x9f, 0xc1, 0xbe, 0x30, 0xba, 0x31, 0x3d,
  0x00, 0x1b, 0xab, 0xbe, 0xe0, 0x92, 0x94, 0xbc, 0xe6, 0xd2, 0x81, 0xbe,
  0x55, 0x77, 0x15, 0x3e, 0x4e, 0xcd, 0x41, 0xbe, 0x70, 0xd9, 0x89, 0x3c,
  0x6a, 0xf4, 0x82, 0xbd, 0x90, 0x61, 0xa7, 0x3d, 0x24, 0x0f, 0xaf, 0x3e,
  0xa5, 0x62, 0x04, 0xbf, 0xff, 0x2b, 0x56, 0x3c, 0xee, 0x8c, 0xd3, 0x3d,
  0x7f, 0x20, 0x0d, 0x3e, 0x78, 0x86, 0x55, 0xbd, 0x84, 0x9c, 0x85, 0xbc,
  0x14, 0x62, 0xd8, 0x3c, 0xe2, 0x4c, 0xc1, 0xbe, 0x80, 0xad, 0xab, 0xbe,
  0x2d, 0x65, 0xe0, 0xbc, 0x4d, 0x7e, 0xc7, 0x3c, 0x20, 0x26, 0x7d, 0xbe,
  0x67, 0x14, 0x6f, 0x3e, 0x20, 0xd9, 0x00, 0x3c, 0x35, 0x63, 0x0e, 0xbd,
  0xc9, 0x3b, 0xb5, 0x3e, 0xfa, 0x0a, 0xa0, 0xbd, 0x90, 0x6b, 0x1f, 0x3e,
  0xb2, 0x68, 0x24, 0x3e, 0x5c, 0xf3, 0xa2, 0x3b, 0x43, 0x14, 0x54, 0xbd,
  0x17, 0x47, 0x16, 0xbd, 0x0d, 0x98, 0xcf, 0x3d, 0x94, 0xb0, 0x48, 0xbe,
  0x9b, 0x7c, 0xcc, 0xbd, 0x40, 0x21, 0xc4, 0xbd, 0x33, 0xf2, 0xe6, 0x3d,
  0x42, 0x7a, 0x07, 0xbe, 0xed, 0x8e, 0xa0, 0x3d, 0x96, 0x17, 0xb6, 0x3d,
  0xec, 0xcf, 0x1a, 0x3c, 0x4c, 0x90, 0xde, 0x3e, 0x75, 0xd4, 0x8a, 0x3d,
  0xba, 0x90, 0x91, 0xbb, 0xfe, 0x21, 0x4d, 0xbb, 0x91, 0x10, 0xea, 0x3d,
  0xb2, 0x32, 0xc3, 0x3d, 0x6b, 0xfa, 0xce, 0x3c, 0x40, 0x0e, 0x8a, 0xbe,
  0x80, 0xee, 0xc6, 0xbe, 0x44, 0x52, 0x0f, 0xbe, 0x76, 0x11, 0x41, 0xbe,
  0xa2, 0x38, 0xd6, 0x3d, 0xa7, 0xca, 0x8f, 0xbe, 0xb6, 0x73, 0xcd, 0x3d,
  0x27, 0x30, 0x15, 0xbd, 0x0e, 0x55, 0xa6, 0x3d, 0xa3, 0xf1, 0x32, 0x3e,
  0x36, 0x96, 0xed, 0xbe, 0x54, 0x95, 0xdf, 0x3d, 0x7b, 0xbd, 0x9e, 0x3e,
  0x84, 0x66, 0xdf, 0x3d, 0xb4, 0x3a, 0x09, 0x3b, 0x6f, 0xcd, 0x06, 0xbe,
  0xda, 0x84, 0x5d, 0x3e, 0xa6, 0xee, 0xdc, 0xbe, 0x0e, 0x6d, 0xbc, 0xbb,
  0x4d, 0x5c, 0x34, 0x3c, 0x60, 0x1a, 0xc7, 0x3c, 0x14, 0x4d, 0x0b, 0xbe,
  0xc8, 0x8d, 0xa2, 0x3e, 0x53, 0x8b, 0xa0, 0x3d, 0x63, 0x49, 0x7e, 0xba,
  0x2f, 0x9f, 0x6d, 0x3e, 0x21, 0xef, 0x0b, 0xbe, 0x5d, 0xa3, 0x37, 0xbd,
  0x00, 0x86, 0x2c, 0x3e, 0x30, 0x63, 0xd6, 0xbd, 0x63, 0x74, 0x89, 0xbd,
  0x90, 0x9d, 0xb2, 0xbd, 0xd8, 0x55, 0x82, 0x3b, 0x3b, 0x6d, 0x54, 0xbe,
  0xef, 0x88, 0x69, 0xbe, 0x13, 0x87, 0x18, 0xbd, 0x66, 0xac, 0xc5, 0xbd,
  0xff, 0xed, 0x60, 0xbd, 0x35, 0x03, 0x3b, 0x3e, 0xad, 0x9f, 0x39, 0x3d,
  0x52, 0x52, 0xcd, 0xbc, 0x21, 0x3d, 0x62, 0x3d, 0xf7, 0x27, 0x9c, 0xbe,
  0xda, 0xe1, 0x34, 0x3d, 0x3f, 0x4f, 0xff, 0x3d, 0xf6, 0x56, 0x4a, 0x3d,
  0x55, 0x39, 0xf3, 0xbd, 0xe1, 0xf9, 0x98, 0xbd, 0x85, 0x81, 0x2e, 0x3e,
  0x35, 0xbc, 0x7b, 0xbe, 0x24, 0x63, 0xd7, 0xbd, 0x22, 0x77, 0xcb, 0x3c,
  0x35, 0x42, 0x9d, 0x3d, 0x62, 0x72, 0x91, 0xbd, 0xe8, 0xd9, 0x41, 0x3e,
  0xd9, 0xd8, 0x37, 0x3e, 0x7d, 0xed, 0x9b, 0xbd, 0x4c, 0x64, 0x16, 0x3d,
  0x2d, 0x88, 0x89, 0xbd, 0x82, 0x7d, 0xf4, 0x3d, 0x7a, 0xbd, 0x93, 0xbe,
  0x62, 0x78, 0x86, 0xbd, 0xb9, 0x25, 0x0c, 0x3e, 0xe4, 0x3e, 0x89, 0xbd,
  0x01, 0xab, 0x27, 0xbe, 0xa3, 0x84, 0xa8, 0xbe, 0x65, 0x3e, 0xd3, 0xbd,
  0x56, 0x62, 0x8c, 0xbe, 0xf9, 0x85, 0x6c, 0x3e, 0x1d, 0x50, 0x7f, 0xbd,
  0x10, 0xae, 0xaf, 0x3e, 0x2b, 0x4f, 0x17, 0x3e, 0x05, 0x8d, 0xec, 0xbc,
  0x99, 0x6e, 0x89, 0x3d, 0x31, 0xdb, 0xc2, 0xbe, 0xdd, 0x56, 0x02, 0xbd,
  0xe4, 0x16, 0xa1, 0x3d, 0xa2, 0xd6, 0xa8, 0x3e, 0xcd, 0x9e, 0x82, 0xbc,
  0x00, 0xca, 0x66, 0xbe, 0xeb, 0xbf, 0x13, 0xbe, 0x1d, 0x03, 0xac, 0xbe,
  0x8f, 0x78, 0x47, 0xbe, 0x32, 0x6d, 0x91, 0xbe, 0x34, 0xfe, 0x20, 0xbe,
  0x35, 0x17, 0xe9, 0xbe, 0x93, 0x74, 0x15, 0x3f, 0xd8, 0x65, 0xa6, 0x3e,
  0x9a, 0x06, 0x9d, 0x3d, 0x70, 0xd1, 0x46, 0x3e, 0xbf, 0xb8, 0x00, 0xbf,
  0x42, 0x36, 0xb5, 0xbd, 0x05, 0x97, 0x41, 0x3e, 0x70, 0x83, 0xc3, 0xbd,
  0x92, 0x0d, 0x00, 0xbe, 0xb7, 0x0d, 0x59, 0xbb, 0x49, 0xb6, 0x02, 0x3e,
  0x99, 0xd7, 0x80, 0xbe, 0xfa, 0x7e, 0x15, 0xbe, 0xb6, 0xc1, 0x8e, 0x3d,
  0x53, 0xb6, 0x4b, 0x3d, 0xb8, 0x3f, 0x6b, 0xbe, 0xc7, 0x8b, 0xef, 0x3d,
  0xfe, 0xc9, 0x1b, 0x3e, 0xf7, 0x3a, 0x75, 0x3d, 0x77, 0xaa, 0xe6, 0x3c,
  0xa1, 0xa8, 0x9d, 0xbe, 0x44, 0x05, 0xe0, 0xbd, 0xf8, 0x10, 0xb8, 0xbd,
  0xe0, 0x2e, 0x15, 0x3e, 0x41, 0x00, 0xe7, 0xbc, 0x32, 0x6d, 0xb0, 0x3d,
  0x8e, 0xea, 0x1f, 0xbe, 0x3b, 0xce, 0xb0, 0xbe, 0xe7, 0xbf, 0x2a, 0x3d,
  0xf7, 0xaa, 0x84, 0x3d, 0x14, 0x8f, 0x4e, 0xbe, 0x5d, 0x7b, 0xc0, 0xbe,
  0x01, 0x3c, 0xf6, 0x3d, 0x66, 0x59, 0xf9, 0x3d, 0x4d, 0xb1, 0x89, 0x3d,
  0x79, 0x39, 0x14, 0x3e, 0x55, 0x57, 0x94, 0xbe, 0x07, 0x01, 0xc6, 0x3d,
  0x55, 0xd9, 0x33, 0x3e, 0x0e, 0x05, 0x05, 0xbe, 0xef, 0x48, 0x33, 0xbc,
  0xdc, 0x66, 0x9c, 0xbd, 0x94, 0x75, 0x00, 0xbd, 0xfe, 0xc1, 0xab, 0xbe,
  0x65, 0x85, 0x7c, 0xbe, 0x20, 0x8d, 0x63, 0xbe, 0x68, 0x1f, 0x8e, 0xbe,
  0x5f, 0xd3, 0xec, 0xbc, 0x69, 0x3a, 0x85, 0x3e, 0xad, 0x16, 0x44, 0xbb,
  0x2a, 0x22, 0xd1, 0xbd, 0x6a, 0x06, 0x22, 0xbc, 0xb2, 0x7b, 0x10, 0xbe,
  0x7e, 0x0f, 0xe5, 0x3d, 0x38, 0xfb, 0xa9, 0x3d, 0xed, 0xe3, 0x4a, 0x3c,
  0xd8, 0x08, 0x96, 0xbd, 0x7a, 0x6e, 0x4f, 0xbe, 0x1b, 0x5a, 0x8c, 0xbb,
  0xe7, 0x87, 0x46, 0xbe, 0x04, 0x48, 0xaa, 0xbe, 0xb0, 0xf7, 0x9e, 0x3c,
  0x9d, 0x93, 0xfa, 0xbc, 0x90, 0x75, 0x8c, 0xbe, 0x5b, 0x4e, 0xac, 0x3e,
  0xab, 0xac, 0xa8, 0x3e, 0xb0, 0x3d, 0x6f, 0x3e, 0x66, 0x61, 0x9b, 0x3e,
  0xa7, 0xed, 0xa0, 0xbd, 0x78, 0xd7, 0x86, 0x3c, 0xc6, 0x18, 0x00, 0xbd,
  0x9a, 0xb5, 0x80, 0xbd, 0xc1, 0x62, 0x64, 0x3d, 0x48, 0x58, 0x1a, 0xbe,
  0x65, 0x2c, 0xfb, 0xbd, 0x6a, 0x82, 0xcc, 0xbd, 0xcc, 0x28, 0x93, 0xbe,
  0xf0, 0x63, 0x6c, 0xbe, 0x1a, 0x3b, 0xac, 0x3c, 0x7f, 0x68, 0xd3, 0x3b,
  0xe3, 0x88, 0x74, 0x3e, 0x9e, 0x71, 0x4d, 0xbd, 0x03, 0x0e, 0x5f, 0xbd,
  0x31, 0xdc, 0x4c, 0x3d, 0xe9, 0x36, 0xea, 0xbb, 0x70, 0xf3, 0x5e, 0xbe,
  0xf2, 0x9d, 0x80, 0xbe, 0x6a, 0xbf, 0x7c, 0x3c, 0x5b, 0x60, 0x11, 0x3e,
  0xea, 0x0a, 0xf3, 0xbd, 0xc1, 0x02, 0xc2, 0xbe, 0x2c, 0x18, 0x7c, 0xbe,
  0x53, 0x8a, 0x41, 0xbc, 0x17, 0xc4, 0x2c, 0xbe, 0xe3, 0xd0, 0x6a, 0x3e,
  0xe0, 0x48, 0x5d, 0x3e, 0xaa, 0x4d, 0xa5, 0x3d, 0xc4, 0xb5, 0x27, 0x3e,
  0x45, 0x02, 0x3d, 0xbd, 0xdc, 0x2c, 0x0f, 0x3d, 0xf3, 0x62, 0xa6, 0xbd,
  0x08, 0x67, 0xcb, 0x3b, 0x8d, 0xb4, 0xe1, 0x3d, 0x9f, 0xb7, 0xb0, 0xbd,
  0xa7, 0x91, 0x81, 0x3d, 0x5d, 0xa6, 0x98, 0xbd, 0xa8, 0x50, 0x2b, 0x3e,
  0xf4, 0x5d, 0xc1, 0xbe, 0xac, 0xa7, 0x3d, 0xbb, 0xf6, 0x84, 0x60, 0xbe,
  0x24, 0x12, 0xe8, 0x3d, 0xb0, 0x89, 0x97, 0xbd, 0x1a, 0xae, 0xd1, 0xbd,
  0x50, 0x09, 0x2e, 0x3e, 0xaa, 0x9f, 0x28, 0xbd, 0x8f, 0xbb, 0x3d, 0xbe,
  0x38, 0x1e, 0x3f, 0xbe, 0x3d, 0xfd, 0x8f, 0xbd, 0xf4, 0x60, 0xa8, 0xbd,
  0x56, 0x17, 0x85, 0x3d, 0xdd, 0x39, 0xd5, 0x3e, 0x3c, 0x5a, 0x68, 0xbd,
  0xbc, 0xe1, 0x22, 0x3d, 0xd0, 0x2c, 0xfe, 0xbe, 0xec, 0xc4, 0x89, 0x3e,
  0x5a, 0x6f, 0xda, 0xbd, 0x35, 0x15, 0x0f, 0x3e, 0xdf, 0x92, 0x0a, 0xbd,
  0xe7, 0x28, 0xa8, 0x3e, 0x10, 0x3c, 0xc1, 0x3d, 0xf5, 0x2d, 0x81, 0xbe,
  0x00, 0xac, 0xb7, 0x3d, 0x25, 0xe3, 0xed, 0x3c, 0x17, 0x47, 0xa4, 0x3d,
  0xa8, 0xec, 0x98, 0x3e, 0x08, 0xd0, 0x96, 0x3c, 0x13, 0xc0, 0xab, 0x3e,
  0x4f, 0x1a, 0xcf, 0xbd, 0xfe, 0x70, 0x07, 0xbb, 0xe4, 0x6e, 0x08, 0xbf,
  0x23, 0xbf, 0xef, 0x3c, 0x5b, 0x03, 0x0a, 0xbe, 0x5a, 0xba, 0x26, 0x3e,
  0x97, 0xf7, 0x8d, 0x3d, 0xbc, 0xaa, 0x04, 0x3e, 0x84, 0xed, 0x56, 0x3c,
  0xb1, 0x44, 0x83, 0xbd, 0x66, 0xa8, 0x1b, 0xbc, 0xb5, 0x25, 0x1e, 0xbe,
  0x43, 0xe4, 0x12, 0xbe, 0xe1, 0xa9, 0xad, 0xbc, 0xcf, 0x78, 0x3c, 0xbe,
  0x4b, 0x6c, 0x86, 0x3e, 0xce, 0xf0, 0x1b, 0xbe, 0x78, 0xbd, 0x27, 0xbe,
  0x3d, 0xb3, 0xe8, 0xbe, 0x08, 0x03, 0xd7, 0x3d, 0x86, 0x82, 0x5e, 0xbe,
  0x71, 0x52, 0x45, 0x3d, 0xd3, 0x27, 0xbf, 0xbc, 0xd6, 0x82, 0x71, 0x3d,
  0x75, 0x62, 0x88, 0xbd, 0xab, 0xe1, 0x53, 0xbe, 0x7f, 0x5a, 0x8a, 0x3e,
  0x06, 0x03, 0xae, 0xbd, 0x84, 0x28, 0xdd, 0xbc, 0xf8, 0x41, 0x19, 0xbe,
  0x77, 0x6f, 0x05, 0xbe, 0x8a, 0xe3, 0xd9, 0x3d, 0xc1, 0xa8, 0x94, 0xbe,
  0xa6, 0x11, 0x6e, 0xbe, 0x36, 0xbf, 0xff, 0xbe, 0x51, 0x09, 0xd1, 0x3c,
  0x63, 0x1f, 0x6c, 0xbd, 0x78, 0x1b, 0xb5, 0x3d, 0xce, 0xf9, 0xae, 0x3c,
  0xdd, 0x3c, 0xdb, 0x3e, 0x68, 0x78, 0x1d, 0x3e, 0x57, 0x8e, 0x92, 0xbd,
  0x27, 0x50, 0xd1, 0xbd, 0x7c, 0xd8, 0x97, 0xbc, 0xf1, 0xf7, 0xe1, 0xbd,
  0x24, 0x15, 0x37, 0xbe, 0x41, 0x02, 0xf8, 0xbd, 0x4b, 0x5d, 0x3b, 0x3e,
  0xcd, 0xbb, 0xa4, 0xbe, 0xa3, 0x51, 0x87, 0xbe, 0xc2, 0xa1, 0xd3, 0xbe,
  0xdc, 0xea, 0x26, 0xbe, 0x6b, 0x34, 0xab, 0x3c, 0xda, 0x4b, 0x6f, 0xbd,
  0x7b, 0x71, 0xb4, 0xbd, 0x83, 0xce, 0xa5, 0x3d, 0x0f, 0x5d, 0x36, 0xbe,
  0xde, 0x64, 0x51, 0xbd, 0xe7, 0x00, 0x83, 0xbe, 0x93, 0xe8, 0x00, 0xbe,
  0x52, 0x44, 0x91, 0xbe, 0xbf, 0x7c, 0x8c, 0xbe, 0x73, 0xc7, 0xf8, 0xbd,
  0x0e, 0x9c, 0xe5, 0x3d, 0x22, 0x04, 0x56, 0xbd, 0xb9, 0x2b, 0x18, 0xbf,
  0x1e, 0x6a, 0x40, 0xbe, 0x57, 0x48, 0xfc, 0x3c, 0xbb, 0x49, 0xa0, 0xbe,
  0x51, 0x33, 0x58, 0x3e, 0x80, 0x6d, 0xe4, 0xbc, 0xe7, 0x40, 0xc8, 0xbc,
  0xc5, 0xf3, 0x4c, 0xbe, 0xda, 0xe3, 0xa8, 0xbe, 0x69, 0x34, 0x4b, 0xbe,
  0x90, 0xd3, 0xac, 0xbc, 0xe6, 0x67, 0x8c, 0xbe, 0xcf, 0x0f, 0x2f, 0xbe,
  0xad, 0x9b, 0xde, 0x3d, 0xe4, 0x2f, 0xae, 0x3e, 0x96, 0x1a, 0x05, 0x3e,
  0x66, 0x98, 0x73, 0x3d, 0xc3, 0x56, 0x11, 0xbe, 0x79, 0xcf, 0x9f, 0x3e,
  0xde, 0x4f, 0xed, 0xbe, 0x3f, 0xae, 0xad, 0x3d, 0xcf, 0x42, 0x34, 0x3d,
  0x4e, 0x23, 0x31, 0xbc, 0x34, 0xc7, 0xb9, 0x3d, 0xc7, 0x63, 0x95, 0xbe,
  0x44, 0x71, 0xfc, 0xbc, 0xfe, 0x47, 0xf8, 0x3c, 0x70, 0xc2, 0x62, 0xbe,
  0x98, 0x25, 0x84, 0xbe, 0xa2, 0x5f, 0x2d, 0xbe, 0xd2, 0x85, 0xd0, 0x3e,
  0x56, 0x36, 0x0c, 0xbe, 0x4e, 0x24, 0xfa, 0x3d, 0xbc, 0xe3, 0x95, 0xbe,
  0x1f, 0x22, 0x00, 0x3e, 0x51, 0x0c, 0x54, 0xbe, 0x49, 0x51, 0xed, 0x3d,
  0x92, 0x67, 0x74, 0x3c, 0xe8, 0x92, 0x71, 0xbd, 0x4b, 0x52, 0x64, 0xbc,
  0xe3, 0x83, 0xc1, 0xbe, 0x3f, 0x01, 0xb1, 0x3d, 0xbd, 0x56, 0x97, 0x3c,
  0x9c, 0x0e, 0xc3, 0xbe, 0x16, 0x60, 0xfb, 0xbe, 0x0f, 0xb0, 0x4f, 0xbe,
  0x3e, 0xb9, 0x06, 0x3f, 0xe8, 0x01, 0xa6, 0xbd, 0xaf, 0xd9, 0xc5, 0xbd,
  0xc1, 0x69, 0xb7, 0xbe, 0x69, 0x7f, 0xa6, 0xbc, 0xf0, 0xd8, 0xa5, 0xbe,
  0x2a, 0xbf, 0x50, 0x3e, 0xa3, 0xf7, 0x25, 0x3d, 0x52, 0xcd, 0xe4, 0xbd,
  0xcb, 0x11, 0x2c, 0x3c, 0x5b, 0xe0, 0x36, 0xbf, 0xae, 0xf5, 0x95, 0xbc,
  0x73, 0x62, 0x66, 0x3d, 0xfb, 0xca, 0x8c, 0xbe, 0x09, 0x0c, 0xde, 0xbe,
  0xce, 0x15, 0x99, 0xbe, 0x9a, 0x37, 0xdb, 0x3e, 0x33, 0x76, 0x3e, 0x3d,
  0x2a, 0xa6, 0xa4, 0xbe, 0xdb, 0xe3, 0x68, 0xbe, 0xd4, 0x7c, 0x11, 0x3e,
  0xe9, 0xf7, 0x73, 0xbe, 0x8c, 0x67, 0x7e, 0xbc, 0x6e, 0x22, 0xb3, 0x3d,
  0x4b, 0xd7, 0x05, 0x3e, 0xed, 0xcd, 0x06, 0xbd, 0xa3, 0x72, 0x13, 0xbf,
  0x2e, 0xad, 0x8d, 0x3e, 0xeb, 0x28, 0x5c, 0xbd, 0xab, 0xc6, 0xec, 0xbe,
  0x28, 0x6b, 0x9d, 0xbe, 0x45, 0x9a, 0xc7, 0xbe, 0x59, 0x74, 0x42, 0x3e,
  0x62, 0x70, 0xa1, 0xbe, 0xec, 0xc5, 0x96, 0xbe, 0xa4, 0x77, 0x2b, 0xbe,
  0x24, 0xca, 0xfb, 0x3d, 0xee, 0x82, 0xa0, 0xbe, 0x23, 0x02, 0x89, 0xbc,
  0xa8, 0xc3, 0x24, 0x3e, 0x85, 0x88, 0xb2, 0x3d, 0x69, 0xbd, 0xc9, 0x3d,
  0x3d, 0xe9, 0x5f, 0xbf, 0x55, 0xd9, 0x4a, 0x3e, 0x9b, 0x5c, 0xa5, 0xbb,
  0xb7, 0x20, 0xad, 0xbe, 0x0d, 0xda, 0xee, 0xbd, 0x46, 0xaa, 0x47, 0xbe,
  0x73, 0x36, 0x87, 0x3e, 0x55, 0xdb, 0x03, 0xbe, 0xdf, 0xbd, 0xb6, 0xbc,
  0xe4, 0x83, 0x00, 0xbe, 0xc8, 0xfb, 0x19, 0x3e, 0x17, 0x8c, 0xe5, 0x3c,
  0x5d, 0x9d, 0xae, 0x3c, 0xc2, 0x15, 0xbf, 0xbe, 0xf7, 0xa6, 0xfa, 0x3c,
  0xa9, 0x6d, 0x05, 0xbe, 0xbc, 0xa4, 0xe1, 0xbd, 0x83, 0xe7, 0xb7, 0xbe,
  0x55, 0xea, 0x4e, 0xbe, 0x59, 0x4c, 0x0b, 0xbe, 0x32, 0x9c, 0x32, 0xbe,
  0xfe, 0x2b, 0x9d, 0xbe, 0x13, 0x74, 0x14, 0x3e, 0x96, 0x24, 0xf6, 0xbd,
  0x4b, 0x75, 0x56, 0xbe, 0x18, 0x87, 0x50, 0xbe, 0xcf, 0x26, 0xde, 0xbc,
  0x2d, 0xe1, 0x37, 0xbe, 0x64, 0x73, 0x64, 0x3c, 0x6c, 0x24, 0xe9, 0x3d,
  0x77, 0xe3, 0x05, 0xbe, 0x4a, 0xa7, 0x52, 0xbe, 0xee, 0xa9, 0x31, 0xbe,
  0x82, 0xae, 0x02, 0xbd, 0x09, 0xd9, 0x17, 0x3e, 0x81, 0x0f, 0x63, 0xbe,
  0x2b, 0x7b, 0x03, 0xbc, 0xe4, 0xac, 0xb4, 0xbd, 0xca, 0x1e, 0xca, 0x3e,
  0xbf, 0x2b, 0xfd, 0xbc, 0xc0, 0x7f, 0x14, 0xbe, 0x9b, 0x99, 0x5b, 0xbe,
  0xb4, 0x48, 0x06, 0x3e, 0xcc, 0xbf, 0x58, 0xbe, 0x89, 0x45, 0xfb, 0x3d,
  0xbe, 0xf4, 0x80, 0x3d, 0x24, 0x58, 0x4e, 0xbe, 0x89, 0xd2, 0xe0, 0x3d,
  0x7c, 0x9a, 0x60, 0x3d, 0x57, 0x0a, 0x46, 0xbd, 0xf6, 0xe2, 0xa1, 0x3d,
  0x53, 0xbb, 0x71, 0xbe, 0x29, 0x98, 0x9c, 0xbe, 0x70, 0x52, 0xe4, 0xbd,
  0xa3, 0x6a, 0x8d, 0x3e, 0x8b, 0x0d, 0x3f, 0xbd, 0x1e, 0x07, 0x3f, 0x3e,
  0x23, 0xf2, 0x7e, 0xbe, 0x39, 0x40, 0x75, 0x3e, 0x2f, 0x2f, 0x10, 0xbd,
  0x50, 0x26, 0xcb, 0x3d, 0xf9, 0x6a, 0xbc, 0x3d, 0x16, 0x8d, 0x84, 0xbe,
  0x94, 0x55, 0xd1, 0x3d, 0x7a, 0x7a, 0x4f, 0xbc, 0x2f, 0x37, 0x9c, 0x3d,
  0xed, 0xa4, 0x27, 0x3e, 0x0d, 0xdc, 0x5e, 0xbe, 0x9a, 0x0e, 0xb9, 0xbd,
  0xcd, 0x70, 0xc8, 0xbe, 0x99, 0x96, 0x97, 0x3e, 0xe3, 0x33, 0xa9, 0xbd,
  0x8e, 0x25, 0x3a, 0xbe, 0xda, 0x32, 0x8c, 0xbe, 0x6f, 0x77, 0xc9, 0x3d,
  0xb5, 0xbc, 0x7a, 0xbe, 0x06, 0xd9, 0x5c, 0x3e, 0x12, 0x0f, 0xeb, 0x3c,
  0x15, 0x3a, 0x6d, 0x3c, 0x1f, 0xd0, 0x4b, 0x3d, 0xf8, 0x5f, 0xc4, 0xbd,
  0x5e, 0xf7, 0x68, 0x3d, 0x72, 0x50, 0xa1, 0xbc, 0x24, 0xa4, 0x32, 0xbe,
  0x76, 0x4a, 0x43, 0xbe, 0x6a, 0x49, 0x1a, 0xbe, 0xf9, 0xa6, 0x46, 0x3e,
  0xd5, 0xeb, 0x64, 0x3d, 0x96, 0xd6, 0xf0, 0xbd, 0x2b, 0xd6, 0xaf, 0xbe,
  0xae, 0x57, 0x24, 0x3e, 0x71, 0x2d, 0x69, 0xbe, 0xef, 0x0f, 0x33, 0x3e,
  0xd0, 0x82, 0x08, 0x3e, 0x41, 0x79, 0x52, 0xbe, 0x29, 0xb9, 0xf7, 0xbd,
  0x9d, 0x2d, 0x0c, 0x3c, 0x32, 0x4d, 0x65, 0x3e, 0xed, 0x7b, 0x2e, 0x3d,
  0x0e, 0x67, 0x47, 0xbe, 0x39, 0x39, 0x1d, 0xbe, 0x67, 0x1a, 0x8a, 0xbe,
  0xf8, 0x2a, 0x4b, 0x3e, 0xd1, 0xf1, 0x64, 0xbe, 0x95, 0xa6, 0x58, 0xbd,
  0x5c, 0x7b, 0x80, 0xbe, 0x61, 0x1c, 0x23, 0x3e, 0x26, 0xd0, 0x51, 0xbe,
  0x82, 0xc6, 0x45, 0xbd, 0xef, 0xc9, 0x39, 0x3e, 0x53, 0xaf, 0x08, 0xbe,
  0x4c, 0xef, 0x98, 0xbb, 0x6b, 0x1d, 0xf6, 0xbd, 0x55, 0xe2, 0x24, 0x3e,
  0x1e, 0xd8, 0xbb, 0x3c, 0xa2, 0xaa, 0x67, 0xbe, 0x9c, 0xec, 0xae, 0xbe,
  0x21, 0x10, 0x6f, 0xbe, 0xf3, 0x30, 0x30, 0x3e, 0x22, 0x34, 0xd8, 0xbd,
  0xd8, 0x74, 0xa3, 0x3b, 0x77, 0x8e, 0x13, 0xbe, 0xe1, 0x0b, 0x51, 0x3d,
  0x7f, 0xd4, 0xfb, 0x3d, 0x5f, 0xb1, 0xa6, 0xbd, 0x4d, 0x05, 0x87, 0xbd,
  0x40, 0x8d, 0xa4, 0xbe, 0xed, 0xad, 0xe7, 0x3d, 0x2c, 0x29, 0x9d, 0xbe,
  0x2a, 0xcb, 0xed, 0xbe, 0xad, 0x02, 0x52, 0x3d, 0xa0, 0xeb, 0x37, 0xbc,
  0x2d, 0xc1, 0x7f, 0xbe, 0xb4, 0x7d, 0x4e, 0x3d, 0xbd, 0xfb, 0x82, 0xbd,
  0x26, 0xe8, 0xac, 0x3d, 0x62, 0x8f, 0x42, 0xbe, 0xd0, 0xec, 0x6d, 0xbe,
  0xdb, 0xda, 0x2a, 0xbd, 0x85, 0x81, 0xf4, 0x3d, 0x0e, 0xcc, 0x2a, 0xbd,
  0x35, 0xbe, 0x60, 0xbe, 0x53, 0xab, 0xc1, 0xbc, 0xf3, 0x7b, 0x31, 0x3e,
  0x1a, 0x5e, 0x6c, 0xbd, 0xd6, 0xee, 0x0e, 0xbd, 0xf9, 0xa4, 0xa1, 0x3d,
  0xdc, 0xb1, 0x92, 0x3d, 0xc8, 0x4b, 0xbb, 0x3c, 0x1b, 0x59, 0x78, 0x3e,
  0xc4, 0x48, 0xa3, 0xbc, 0x0a, 0xa1, 0xf7, 0x3d, 0x9b, 0x1d, 0x18, 0xbd,
  0x16, 0x76, 0x98, 0xbe, 0x8b, 0xe8, 0xaa, 0xbb, 0xe2, 0xa7, 0x01, 0x3e,
  0xbc, 0xbc, 0x1f, 0xbd, 0x38, 0x25, 0x13, 0xbe, 0xf6, 0xcb, 0xbd, 0xbd,
  0xc2, 0x0a, 0x5e, 0xbe, 0xc0, 0xef, 0x6f, 0x3d, 0x68, 0xfa, 0x0a, 0xbe,
  0xbc, 0xfa, 0x2c, 0xba, 0x80, 0xa0, 0x2e, 0x3e, 0xc2, 0x29, 0x11, 0x3e,
  0x0e, 0x02, 0x19, 0x3c, 0x68, 0xf6, 0x11, 0xba, 0xd0, 0x77, 0x73, 0x3e,
  0x69, 0xe0, 0x4c, 0x3e, 0xe0, 0x80, 0xb1, 0xbe, 0x2d, 0x76, 0xcb, 0x3c,
  0x67, 0x39, 0xba, 0x3d, 0x3b, 0x71, 0xef, 0xbc, 0x57, 0xf0, 0xd5, 0xbd,
  0x91, 0x93, 0x40, 0xbe, 0xd9, 0xba, 0x8c, 0xbe, 0xf6, 0x43, 0xea, 0x3d,
  0xe0, 0x39, 0xb4, 0xbe, 0xc4, 0xf1, 0x43, 0x3d, 0x2d, 0x5c, 0x00, 0x3e,
  0x67, 0x0e, 0xa1, 0xbe, 0xc7, 0x82, 0x4f, 0x3e, 0x67, 0x1b, 0x62, 0xbd,
  0xfb, 0x35, 0x9c, 0x3e, 0x47, 0x46, 0x01, 0x3e, 0xdf, 0x61, 0x92, 0xbe,
  0x56, 0xf2, 0x58, 0xbd, 0x95, 0xf7, 0xf5, 0x3d, 0x52, 0xf2, 0x0c, 0xbe,
  0x8b, 0x07, 0xca, 0xbd, 0x53, 0x11, 0xf0, 0xbd, 0x4d, 0x64, 0xfe, 0xbc,
  0xc2, 0xd1, 0xa1, 0x3b, 0x3c, 0xb1, 0xf2, 0xbd, 0xfc, 0x8b, 0xc1, 0x3d,
  0x98, 0xd0, 0xad, 0x3d, 0xa0, 0x9d, 0xd0, 0xbe, 0x70, 0xbc, 0xc6, 0x3d,
  0x27, 0x74, 0x2a, 0xbe, 0xaa, 0x62, 0x4e, 0x3e, 0xca, 0xf7, 0x5b, 0xbe,
  0x1e, 0x30, 0xa9, 0xbe, 0x2a, 0x76, 0x00, 0xbe, 0xc5, 0x40, 0xa7, 0x3d,
  0x0e, 0xf3, 0x1f, 0xbe, 0x5d, 0x01, 0x7a, 0xbe, 0x97, 0x7a, 0x05, 0xbe,
  0x94, 0x7e, 0x67, 0xbd, 0xad, 0x7f, 0x39, 0xbd, 0x3d, 0x23, 0xae, 0xbd,
  0x54, 0xef, 0x2d, 0x3e, 0x5e, 0x6b, 0x0d, 0xbe, 0x3c, 0x3d, 0xd1, 0xbd,
  0x9e, 0xa2, 0x7c, 0xbe, 0xea, 0x23, 0x2c, 0xbe, 0xeb, 0x64, 0x20, 0x3e,
  0xd6, 0x1e, 0x72, 0xbe, 0xfb, 0xd6, 0x97, 0xbe, 0x48, 0x73, 0xc7, 0xbd,
  0x22, 0x2a, 0x83, 0x3d, 0x40, 0xe8, 0xc8, 0xbd, 0x95, 0x67, 0x20, 0xbe,
  0x24, 0x03, 0xb9, 0x3d, 0x2a, 0x2b, 0xb2, 0xbe, 0xbb, 0x7a, 0x81, 0xbd,
  0x1a, 0x6d, 0xf3, 0xbe, 0x38, 0xf0, 0x83, 0x3d, 0x1d, 0x63, 0xa1, 0xbb,
  0xa9, 0xa5, 0x74, 0xbe, 0x2c, 0x51, 0xc3, 0xbd, 0x9f, 0x10, 0xd7, 0xbd,
  0xfd, 0x9d, 0xa3, 0x3d, 0x0e, 0x31, 0x0d, 0xbd, 0xb2, 0xcf, 0x9f, 0xbe,
  0xe1, 0x95, 0xa1, 0x3c, 0x14, 0x0d, 0x73, 0xbe, 0xef, 0xc3, 0x45, 0xbc,
  0xdc, 0x9f, 0xc0, 0xbe, 0xfc, 0x8b, 0xef, 0x3d, 0xf2, 0xb5, 0x24, 0x3e,
  0x61, 0xeb, 0x6a, 0xbb, 0x33, 0x5f, 0x00, 0xbe, 0x1c, 0x03, 0xfb, 0xbe,
  0x93, 0x9c, 0x51, 0xbe, 0xf1, 0xb8, 0x4c, 0xbe, 0xb4, 0xe6, 0x4e, 0x3e,
  0x8c, 0x71, 0x08, 0x3d, 0x8d, 0xc8, 0x93, 0xbe, 0x88, 0xd3, 0xa6, 0xbd,
  0x4b, 0x38, 0x1f, 0xbe, 0x05, 0xd6, 0xf4, 0xbc, 0xe6, 0x12, 0x32, 0xbe,
  0xae, 0x98, 0x02, 0xbe, 0x99, 0x83, 0xcb, 0xbe, 0xb2, 0xc1, 0x6e, 0x3c,
  0xdd, 0x84, 0xcd, 0xbd, 0xc7, 0x25, 0x1c, 0xbe, 0x05, 0x00, 0x70, 0xbd,
  0x8a, 0xdf, 0xbb, 0x3d, 0x22, 0xc7, 0xbf, 0xbd, 0xa5, 0xdc, 0x29, 0x3e,
  0x03, 0xc2, 0x8a, 0xbe, 0x4f, 0x24, 0x84, 0xbd, 0x6c, 0x10, 0xa8, 0xbc,
  0x93, 0xa9, 0x66, 0x3e, 0xf6, 0x8a, 0xe6, 0xbd, 0x77, 0x4b, 0x51, 0xbe,
  0xb0, 0xd5, 0xaf, 0xbd, 0x82, 0x22, 0xcb, 0xbe, 0x37, 0x9f, 0x5b, 0xbe,
  0x72, 0x6b, 0xe7, 0x3d, 0xf8, 0x83, 0xd3, 0xbd, 0xf1, 0xf8, 0x8a, 0xbc,
  0xe3, 0x48, 0x10, 0xbe, 0x40, 0x94, 0x03, 0xbe, 0x0d, 0x5d, 0x07, 0x3e,
  0x13, 0x72, 0x12, 0xbd, 0xe4, 0x78, 0x9b, 0x3e, 0x12, 0xb4, 0xac, 0xbc,
  0xfe, 0xdf, 0xc9, 0x3d, 0x61, 0xa8, 0x82, 0x3d, 0x47, 0x7c, 0x44, 0xbd,
  0xdf, 0x4e, 0x2f, 0xbe, 0x48, 0x6b, 0x86, 0x3d, 0x35, 0x1a, 0xb0, 0xbd,
  0x48, 0xfb, 0x1f, 0x3b, 0x15, 0xb4, 0xd2, 0xbb, 0x34, 0x04, 0xa6, 0xbd,
  0xd6, 0xc4, 0x5e, 0xbc, 0x32, 0xf6, 0xcb, 0xbd, 0x15, 0x6d, 0xaa, 0xbc,
  0xc1, 0xf3, 0x72, 0xbc, 0x18, 0x08, 0x13, 0x3e, 0xe0, 0xa3, 0x25, 0x3e,
  0xcf, 0x4f, 0xdd, 0xbb, 0x00, 0x5f, 0x20, 0x3e, 0xfc, 0x30, 0xba, 0xbd,
  0x61, 0x2a, 0x27, 0xbe, 0x49, 0x86, 0xbe, 0x3d, 0xad, 0x8c, 0x61, 0x3d,
  0xb9, 0x63, 0x83, 0xbe, 0x13, 0xa5, 0x98, 0xbe, 0xfb, 0x8f, 0x64, 0xbd,
  0xf3, 0x60, 0xa9, 0x3d, 0x91, 0x58, 0x26, 0xbe, 0x9d, 0x58, 0xf3, 0x3c,
  0xc6, 0x23, 0x68, 0x3e, 0x59, 0x51, 0x40, 0xbe, 0xa8, 0xbd, 0xc8, 0x3b,
  0x72, 0xbd, 0x4f, 0xbd, 0x32, 0xd1, 0x41, 0xbe, 0x25, 0x3f, 0x03, 0x3e,
  0x29, 0x2c, 0xcf, 0xbd, 0x02, 0xbb, 0xe0, 0xbd, 0xa9, 0xd8, 0x0e, 0x3d,
  0x1b, 0xe1, 0x3b, 0x3e, 0x3e, 0x39, 0xf0, 0xbc, 0xde, 0x19, 0xf0, 0xbe,
  0x7a, 0x86, 0x52, 0x3d, 0xf1, 0xb6, 0xec, 0xbb, 0x8b, 0xd7, 0x99, 0xbe,
  0xe4, 0x89, 0x8f, 0xbd, 0x6b, 0x3d, 0x33, 0x3e, 0xf0, 0xf6, 0x2d, 0xbc,
  0x7b, 0x22, 0x1b, 0xbd, 0x2a, 0xa9, 0x75, 0x3c, 0x3c, 0xd0, 0xfd, 0xbc,
  0xbb, 0xd3, 0xb6, 0xbd, 0x86, 0xb8, 0xf7, 0x3d, 0xed, 0xda, 0x63, 0xbe,
  0x18, 0xa7, 0xe1, 0xbc, 0xf3, 0xba, 0xf0, 0xbd, 0x3e, 0xe7, 0x8d, 0xbe,
  0x2b, 0x67, 0x05, 0xbe, 0x70, 0xdb, 0x80, 0xbd, 0x17, 0xc8, 0xa7, 0xbd,
  0x9e, 0xd5, 0x95, 0xbd, 0xa1, 0xf0, 0x30, 0xbe, 0x09, 0xd1, 0x8a, 0xbe,
  0xe9, 0xf9, 0x85, 0x3d, 0x82, 0x86, 0x57, 0x3d, 0x23, 0x00, 0x05, 0x3d,
  0xe3, 0x8c, 0x09, 0xbe, 0x9e, 0x33, 0x57, 0x3b, 0x84, 0x75, 0xb1, 0x3d,
  0xce, 0xaa, 0x5a, 0xbe, 0x7d, 0x59, 0x87, 0xbe, 0x20, 0x85, 0x1d, 0xbe,
  0x4c, 0x65, 0x95, 0x3c, 0x02, 0x49, 0xd5, 0xbc, 0xe1, 0xf7, 0x93, 0x3e,
  0x12, 0xce, 0x4f, 0x3c, 0xcc, 0xcd, 0x5f, 0x3e, 0xe5, 0x19, 0x27, 0x3e,
  0x5f, 0xf6, 0xc9, 0xbd, 0x43, 0xb1, 0xde, 0x3d, 0x07, 0x22, 0xbe, 0xbe,
  0x83, 0xbb, 0x15, 0xbe, 0x68, 0x24, 0x88, 0xbd, 0xad, 0xb3, 0xc3, 0xbd,
  0xb5, 0x69, 0x86, 0xbd, 0xfd, 0xd8, 0x53, 0xbe, 0xfc, 0xd9, 0x1d, 0xbe,
  0xde, 0xd4, 0xa7, 0xbc, 0xaa, 0xa6, 0x22, 0x3e, 0xbe, 0xe4, 0x1e, 0xbe,
  0x68, 0xa9, 0xd0, 0x3d, 0x5f, 0xad, 0xfe, 0x3d, 0x53, 0x07, 0x3d, 0xbe,
  0x46, 0x3c, 0xf7, 0x3d, 0x19, 0xe5, 0x06, 0xbf, 0x55, 0xde, 0x01, 0x3e,
  0xb8, 0x5e, 0x1f, 0x3e, 0x7d, 0xdf, 0xb6, 0xbc, 0x5e, 0x19, 0x10, 0xba,
  0x58, 0xd0, 0x37, 0xbd, 0x01, 0x7c, 0x76, 0xbe, 0xd1, 0x1a, 0x55, 0xbe,
  0x3d, 0x9e, 0x32, 0xbe, 0xb8, 0x8a, 0xa8, 0xbe, 0xc4, 0xb2, 0x75, 0x3c,
  0xca, 0x69, 0xa4, 0xbe, 0xbb, 0x6d, 0xd9, 0x3e, 0xb4, 0xc5, 0xba, 0x3e,
  0xf4, 0xb2, 0x95, 0xbd, 0x83, 0xde, 0xb2, 0x3e, 0xe8, 0x00, 0x0b, 0xbe,
  0x9a, 0x7e, 0xbf, 0x3a, 0xb4, 0xb4, 0xca, 0xbc, 0x8a, 0xcc, 0x2c, 0x3d,
  0xca, 0xc3, 0xf1, 0xbc, 0xe7, 0x57, 0x76, 0x3d, 0x34, 0x62, 0xad, 0x3d,
  0x93, 0x46, 0x5e, 0xbe, 0x16, 0x7e, 0x65, 0xbe, 0xfb, 0x00, 0x68, 0x3d,
  0x88, 0x2b, 0x25, 0x3e, 0xaf, 0x7f, 0xac, 0xbe, 0x0d, 0xee, 0x0d, 0x3f,
  0xf1, 0xcf, 0xeb, 0x3e, 0xf7, 0x2c, 0xfb, 0xbc, 0x19, 0x7b, 0xe7, 0xbd,
  0x3e, 0x67, 0xbe, 0xbe, 0x6f, 0x4e, 0xf1, 0x3d, 0xbe, 0xb1, 0x24, 0xbe,
  0xfa, 0x1c, 0x6b, 0x3e, 0xee, 0x27, 0x2c, 0x3a, 0x93, 0x52, 0xf4, 0xbc,
  0x8d, 0x44, 0x73, 0x39, 0x23, 0x27, 0x92, 0xbe, 0x8d, 0xd6, 0x12, 0xbe,
  0x77, 0xc8, 0x84, 0xbe, 0x28, 0x47, 0x10, 0x3e, 0x90, 0xf9, 0xc0, 0xbe,
  0xfe, 0x16, 0xde, 0x3e, 0x96, 0x6e, 0x2c, 0x3e, 0xd9, 0x78, 0x30, 0xbe,
  0x8a, 0x9e, 0xa1, 0xbd, 0x77, 0x8d, 0x84, 0xbe, 0xf2, 0x7d, 0x05, 0xbd,
  0x27, 0xaf, 0x8a, 0x3e, 0xf7, 0x8d, 0xa3, 0x3c, 0x92, 0x10, 0x88, 0x3c,
  0xd7, 0x16, 0xb7, 0xbd, 0x62, 0xa1, 0x7b, 0xbe, 0x05, 0xd5, 0x8d, 0xbe,
  0x1d, 0x17, 0xfe, 0xbd, 0x99, 0x83, 0x9e, 0xbe, 0x18, 0x4e, 0x15, 0x3d,
  0xc3, 0xba, 0xcd, 0xbe, 0xcf, 0x6d, 0x75, 0x3e, 0xeb, 0xca, 0xd7, 0x3e,
  0x11, 0xbf, 0x00, 0x3e, 0x28, 0x3e, 0x82, 0x3e, 0x79, 0xa7, 0x40, 0xbe,
  0x60, 0x8c, 0xc1, 0xbc, 0x43, 0xfe, 0x49, 0x3d, 0x06, 0x33, 0x72, 0xbd,
  0xe7, 0xd6, 0x91, 0xbc, 0x61, 0xee, 0xdd, 0xbd, 0x28, 0xf2, 0x04, 0xbe,
  0x7b, 0x11, 0xbf, 0xbe, 0xa4, 0x02, 0x56, 0xbb, 0xf2, 0x59, 0xe0, 0x3b,
  0x7a, 0xfa, 0x29, 0x3d, 0x6e, 0x01, 0x8a, 0xbe, 0x91, 0x7e, 0xba, 0x3e,
  0x3d, 0x1c, 0xe2, 0x3c, 0xba, 0xe0, 0xf4, 0x3a, 0x5c, 0x62, 0xb1, 0x3e,
  0x55, 0x0a, 0x9c, 0xbd, 0x38, 0x97, 0x95, 0xbb, 0xe7, 0x07, 0x2c, 0xbe,
  0x88, 0xd3, 0x1f, 0x3d, 0xe7, 0xd2, 0xd7, 0x3c, 0x90, 0x8f, 0x3c, 0xbe,
  0xd5, 0x8c, 0x64, 0xbe, 0x14, 0xe8, 0xa5, 0xbe, 0x50, 0xb0, 0x5c, 0xbe,
  0x9c, 0xa5, 0x0a, 0xbd, 0x90, 0x67, 0xb7, 0xbc, 0x9f, 0xc1, 0x3d, 0xbc,
  0x2a, 0xcc, 0x41, 0x3e, 0x99, 0x43, 0x4c, 0x3e, 0x0b, 0x5e, 0x6c, 0x3d,
  0xae, 0x8c, 0x4f, 0x3e, 0xcc, 0x60, 0xd7, 0xbd, 0xf4, 0x8f, 0x34, 0x3d,
  0x4d, 0x3e, 0x89, 0xbb, 0x33, 0x3a, 0xdc, 0xbd, 0x03, 0x0c, 0x0a, 0x3d,
  0x04, 0x99, 0x71, 0xbc, 0x70, 0x36, 0xa8, 0x3e, 0xfd, 0x88, 0xc0, 0xbe,
  0xa1, 0x30, 0x2b, 0xbc, 0xe1, 0x34, 0x91, 0xbe, 0x93, 0x55, 0xa7, 0x3d,
  0x7a, 0xc5, 0x48, 0xbd, 0x3e, 0x42, 0xf0, 0x3e, 0x6b, 0xc2, 0x4c, 0x3e,
  0x18, 0x19, 0xb4, 0x3d, 0x01, 0x23, 0x9a, 0x3e, 0x99, 0x09, 0xa4, 0xbe,
  0xee, 0xcf, 0x5c, 0x3d, 0x03, 0x95, 0x7f, 0x3c, 0x32, 0xa0, 0x82, 0xbd,
  0xb8, 0x00, 0x19, 0xbd, 0x6d, 0x1a, 0xf0, 0xba, 0x67, 0xd5, 0xb8, 0x3d,
  0x5a, 0x1c, 0x0c, 0xbf, 0x81, 0x6d, 0x26, 0xbe, 0xad, 0x54, 0xb0, 0xbd,
  0xf4, 0x63, 0xc8, 0x3d, 0x65, 0xc9, 0xa4, 0xbd, 0xfa, 0x29, 0x04, 0xbe,
  0x07, 0x18, 0x23, 0x3e, 0x7b, 0x0a, 0xee, 0x3c, 0x01, 0xf6, 0x81, 0x3e,
  0xc4, 0xb4, 0xc5, 0xbd, 0x28, 0xae, 0x6e, 0x3c, 0x73, 0xe4, 0x2e, 0xbe,
  0xd8, 0x1d, 0x31, 0x3d, 0x53, 0xd8, 0x40, 0xbd, 0xd2, 0xce, 0xc1, 0xbc,
  0x6d, 0x81, 0xd5, 0x3d, 0x25, 0x1b, 0xb4, 0xbe, 0x71, 0x90, 0xce, 0xbd,
  0xc8, 0xb7, 0x79, 0xbe, 0x47, 0x10, 0xb0, 0xbd, 0x2c, 0x5d, 0x09, 0xbe,
  0x4c, 0x55, 0x34, 0x3d, 0x81, 0xc1, 0xa0, 0x3d, 0xb3, 0x5e, 0x59, 0x3d,
  0x97, 0x98, 0x76, 0x3e, 0x17, 0xd3, 0xfc, 0xbc, 0xfd, 0x1d, 0xe6, 0xbc,
  0x0d, 0x5d, 0x11, 0x3e, 0xf9, 0x7c, 0x38, 0x3c, 0xe4, 0x41, 0x48, 0x3d,
  0x9f, 0xa9, 0x1a, 0x3d, 0xa2, 0x08, 0x73, 0xbe, 0x92, 0x8e, 0xd9, 0xbe,
  0xd0, 0xeb, 0xfc, 0xbd, 0x0f, 0x99, 0x92, 0xbe, 0x75, 0x9a, 0x09, 0x3e,
  0x06, 0x89, 0x97, 0xbd, 0x19, 0xfc, 0x7c, 0x3e, 0x1e, 0x68, 0x83, 0x3e,
  0x77, 0x26, 0x9e, 0x3c, 0x98, 0xeb, 0xa3, 0x3e, 0x86, 0x66, 0x84, 0xbe,
  0x79, 0x6f, 0x24, 0x3d, 0x4c, 0xb9, 0xae, 0x3d, 0x40, 0x57, 0xcc, 0xbd,
  0x97, 0x54, 0x29, 0xbe, 0xc2, 0x49, 0x51, 0xbd, 0xd1, 0x5b, 0xf9, 0xbd,
  0xbc, 0xd3, 0x8a, 0xbe, 0x51, 0xe8, 0x9a, 0xbd, 0x71, 0xf4, 0x70, 0xbe,
  0xa1, 0x28, 0x14, 0x3e, 0xc8, 0x03, 0xe5, 0xbd, 0xc4, 0x8f, 0xe7, 0x3d,
  0xdf, 0x17, 0x43, 0x3e, 0x47, 0xa6, 0x8f, 0x3d, 0x3a, 0xab, 0x3d, 0x3e,
  0xf7, 0x96, 0x4c, 0xbe, 0xaa, 0x88, 0x06, 0xbd, 0xe9, 0x35, 0x9e, 0x3d,
  0x96, 0x2a, 0xb5, 0x3c, 0x95, 0x17, 0xe3, 0xbd, 0xa2, 0xe5, 0x90, 0xbd,
  0x1d, 0xd6, 0x03, 0xbe, 0x39, 0x49, 0xd9, 0xbe, 0x1f, 0x4d, 0x18, 0xbe,
  0x64, 0x2e, 0xf1, 0xbc, 0x5e, 0xb5, 0xac, 0x3b, 0x4f, 0xee, 0x99, 0xbd,
  0xe0, 0xbc, 0x0a, 0x3e, 0x07, 0x24, 0x37, 0xbd, 0x78, 0x73, 0xa2, 0x3d,
  0x58, 0xec, 0x50, 0x3e, 0xac, 0xdd, 0x81, 0xbe, 0x4b, 0xf1, 0x0b, 0xbd,
  0x57, 0x58, 0x21, 0x3e, 0xe7, 0x51, 0xe2, 0x3d, 0x11, 0xbe, 0x5b, 0xbe,
  0xad, 0x7a, 0x85, 0xbc, 0x3a, 0x8b, 0xa4, 0x3e, 0xe6, 0x1b, 0x3c, 0xbe,
  0x8e, 0x0f, 0xa9, 0x3c, 0x1c, 0x07, 0x1e, 0xbc, 0xea, 0x3f, 0x3f, 0xbe,
  0x9e, 0x2a, 0x98, 0xbd, 0xb3, 0x18, 0x4c, 0x3e, 0xc6, 0x42, 0x57, 0x3e,
  0xde, 0x31, 0x37, 0xbb, 0xbc, 0x0d, 0x0c, 0xbe, 0x35, 0x08, 0xd9, 0xbd,
  0x4a, 0x73, 0x5d, 0xb8, 0x9d, 0xbc, 0x81, 0xbe, 0x51, 0xb4, 0x30, 0xbe,
  0xd9, 0xe9, 0xa7, 0x3d, 0x39, 0x2a, 0x06, 0xbe, 0x6c, 0x59, 0x89, 0xbe,
  0x4d, 0x76, 0x75, 0xbe, 0xaa, 0x32, 0x81, 0xbd, 0xd0, 0x90, 0x95, 0x3c,
  0xbc, 0x8f, 0x69, 0x3d, 0xc2, 0x71, 0x8e, 0x3d, 0xd4, 0x75, 0x14, 0x3d,
  0x3f, 0x73, 0x10, 0xbe, 0x30, 0x67, 0xf1, 0xbe, 0x1b, 0xde, 0x9d, 0x3d,
  0xdc, 0xd5, 0x0a, 0xbe, 0x39, 0x82, 0x42, 0xbc, 0x8b, 0x02, 0xd8, 0xbd,
  0xeb, 0x64, 0xcd, 0x3d, 0xe6, 0x06, 0x51, 0x3e, 0xd3, 0xe3, 0x7e, 0xbc,
  0x6f, 0xab, 0xe9, 0xbc, 0x57, 0x19, 0x15, 0xbe, 0x20, 0x79, 0x56, 0x3e,
  0x78, 0x2d, 0x92, 0xbe, 0x21, 0xbe, 0x9e, 0xbe, 0xcd, 0xf7, 0x42, 0x3e,
  0x43, 0xc4, 0x29, 0x3c, 0x40, 0x9b, 0x11, 0xb9, 0x82, 0xf2, 0xac, 0xbe,
  0x1c, 0x5e, 0x90, 0x3d, 0x56, 0x29, 0xc1, 0xbd, 0xda, 0x28, 0x26, 0x3c,
  0xeb, 0x67, 0x74, 0xbd, 0x8d, 0x74, 0x3c, 0xbe, 0xaf, 0xea, 0x48, 0x3d,
  0x6b, 0x45, 0x02, 0xbc, 0x6b, 0xc6, 0x2b, 0xbe, 0x96, 0x8e, 0x02, 0xbe,
  0x06, 0x14, 0xa2, 0xbc, 0xd1, 0xc6, 0x65, 0xbc, 0x1d, 0xef, 0xf9, 0x3d,
  0x09, 0x51, 0xae, 0xbd, 0xda, 0x2c, 0x35, 0x3e, 0x4e, 0x2b, 0x5e, 0xbd,
  0x71, 0xda, 0x2a, 0xbe, 0x08, 0x18, 0x46, 0xbe, 0xdd, 0xa5, 0xea, 0x3d,
  0xa9, 0xe8, 0x9b, 0x3d, 0xed, 0x0a, 0xfb, 0xbd, 0xa4, 0x2c, 0x21, 0xbe,
  0x75, 0x2d, 0xde, 0x3e, 0xa9, 0x41, 0x93, 0xbd, 0x92, 0x4e, 0x4b, 0xbe,
  0x51, 0xc5, 0xa2, 0xbe, 0x28, 0x39, 0x4b, 0x3e, 0x39, 0x74, 0x4b, 0xbe,
  0x29, 0x42, 0xde, 0x3d, 0x87, 0x8d, 0x96, 0xbd, 0x5c, 0x0f, 0x8d, 0xbc,
  0x24, 0x12, 0x54, 0x3d, 0x0a, 0x23, 0xaf, 0x3c, 0xdb, 0xdd, 0xf7, 0x3d,
  0x8e, 0x89, 0x12, 0xbe, 0x93, 0x83, 0x07, 0xbe, 0x0c, 0xdf, 0xba, 0x3d,
  0x8b, 0x39, 0x0f, 0xbd, 0x71, 0xc2, 0x70, 0x3e, 0x5c, 0xc6, 0xb7, 0xbc,
  0xde, 0x75, 0x0e, 0xbe, 0x5b, 0xc0, 0x95, 0xbe, 0x60, 0xb1, 0xf3, 0xbb,
  0x54, 0xdb, 0x03, 0xbe, 0x53, 0x0c, 0x6a, 0xbe, 0xf9, 0x16, 0xda, 0xbd,
  0xb9, 0x80, 0x33, 0x3e, 0x32, 0xa3, 0xb3, 0x3c, 0x50, 0x42, 0xdd, 0x3d,
  0x15, 0x61, 0xb7, 0x3d, 0xc4, 0x02, 0x34, 0xbe, 0x2a, 0x47, 0x0b, 0xbd,
  0x98, 0x28, 0x76, 0xbe, 0x00, 0x41, 0x38, 0xbe, 0xe7, 0xf5, 0xe5, 0x3d,
  0xcf, 0x66, 0x36, 0xbe, 0x80, 0x11, 0x25, 0xbe, 0x52, 0x49, 0x1b, 0xbe,
  0x17, 0xe9, 0xa5, 0xbd, 0xfa, 0xa5, 0xa7, 0xbd, 0xe4, 0x7b, 0xc4, 0x3d,
  0x46, 0x80, 0x63, 0x3e, 0xcf, 0x15, 0xa4, 0xbd, 0x2a, 0x9b, 0x29, 0x3d,
  0xd6, 0x76, 0x88, 0xbe, 0x0b, 0xe8, 0x90, 0xbd, 0xc2, 0xc4, 0xf1, 0xbc,
  0x7e, 0xa0, 0x8d, 0xbd, 0x85, 0x5a, 0x3c, 0xbd, 0x9a, 0x81, 0x61, 0xbe,
  0x28, 0xf2, 0x1b, 0x3e, 0x84, 0x37, 0xde, 0xbd, 0x58, 0xb2, 0x72, 0xbd,
  0x59, 0x93, 0x95, 0xbd, 0x4e, 0x36, 0xa2, 0x3d, 0xfe, 0x70, 0x9d, 0xbd,
  0xcc, 0xeb, 0xf1, 0xbd, 0xd7, 0xbe, 0xfb, 0xbc, 0x49, 0x76, 0x09, 0xbf,
  0x45, 0x18, 0x35, 0x3d, 0x81, 0x2f, 0xba, 0xbe, 0x95, 0x4e, 0x9c, 0xbe,
  0x68, 0x66, 0x54, 0xbc, 0x30, 0x58, 0x26, 0x3e, 0x77, 0x8a, 0x67, 0x3e,
  0xb9, 0xd2, 0x79, 0x3c, 0x20, 0xc6, 0xee, 0x3d, 0xad, 0x1c, 0xb3, 0x3d,
  0xd7, 0xf0, 0x7a, 0x3e, 0xd5, 0xb1, 0xa0, 0xbd, 0xed, 0xe1, 0x7b, 0x3d,
  0x4e, 0xf3, 0xa9, 0xbd, 0x24, 0x97, 0xbc, 0x3d, 0xbb, 0x8f, 0xa5, 0x3d,
  0x9d, 0x4c, 0xf4, 0xbe, 0xd1, 0x4e, 0xc9, 0xbd, 0x7a, 0xb0, 0x12, 0xbc,
  0xf3, 0x53, 0xfe, 0xbe, 0x1c, 0x0f, 0xf2, 0x3c, 0xad, 0x5f, 0xed, 0xbc,
  0xce, 0x70, 0x1a, 0xbd, 0xc5, 0x6c, 0x7a, 0xbc, 0x91, 0x52, 0xfd, 0x3c,
  0xda, 0x20, 0x37, 0xbd, 0x24, 0xa8, 0xee, 0x3e, 0x0d, 0x60, 0xac, 0xbe,
  0xd1, 0x78, 0x9e, 0x3d, 0xe1, 0xfb, 0x19, 0xbe, 0x71, 0x0d, 0xfb, 0x3c,
  0x57, 0xde, 0x08, 0x3c, 0x50, 0xe1, 0xdb, 0x3d, 0xda, 0xef, 0xa9, 0x3d,
  0x64, 0x6b, 0x3f, 0x3d, 0x34, 0x52, 0x8c, 0xbd, 0xc4, 0x99, 0x64, 0xbd,
  0x15, 0x2a, 0x49, 0xbe, 0x98, 0x75, 0xae, 0xbe, 0xd8, 0xb9, 0xf9, 0xbd,
  0xf2, 0x03, 0x29, 0x3d, 0x2e, 0x4a, 0xbd, 0xbe, 0x23, 0x95, 0xbc, 0xbc,
  0x8b, 0x3d, 0x0b, 0xbf, 0x9b, 0xc2, 0xa4, 0x3d, 0x5e, 0x2f, 0x7c, 0xbe,
  0x31, 0xdb, 0x18, 0x3d, 0xce, 0xa3, 0xa8, 0x3c, 0x5c, 0x25, 0x1c, 0xbd,
  0xf0, 0x8d, 0xdb, 0x3d, 0x4c, 0x8f, 0x0b, 0x3d, 0xae, 0xbb, 0xca, 0xbd,
  0xb0, 0x08, 0x86, 0xbd, 0xe0, 0x71, 0xbd, 0xbd, 0xb8, 0x9d, 0x06, 0xbf,
  0x9d, 0x3f, 0x38, 0x3d, 0x59, 0xe9, 0xba, 0x3d, 0x65, 0xa2, 0x31, 0xbe,
  0x9b, 0x85, 0x02, 0xbe, 0x40, 0x33, 0x50, 0xbf, 0x3b, 0xfc, 0x0b, 0xbd,
  0x6c, 0x78, 0xce, 0xbd, 0x58, 0x30, 0x05, 0x3e, 0xf6, 0x1e, 0x8c, 0xbd,
  0x20, 0x7f, 0xbd, 0xbd, 0xf6, 0x2f, 0x5c, 0x3d, 0xd4, 0xd5, 0xd8, 0x3c,
  0xe1, 0x6a, 0x08, 0x3e, 0x77, 0x52, 0x0e, 0xbe, 0xf8, 0x0b, 0x4a, 0x3c,
  0xb9, 0x32, 0x50, 0x3e, 0x79, 0x2c, 0x15, 0x3e, 0x25, 0x29, 0x2f, 0x3e,
  0x02, 0xc2, 0xf1, 0xbd, 0x73, 0xbf, 0xf5, 0x3e, 0x71, 0x14, 0x5d, 0xbe,
  0xa1, 0xc9, 0x93, 0x3d, 0xd7, 0xd2, 0x68, 0xbe, 0x87, 0xb9, 0x3a, 0x3e,
  0x2f, 0x55, 0x33, 0xbc, 0xb3, 0x29, 0x15, 0xbe, 0xfd, 0x3f, 0x84, 0x3d,
  0x0f, 0x81, 0xc0, 0xbd, 0xf1, 0x35, 0xe9, 0xbd, 0x25, 0xd3, 0xfd, 0xbd,
  0xc5, 0xaa, 0x8e, 0x3c, 0x4b, 0x1c, 0x5a, 0x3e, 0x24, 0x22, 0x33, 0x3e,
  0xe6, 0x7e, 0x4d, 0x3e, 0xdb, 0xe4, 0x1f, 0x3d, 0x25, 0x18, 0x75, 0x3e,
  0xe1, 0xd8, 0xcc, 0xbd, 0xb0, 0x97, 0x92, 0x3d, 0xcc, 0xab, 0x57, 0x3d,
  0x6f, 0xe3, 0xdf, 0x3d, 0x96, 0x0c, 0x3d, 0xbd, 0x9d, 0xa6, 0x91, 0x3d,
  0x37, 0xd8, 0xde, 0x3d, 0x1f, 0xa4, 0x7f, 0xbc, 0x6d, 0xcf, 0xdb, 0x3d,
  0xce, 0x3f, 0x98, 0xbc, 0x07, 0x46, 0x43, 0x3e, 0xd8, 0xcb, 0x09, 0x3d,
  0x5d, 0x58, 0x8b, 0x3e, 0x55, 0x4c, 0x17, 0x3e, 0xfa, 0xff, 0x40, 0xbc,
  0xc2, 0xde, 0x69, 0x3e, 0x08, 0xf2, 0xe5, 0x3c, 0x97, 0xdb, 0xf8, 0x3b,
  0xb1, 0x67, 0x42, 0xbd, 0xe3, 0x7a, 0xd4, 0xbd, 0x4f, 0xf1, 0x09, 0xbe,
  0x88, 0xd3, 0x99, 0xbe, 0x91, 0xde, 0x92, 0xbd, 0x91, 0x70, 0x2d, 0xbe,
  0x9c, 0x46, 0x8a, 0xbd, 0x13, 0x9b, 0xc2, 0xbd, 0x0b, 0x9c, 0x39, 0xbd,
  0x81, 0xaa, 0x26, 0xbe, 0xd0, 0xa4, 0x18, 0xbe, 0xe7, 0x6c, 0x23, 0xbe,
  0x58, 0x6d, 0x97, 0xbd, 0xb8, 0xdc, 0xe7, 0xbc, 0x11, 0xd8, 0x81, 0xbe,
  0x1f, 0x9f, 0xb0, 0xbd, 0xa4, 0x39, 0xfc, 0xbc, 0x50, 0x2c, 0x27, 0xbe,
  0x1d, 0xe2, 0x85, 0xbe, 0xd5, 0xd3, 0x76, 0xbe, 0x91, 0x07, 0x69, 0xbc,
  0x09, 0xed, 0xa4, 0xbd, 0x03, 0xbe, 0xa2, 0xbd, 0x2c, 0x1b, 0x3e, 0xbd,
  0x4b, 0x56, 0xb6, 0xbc, 0xa7, 0x87, 0x1a, 0xbe, 0xbd, 0x68, 0xaa, 0x3a,
  0x63, 0x2c, 0x7e, 0x3c, 0x65, 0x95, 0xc3, 0xbd, 0x72, 0xac, 0x3b, 0x3e,
  0x61, 0xd4, 0x99, 0xbe, 0x45, 0x25, 0xd6, 0xbd, 0x89, 0xa5, 0x85, 0xbd,
  0xda, 0xaf, 0x33, 0xbe, 0x5d, 0x00, 0x60, 0xbe, 0x16, 0x30, 0x82, 0x3d,
  0x9e, 0x5e, 0x48, 0xbe, 0x67, 0x96, 0xab, 0xbc, 0xc3, 0x7c, 0x0f, 0xbe,
  0x61, 0x02, 0xb2, 0xbd, 0x37, 0xfd, 0x0d, 0xbe, 0xb2, 0xbf, 0x17, 0x3e,
  0x6c, 0xed, 0xfe, 0xbd, 0x92, 0x02, 0x66, 0xbd, 0x2f, 0xd1, 0xd0, 0xbd,
  0x85, 0xd1, 0xe8, 0x3b, 0x25, 0x30, 0xdc, 0xbc, 0x87, 0x17, 0x73, 0xbd,
  0xeb, 0x1e, 0x01, 0xbe, 0x48, 0xdc, 0x4c, 0xbd, 0x02, 0x18, 0x31, 0xbd,
  0xaa, 0x9c, 0x98, 0xbc, 0xb6, 0x11, 0xa5, 0x3d, 0x7e, 0x84, 0x15, 0xbe,
  0xf1, 0x8f, 0x01, 0x3e, 0x4e, 0x62, 0xcf, 0x3d, 0xd5, 0xe5, 0x52, 0xbd,
  0xdd, 0x82, 0xe3, 0xba, 0x94, 0x6e, 0x04, 0xbe, 0x61, 0x09, 0xad, 0xbd,
  0x39, 0x7f, 0x34, 0xbe, 0x3b, 0xce, 0x31, 0x3e, 0x61, 0xfa, 0xa9, 0xbe,
  0x8b, 0xf8, 0x52, 0xbd, 0xab, 0x2a, 0x42, 0xbe, 0xf1, 0x5c, 0x85, 0xbe,
  0x95, 0x26, 0x96, 0xbd, 0x6f, 0x3b, 0xcc, 0xbc, 0xe6, 0x14, 0x2b, 0xbd,
  0x34, 0xe5, 0x3b, 0xbe, 0xe8, 0xdb, 0x8f, 0x3c, 0x19, 0x2a, 0x25, 0xbe,
  0x24, 0x3e, 0x81, 0xbd, 0xf5, 0x87, 0xbd, 0x3d, 0xcd, 0x1d, 0x0d, 0xbe,
  0xbc, 0x37, 0x54, 0x3c, 0x56, 0xb4, 0x01, 0xbe, 0xc5, 0x1f, 0x63, 0x3d,
  0x04, 0x73, 0x45, 0xbb, 0x3a, 0x49, 0x84, 0xbe, 0x59, 0x87, 0x01, 0xbe,
  0x75, 0xc9, 0xaa, 0xbd, 0x7c, 0x49, 0x8f, 0xbd, 0x66, 0x77, 0x3f, 0x3c,
  0x9c, 0xb8, 0xdd, 0xbd, 0x05, 0x43, 0x16, 0xbe, 0xf0, 0x08, 0xf2, 0x3d,
  0x08, 0x1d, 0x99, 0xbe, 0x5c, 0xcc, 0x7b, 0xbd, 0x88, 0x7a, 0x52, 0xbe,
  0x46, 0x97, 0x8d, 0x3d, 0x56, 0x01, 0xa6, 0xbd, 0x0a, 0xbb, 0x92, 0xbe,
  0xda, 0x4b, 0x59, 0xbe, 0xcc, 0x5d, 0xd8, 0x3c, 0xe2, 0x76, 0xbd, 0xbd,
  0xdd, 0x32, 0x9a, 0xbc, 0x52, 0xdb, 0xc7, 0xbd, 0x32, 0xc8, 0x8e, 0xbe,
  0xf7, 0x57, 0x35, 0x3e, 0xbd, 0xb2, 0x68, 0xbe, 0x14, 0x1a, 0x5e, 0xbd,
  0xef, 0x3c, 0x16, 0xbe, 0xc7, 0xda, 0x83, 0xbe, 0x57, 0x62, 0x82, 0x3c,
  0xcd, 0x01, 0x98, 0x3e, 0xa3, 0x0f, 0xb0, 0x3d, 0x39, 0xc3, 0x09, 0x3d,
  0xf7, 0x92, 0xc7, 0xbc, 0xc1, 0xe9, 0xea, 0xbc, 0x8e, 0x90, 0xb1, 0xbe,
  0xb7, 0xcb, 0x1e, 0x3c, 0x62, 0xfd, 0xff, 0xff, 0x10, 0x00, 0x00, 0x00,
  0x07, 0x00, 0x00, 0x00, 0x14, 0x00, 0x00, 0x00, 0x2c, 0x00, 0x00, 0x00,
  0x02, 0x00, 0x00, 0x00, 0x10, 0x00, 0x00, 0x00, 0x70, 0x00, 0x00, 0x00,
  0x17, 0x00, 0x00, 0x00, 0x73, 0x65, 0x71, 0x75, 0x65, 0x6e, 0x74, 0x69,
  0x61, 0x6c, 0x2f, 0x64, 0x65, 0x6e, 0x73, 0x65, 0x2f, 0x4d, 0x61, 0x74,
  0x4d, 0x75, 0x6c, 0x00, 0xcc, 0xfc, 0xff, 0xff, 0xd6, 0xfd, 0xff, 0xff,
  0x04, 0x00, 0x00, 0x00, 0x08, 0x00, 0x00, 0x00, 0xff, 0xff, 0xff, 0xff,
  0x70, 0x00, 0x00, 0x00, 0x00, 0x00, 0x0e, 0x00, 0x18, 0x00, 0x08, 0x00,
  0x07, 0x00, 0x0c, 0x00, 0x10, 0x00, 0x14, 0x00, 0x0e, 0x00, 0x00, 0x00,
  0x00, 0x00, 0x00, 0x02, 0x10, 0x00, 0x00, 0x00, 0x06, 0x00, 0x00, 0x00,
  0x10, 0x00, 0x00, 0x00, 0x2c, 0x00, 0x00, 0x00, 0x01, 0x00, 0x00, 0x00,
  0x02, 0x00, 0x00, 0x00, 0x18, 0x00, 0x00, 0x00, 0x73, 0x65, 0x71, 0x75,
  0x65, 0x6e, 0x74, 0x69, 0x61, 0x6c, 0x2f, 0x66, 0x6c, 0x61, 0x74, 0x74,
  0x65, 0x6e, 0x2f, 0x43, 0x6f, 0x6e, 0x73, 0x74, 0x00, 0x00, 0x00, 0x00,
  0x34, 0xfd, 0xff, 0xff, 0x3e, 0xfe, 0xff, 0xff, 0x04, 0x00, 0x00, 0x00,
  0x10, 0x00, 0x00, 0x00, 0x77, 0xb2, 0xe9, 0xbe, 0x5d, 0xc4, 0x75, 0xc0,
  0x83, 0x10, 0xf9, 0xbf, 0x41, 0xcf, 0x2e, 0x40, 0x26, 0xfe, 0xff, 0xff,
  0x10, 0x00, 0x00, 0x00, 0x05, 0x00, 0x00, 0x00, 0x10, 0x00, 0x00, 0x00,
  0x44, 0x00, 0x00, 0x00, 0x01, 0x00, 0x00, 0x00, 0x04, 0x00, 0x00, 0x00,
  0x32, 0x00, 0x00, 0x00, 0x73, 0x65, 0x71, 0x75, 0x65, 0x6e, 0x74, 0x69,
  0x61, 0x6c, 0x2f, 0x64, 0x65, 0x6e, 0x73, 0x65, 0x5f, 0x31, 0x2f, 0x42,
  0x69, 0x61, 0x73, 0x41, 0x64, 0x64, 0x2f, 0x52, 0x65, 0x61, 0x64, 0x56,
  0x61, 0x72, 0x69, 0x61, 0x62, 0x6c, 0x65, 0x4f, 0x70, 0x2f, 0x72, 0x65,
  0x73, 0x6f, 0x75, 0x72, 0x63, 0x65, 0x00, 0x00, 0xa8, 0xfd, 0xff, 0xff,
  0xb2, 0xfe, 0xff, 0xff, 0x04, 0x00, 0x00, 0x00, 0x40, 0x00, 0x00, 0x00,
  0x21, 0x45, 0x17, 0xc0, 0x3f, 0xd8, 0x9c, 0x3f, 0x44, 0x8f, 0xdf, 0xbf,
  0x07, 0x14, 0x51, 0xbe, 0x7e, 0xa1, 0x1a, 0x40, 0xc5, 0x32, 0x10, 0x40,
  0x80, 0xdd, 0x66, 0x40, 0xa2, 0x8c, 0x9d, 0x3e, 0x18, 0xf1, 0xb2, 0xbe,
  0x3a, 0xcf, 0xe6, 0xbf, 0x9b, 0x64, 0x48, 0xbf, 0x20, 0xbf, 0x16, 0x40,
  0xe2, 0xb5, 0x5e, 0x40, 0x37, 0xb0, 0x1c, 0xbe, 0xf8, 0x33, 0x96, 0xbf,
  0x08, 0x32, 0xde, 0xbe, 0xca, 0xfe, 0xff, 0xff, 0x10, 0x00, 0x00, 0x00,
  0x04, 0x00, 0x00, 0x00, 0x10, 0x00, 0x00, 0x00, 0x44, 0x00, 0x00, 0x00,
  0x01, 0x00, 0x00, 0x00, 0x10, 0x00, 0x00, 0x00, 0x30, 0x00, 0x00, 0x00,
  0x73, 0x65, 0x71, 0x75, 0x65, 0x6e, 0x74, 0x69, 0x61, 0x6c, 0x2f, 0x64,
  0x65, 0x6e, 0x73, 0x65, 0x2f, 0x42, 0x69, 0x61, 0x73, 0x41, 0x64, 0x64,
  0x2f, 0x52, 0x65, 0x61, 0x64, 0x56, 0x61, 0x72, 0x69, 0x61, 0x62, 0x6c,
  0x65, 0x4f, 0x70, 0x2f, 0x72, 0x65, 0x73, 0x6f, 0x75, 0x72, 0x63, 0x65,
  0x00, 0x00, 0x00, 0x00, 0x4c, 0xfe, 0xff, 0xff, 0x56, 0xff, 0xff, 0xff,
  0x04, 0x00, 0x00, 0x00, 0x40, 0x00, 0x00, 0x00, 0x79, 0x83, 0x98, 0x3f,
  0xe0, 0x5b, 0xf0, 0x3e, 0xdb, 0xc6, 0xb2, 0xbe, 0x3e, 0xb3, 0xd8, 0xba,
  0x6f, 0xb6, 0x43, 0xbd, 0xc7, 0x61, 0xf3, 0x3d, 0x58, 0x0e, 0x2f, 0xbc,
  0xd2, 0x26, 0xc4, 0xbf, 0x30, 0x1d, 0x59, 0xbe, 0x2c, 0x91, 0x1c, 0xbf,
  0x64, 0x60, 0x0f, 0xbe, 0xba, 0x1f, 0x0d, 0xbf, 0x87, 0xf5, 0xb7, 0xbf,
  0x60, 0x44, 0x6c, 0xbf, 0x77, 0x79, 0xdb, 0x3f, 0xbe, 0x3b, 0x18, 0xbf,
  0x6e, 0xff, 0xff, 0xff, 0x10, 0x00, 0x00, 0x00, 0x03, 0x00, 0x00, 0x00,
  0x10, 0x00, 0x00, 0x00, 0x48, 0x00, 0x00, 0x00, 0x01, 0x00, 0x00, 0x00,
  0x10, 0x00, 0x00, 0x00, 0x33, 0x00, 0x00, 0x00, 0x73, 0x65, 0x71, 0x75,
  0x65, 0x6e, 0x74, 0x69, 0x61, 0x6c, 0x2f, 0x63, 0x6f, 0x6e, 0x76, 0x32,
  0x64, 0x5f, 0x31, 0x2f, 0x42, 0x69, 0x61, 0x73, 0x41, 0x64, 0x64, 0x2f,
  0x52, 0x65, 0x61, 0x64, 0x56, 0x61, 0x72, 0x69, 0x61, 0x62, 0x6c, 0x65,
  0x4f, 0x70, 0x2f, 0x72, 0x65, 0x73, 0x6f, 0x75, 0x72, 0x63, 0x65, 0x00,
  0x04, 0x00, 0x06, 0x00, 0x04, 0x00, 0x00, 0x00, 0x00, 0x00, 0x06, 0x00,
  0x08, 0x00, 0x04, 0x00, 0x06, 0x00, 0x00, 0x00, 0x04, 0x00, 0x00, 0x00,
  0x20, 0x00, 0x00, 0x00, 0xe7, 0xf7, 0xc7, 0xbf, 0xb8, 0x14, 0x65, 0xbf,
  0xb3, 0xbe, 0xc0, 0xbe, 0x93, 0xa8, 0x94, 0xbf, 0x36, 0x9e, 0xf3, 0xbf,
  0x50, 0xb6, 0xf0, 0xbf, 0x3d, 0x0e, 0xa9, 0xbf, 0xa0, 0x1b, 0xe2, 0xbf,
  0x00, 0x00, 0x0e, 0x00, 0x14, 0x00, 0x04, 0x00, 0x00, 0x00, 0x08, 0x00,
  0x0c, 0x00, 0x10, 0x00, 0x0e, 0x00, 0x00, 0x00, 0x10, 0x00, 0x00, 0x00,
  0x02, 0x00, 0x00, 0x00, 0x10, 0x00, 0x00, 0x00, 0x44, 0x00, 0x00, 0x00,
  0x01, 0x00, 0x00, 0x00, 0x08, 0x00, 0x00, 0x00, 0x31, 0x00, 0x00, 0x00,
  0x73, 0x65, 0x71, 0x75, 0x65, 0x6e, 0x74, 0x69, 0x61, 0x6c, 0x2f, 0x63,
  0x6f, 0x6e, 0x76, 0x32, 0x64, 0x2f, 0x42, 0x69, 0x61, 0x73, 0x41, 0x64,
  0x64, 0x2f, 0x52, 0x65, 0x61, 0x64, 0x56, 0x61, 0x72, 0x69, 0x61, 0x62,
  0x6c, 0x65, 0x4f, 0x70, 0x2f, 0x72, 0x65, 0x73, 0x6f, 0x75, 0x72, 0x63,
  0x65, 0x00, 0x00, 0x00, 0x90, 0xff, 0xff, 0xff, 0x14, 0x00, 0x18, 0x00,
  0x04, 0x00, 0x00, 0x00, 0x08, 0x00, 0x0c, 0x00, 0x10, 0x00, 0x00, 0x00,
  0x00, 0x00, 0x14, 0x00, 0x14, 0x00, 0x00, 0x00, 0x14, 0x00, 0x00, 0x00,
  0x01, 0x00, 0x00, 0x00, 0x20, 0x00, 0x00, 0x00, 0x44, 0x00, 0x00, 0x00,
  0x2c, 0x00, 0x00, 0x00, 0x04, 0x00, 0x00, 0x00, 0x01, 0x00, 0x00, 0x00,
  0x40, 0x00, 0x00, 0x00, 0x03, 0x00, 0x00, 0x00, 0x01, 0x00, 0x00, 0x00,
  0x0c, 0x00, 0x00, 0x00, 0x63, 0x6f, 0x6e, 0x76, 0x32, 0x64, 0x5f, 0x69,
  0x6e, 0x70, 0x75, 0x74, 0x00, 0x00, 0x00, 0x00, 0x04, 0x00, 0x00, 0x00,
  0xff, 0xff, 0xff, 0xff, 0x40, 0x00, 0x00, 0x00, 0x03, 0x00, 0x00, 0x00,
  0x01, 0x00, 0x00, 0x00, 0xfc, 0xff, 0xff, 0xff, 0x04, 0x00, 0x04, 0x00,
  0x04, 0x00, 0x00, 0x00
  

};


unsigned int model_tflite_len = 13120;// Fill the int in `src/model.cc` here